{
  "version": "1.0",
  "truncation": null,
  "padding": null,
  "added_tokens": [],
  "normalizer": null,
  "pre_tokenizer": {
    "type": "Whitespace"
  },
  "post_processor": null,
  "decoder": null,
  "model": {
    "type": "BPE",
    "dropout": null,
    "unk_token": null,
    "continuing_subword_prefix": null,
    "end_of_word_suffix": null,
    "fuse_unk": false,
    "byte_fallback": false,
    "vocab": {
      "\u001f": 0,
      "!": 1,
      "\"": 2,
      "#": 3,
      "$": 4,
      "%": 5,
      "&": 6,
      "'": 7,
      "(": 8,
      ")": 9,
      "*": 10,
      "+": 11,
      ",": 12,
      "-": 13,
      ".": 14,
      "/": 15,
      "0": 16,
      "1": 17,
      "2": 18,
      "3": 19,
      "4": 20,
      "5": 21,
      "6": 22,
      "7": 23,
      "8": 24,
      "9": 25,
      ":": 26,
      ";": 27,
      "<": 28,
      "=": 29,
      ">": 30,
      "?": 31,
      "@": 32,
      "A": 33,
      "B": 34,
      "C": 35,
      "D": 36,
      "E": 37,
      "F": 38,
      "G": 39,
      "H": 40,
      "I": 41,
      "J": 42,
      "K": 43,
      "L": 44,
      "M": 45,
      "N": 46,
      "O": 47,
      "P": 48,
      "Q": 49,
      "R": 50,
      "S": 51,
      "T": 52,
      "U": 53,
      "V": 54,
      "W": 55,
      "X": 56,
      "Y": 57,
      "Z": 58,
      "[": 59,
      "\\": 60,
      "]": 61,
      "^": 62,
      "_": 63,
      "`": 64,
      "a": 65,
      "b": 66,
      "c": 67,
      "d": 68,
      "e": 69,
      "f": 70,
      "g": 71,
      "h": 72,
      "i": 73,
      "j": 74,
      "k": 75,
      "l": 76,
      "m": 77,
      "n": 78,
      "o": 79,
      "p": 80,
      "q": 81,
      "r": 82,
      "s": 83,
      "t": 84,
      "u": 85,
      "v": 86,
      "w": 87,
      "x": 88,
      "y": 89,
      "z": 90,
      "{": 91,
      "|": 92,
      "}": 93,
      "~": 94,
      "": 95,
      "": 96,
      "": 97,
      "": 98,
      "": 99,
      "": 100,
      "": 101,
      "": 102,
      "": 103,
      "": 104,
      "": 105,
      "": 106,
      "": 107,
      "": 108,
      "": 109,
      "": 110,
      "": 111,
      "": 112,
      "¡": 113,
      "¢": 114,
      "£": 115,
      "¥": 116,
      "¦": 117,
      "§": 118,
      "¨": 119,
      "©": 120,
      "«": 121,
      "¬": 122,
      "­": 123,
      "®": 124,
      "¯": 125,
      "°": 126,
      "±": 127,
      "³": 128,
      "´": 129,
      "¶": 130,
      "·": 131,
      "º": 132,
      "»": 133,
      "¼": 134,
      "½": 135,
      "¾": 136,
      "Á": 137,
      "Â": 138,
      "Ã": 139,
      "É": 140,
      "Í": 141,
      "Ó": 142,
      "×": 143,
      "Û": 144,
      "à": 145,
      "á": 146,
      "â": 147,
      "ä": 148,
      "ç": 149,
      "é": 150,
      "ê": 151,
      "ë": 152,
      "í": 153,
      "î": 154,
      "ï": 155,
      "ò": 156,
      "ó": 157,
      "ô": 158,
      "ö": 159,
      "÷": 160,
      "ù": 161,
      "ú": 162,
      "û": 163,
      "ü": 164,
      "ę": 165,
      "ł": 166,
      "γ": 167,
      "​": 168,
      "–": 169,
      "—": 170,
      "‘": 171,
      "’": 172,
      "“": 173,
      "”": 174,
      "„": 175,
      "•": 176,
      "…": 177,
      "€": 178,
      "™": 179,
      "■": 180,
      "□": 181,
      "►": 182,
      "♦": 183,
      "✓": 184,
      "he": 185,
      "the": 186,
      "in": 187,
      "an": 188,
      "re": 189,
      "er": 190,
      "on": 191,
      "ou": 192,
      "th": 193,
      "ar": 194,
      "at": 195,
      "ed": 196,
      "or": 197,
      "st": 198,
      "and": 199,
      "en": 200,
      "ing": 201,
      "to": 202,
      "is": 203,
      "of": 204,
      "ll": 205,
      "as": 206,
      "es": 207,
      "it": 208,
      "le": 209,
      "ro": 210,
      "ac": 211,
      "ad": 212,
      "se": 213,
      "al": 214,
      "id": 215,
      "be": 216,
      "ow": 217,
      "ch": 218,
      "me": 219,
      "ve": 220,
      "gh": 221,
      "--": 222,
      "wi": 223,
      "The": 224,
      "ld": 225,
      "ir": 226,
      "all": 227,
      "ly": 228,
      "ter": 229,
      "ag": 230,
      "**": 231,
      "hi": 232,
      "ot": 233,
      "you": 234,
      "we": 235,
      "his": 236,
      "ri": 237,
      "li": 238,
      "un": 239,
      "ent": 240,
      "that": 241,
      "ay": 242,
      "are": 243,
      "for": 244,
      "ce": 245,
      "lo": 246,
      "with": 247,
      "ut": 248,
      "was": 249,
      "ion": 250,
      "ver": 251,
      "ght": 252,
      "ur": 253,
      "om": 254,
      "ha": 255,
      "sa": 256,
      "am": 257,
      "ke": 258,
      "de": 259,
      "ho": 260,
      "il": 261,
      "ne": 262,
      "ic": 263,
      "pe": 264,
      "one": 265,
      "ain": 266,
      "her": 267,
      "fe": 268,
      "----": 269,
      "nd": 270,
      "ther": 271,
      "so": 272,
      "##": 273,
      "out": 274,
      "ard": 275,
      "ab": 276,
      "had": 277,
      "od": 278,
      "ge": 279,
      "us": 280,
      "ap": 281,
      "ure": 282,
      "ack": 283,
      "ry": 284,
      "not": 285,
      "rom": 286,
      "ore": 287,
      "ast": 288,
      "ers": 289,
      "ould": 290,
      "do": 291,
      "they": 292,
      "from": 293,
      "up": 294,
      "him": 295,
      "said": 296,
      "red": 297,
      "co": 298,
      "te": 299,
      "ck": 300,
      "ess": 301,
      "ant": 302,
      "but": 303,
      "sh": 304,
      "ra": 305,
      "ul": 306,
      "ight": 307,
      "ok": 308,
      "um": 309,
      "et": 310,
      "them": 311,
      "go": 312,
      "He": 313,
      "ill": 314,
      "have": 315,
      "acter": 316,
      "char": 317,
      "can": 318,
      "now": 319,
      "im": 320,
      "no": 321,
      "ind": 322,
      "ct": 323,
      "rou": 324,
      "pl": 325,
      "by": 326,
      "ord": 327,
      "ak": 328,
      "con": 329,
      "ong": 330,
      "if": 331,
      "bl": 332,
      "character": 333,
      "she": 334,
      "their": 335,
      "end": 336,
      "hat": 337,
      "reat": 338,
      "qu": 339,
      ".”": 340,
      "po": 341,
      "ide": 342,
      "our": 343,
      "whe": 344,
      "che": 345,
      "fo": 346,
      "mo": 347,
      "any": 348,
      "see": 349,
      "ust": 350,
      "this": 351,
      "way": 352,
      "ca": 353,
      "--------": 354,
      "were": 355,
      "op": 356,
      "art": 357,
      "ep": 358,
      "su": 359,
      "its": 360,
      "com": 361,
      "sp": 362,
      "who": 363,
      "el": 364,
      "bo": 365,
      "ven": 366,
      "wo": 367,
      "ist": 368,
      "ex": 369,
      "row": 370,
      "ate": 371,
      "tr": 372,
      "ound": 373,
      "own": 374,
      "characters": 375,
      "ss": 376,
      "arry": 377,
      "my": 378,
      "ti": 379,
      "ace": 380,
      "other": 381,
      "into": 382,
      "thing": 383,
      "ves": 384,
      "ig": 385,
      "has": 386,
      "urn": 387,
      "ation": 388,
      "whi": 389,
      "la": 390,
      "age": 391,
      "Harry": 392,
      "will": 393,
      "ous": 394,
      "It": 395,
      "ass": 396,
      "ort": 397,
      "spe": 398,
      "some": 399,
      "your": 400,
      "If": 401,
      "look": 402,
      "ire": 403,
      "ake": 404,
      "ity": 405,
      "em": 406,
      "know": 407,
      "would": 408,
      "oun": 409,
      "ark": 410,
      "like": 411,
      "ang": 412,
      "sc": 413,
      "ach": 414,
      "und": 415,
      "ever": 416,
      "pro": 417,
      "per": 418,
      "att": 419,
      "wor": 420,
      "..": 421,
      "ts": 422,
      "there": 423,
      "more": 424,
      "back": 425,
      "ath": 426,
      "ol": 427,
      "ive": 428,
      "fore": 429,
      "pre": 430,
      "ree": 431,
      "ft": 432,
      "thou": 433,
      "could": 434,
      "off": 435,
      "ey": 436,
      "sel": 437,
      "been": 438,
      "We": 439,
      "You": 440,
      "what": 441,
      "turn": 442,
      "creat": 443,
      "And": 444,
      "long": 445,
      "***": 446,
      "ment": 447,
      "cl": 448,
      "In": 449,
      "ue": 450,
      "ine": 451,
      "man": 452,
      "over": 453,
      "tain": 454,
      "pt": 455,
      "hand": 456,
      "when": 457,
      "fl": 458,
      "again": 459,
      "ped": 460,
      "orn": 461,
      "down": 462,
      "ru": 463,
      "ars": 464,
      "af": 465,
      ",”": 466,
      "king": 467,
      "arm": 468,
      "ble": 469,
      "did": 470,
      "rag": 471,
      "vent": 472,
      "here": 473,
      "ice": 474,
      "hed": 475,
      "rough": 476,
      "ull": 477,
      "side": 478,
      "ies": 479,
      "St": 480,
      "about": 481,
      ">>": 482,
      "ud": 483,
      "air": 484,
      "They": 485,
      "She": 486,
      "ber": 487,
      ",\"": 488,
      "ved": 489,
      "But": 490,
      "ite": 491,
      "ie": 492,
      "able": 493,
      "head": 494,
      "creature": 495,
      "ade": 496,
      "mon": 497,
      "use": 498,
      "than": 499,
      "ally": 500,
      "sm": 501,
      "ance": 502,
      "ater": 503,
      "ple": 504,
      "ving": 505,
      "ward": 506,
      "word": 507,
      "time": 508,
      "through": 509,
      ".’": 510,
      "ors": 511,
      "area": 512,
      "br": 513,
      "llow": 514,
      "----------------": 515,
      "light": 516,
      "act": 517,
      "clo": 518,
      "old": 519,
      "wall": 520,
      "est": 521,
      "ren": 522,
      "which": 523,
      "itt": 524,
      ".\"": 525,
      "dis": 526,
      "ful": 527,
      "ick": 528,
      "come": 529,
      "led": 530,
      "only": 531,
      "####": 532,
      "low": 533,
      "under": 534,
      "room": 535,
      "self": 536,
      "ons": 537,
      "ink": 538,
      "where": 539,
      "ans": 540,
      "war": 541,
      "day": 542,
      "ps": 543,
      "well": 544,
      "gi": 545,
      "agic": 546,
      "ga": 547,
      "10": 548,
      "iz": 549,
      "less": 550,
      "before": 551,
      "ish": 552,
      "read": 553,
      "gu": 554,
      "then": 555,
      "night": 556,
      "part": 557,
      "feet": 558,
      "gr": 559,
      "two": 560,
      "?”": 561,
      "ted": 562,
      "ye": 563,
      "venture": 564,
      "vel": 565,
      "even": 566,
      "ings": 567,
      "fa": 568,
      "must": 569,
      "pr": 570,
      "ult": 571,
      "ask": 572,
      "ser": 573,
      "ond": 574,
      "ions": 575,
      "This": 576,
      "round": 577,
      "med": 578,
      ",’": 579,
      "na": 580,
      "ran": 581,
      "gre": 582,
      "right": 583,
      "vo": 584,
      "magic": 585,
      "get": 586,
      "how": 587,
      "alf": 588,
      "might": 589,
      "came": 590,
      "unt": 591,
      "pp": 592,
      "new": 593,
      "let": 594,
      "hen": 595,
      "?\"": 596,
      "den": 597,
      "dark": 598,
      "ins": 599,
      "away": 600,
      ").": 601,
      "adventure": 602,
      "ated": 603,
      "eyes": 604,
      "des": 605,
      "ise": 606,
      "ence": 607,
      "open": 608,
      "door": 609,
      "Th": 610,
      "want": 611,
      "wh": 612,
      "stand": 613,
      "rest": 614,
      "attack": 615,
      "made": 616,
      "nor": 617,
      "ose": 618,
      "follow": 619,
      "check": 620,
      "still": 621,
      "say": 622,
      "Her": 623,
      "after": 624,
      "bed": 625,
      "ma": 626,
      "men": 627,
      "form": 628,
      "shi": 629,
      "stone": 630,
      "bro": 631,
      "gl": 632,
      "most": 633,
      "great": 634,
      "pass": 635,
      "coun": 636,
      "ci": 637,
      "each": 638,
      "sk": 639,
      "too": 640,
      "though": 641,
      "cre": 642,
      "face": 643,
      "ef": 644,
      "tri": 645,
      "rid": 646,
      "bet": 647,
      "ob": 648,
      "very": 649,
      "around": 650,
      "fir": 651,
      "vi": 652,
      "DC": 653,
      "ase": 654,
      "cle": 655,
      "suc": 656,
      "Lord": 657,
      "ild": 658,
      "rem": 659,
      "just": 660,
      "should": 661,
      "There": 662,
      "blo": 663,
      "int": 664,
      "An": 665,
      "tell": 666,
      "aster": 667,
      "spell": 668,
      "don": 669,
      "No": 670,
      "When": 671,
      "lea": 672,
      "wn": 673,
      "find": 674,
      "les": 675,
      "good": 676,
      "flo": 677,
      "So": 678,
      "What": 679,
      "ty": 680,
      "port": 681,
      "ched": 682,
      "thought": 683,
      "land": 684,
      "###": 685,
      "cess": 686,
      "drag": 687,
      "make": 688,
      "sur": 689,
      "foot": 690,
      "wood": 691,
      "never": 692,
      "ared": 693,
      "ittle": 694,
      "ross": 695,
      "ste": 696,
      ".***": 697,
      "mu": 698,
      "call": 699,
      "hel": 700,
      "water": 701,
      "every": 702,
      "black": 703,
      "ary": 704,
      "ron": 705,
      "looked": 706,
      "set": 707,
      "sil": 708,
      "atch": 709,
      "!\"": 710,
      "need": 711,
      "Ron": 712,
      "Ch": 713,
      "mem": 714,
      "ign": 715,
      "On": 716,
      "vis": 717,
      "first": 718,
      "while": 719,
      "ood": 720,
      "fire": 721,
      "ness": 722,
      "ough": 723,
      "got": 724,
      "tak": 725,
      "outh": 726,
      "als": 727,
      "take": 728,
      "wa": 729,
      "bu": 730,
      "bre": 731,
      "hind": 732,
      "tre": 733,
      "car": 734,
      "turned": 735,
      "ling": 736,
      "hold": 737,
      "At": 738,
      "three": 739,
      "once": 740,
      "ix": 741,
      "wind": 742,
      "dam": 743,
      "lt": 744,
      "ory": 745,
      "Be": 746,
      "sed": 747,
      "alt": 748,
      "run": 749,
      "ction": 750,
      "cur": 751,
      "alk": 752,
      "last": 753,
      "sl": 754,
      "keep": 755,
      "ta": 756,
      "ower": 757,
      "ning": 758,
      "little": 759,
      "Ro": 760,
      "play": 761,
      "cast": 762,
      "sword": 763,
      "As": 764,
      "arch": 765,
      "guard": 766,
      "ug": 767,
      "min": 768,
      "ff": 769,
      "went": 770,
      "Ser": 771,
      "sent": 772,
      "much": 773,
      "beg": 774,
      "bled": 775,
      "ten": 776,
      "these": 777,
      "ters": 778,
      "dead": 779,
      "cr": 780,
      "ev": 781,
      "cri": 782,
      "mer": 783,
      "against": 784,
      "behind": 785,
      "Herm": 786,
      "ster": 787,
      "20": 788,
      "),": 789,
      "many": 790,
      "ione": 791,
      "str": 792,
      "ting": 793,
      "Hermione": 794,
      "fall": 795,
      "ks": 796,
      "ants": 797,
      "small": 798,
      "For": 799,
      "think": 800,
      "sing": 801,
      "Ar": 802,
      "ith": 803,
      "ily": 804,
      "ied": 805,
      "ream": 806,
      "roll": 807,
      "lead": 808,
      "?’": 809,
      "saw": 810,
      "left": 811,
      "That": 812,
      "aring": 813,
      "kill": 814,
      "lord": 815,
      "place": 816,
      "15": 817,
      "tem": 818,
      "sha": 819,
      "blood": 820,
      "hum": 821,
      "ear": 822,
      "floor": 823,
      "high": 824,
      "ince": 825,
      "also": 826,
      "full": 827,
      "does": 828,
      "found": 829,
      "ens": 830,
      "half": 831,
      "amp": 832,
      "hor": 833,
      "ls": 834,
      "table": 835,
      "wer": 836,
      "appe": 837,
      "ene": 838,
      "arge": 839,
      "ened": 840,
      "ouse": 841,
      ".'": 842,
      "tra": 843,
      "deep": 844,
      "upon": 845,
      "--------------------------------": 846,
      "rown": 847,
      "ious": 848,
      "those": 849,
      "ged": 850,
      "lim": 851,
      "abo": 852,
      "far": 853,
      "inter": 854,
      "asure": 855,
      "Do": 856,
      "cont": 857,
      "tains": 858,
      "until": 859,
      "himself": 860,
      "cho": 861,
      "cap": 862,
      "Ty": 863,
      "heard": 864,
      "told": 865,
      "ces": 866,
      "ann": 867,
      "used": 868,
      "damage": 869,
      "Se": 870,
      "ows": 871,
      "res": 872,
      "De": 873,
      "add": 874,
      "ches": 875,
      "try": 876,
      "ced": 877,
      "Fro": 878,
      "another": 879,
      "level": 880,
      "gold": 881,
      "ones": 882,
      "...": 883,
      "ends": 884,
      "iled": 885,
      "walls": 886,
      "cause": 887,
      "ating": 888,
      "such": 889,
      "cor": 890,
      "took": 891,
      "lay": 892,
      "near": 893,
      "bar": 894,
      "may": 895,
      "cour": 896,
      "His": 897,
      "ys": 898,
      "ison": 899,
      "remain": 900,
      "cher": 901,
      "!’": 902,
      "comm": 903,
      "following": 904,
      "dragon": 905,
      "ways": 906,
      "Re": 907,
      "val": 908,
      "fect": 909,
      "ople": 910,
      "que": 911,
      "bit": 912,
      "ween": 913,
      "pri": 914,
      "umbled": 915,
      "ger": 916,
      "lie": 917,
      "ates": 918,
      ",'": 919,
      "few": 920,
      "without": 921,
      "Then": 922,
      "Pr": 923,
      "cent": 924,
      "enough": 925,
      "xt": 926,
      "toward": 927,
      "voice": 928,
      "success": 929,
      "mar": 930,
      "dom": 931,
      "tim": 932,
      "help": 933,
      "ugh": 934,
      "work": 935,
      "sup": 936,
      "ground": 937,
      "between": 938,
      "seemed": 939,
      "oud": 940,
      "going": 941,
      "moun": 942,
      "ents": 943,
      "rs": 944,
      "asked": 945,
      "inn": 946,
      "sle": 947,
      "To": 948,
      "above": 949,
      "Frodo": 950,
      "put": 951,
      "looking": 952,
      "city": 953,
      "fell": 954,
      "jo": 955,
      "Sam": 956,
      "cer": 957,
      "along": 958,
      "ms": 959,
      "happ": 960,
      "cked": 961,
      "sho": 962,
      "ile": 963,
      "ung": 964,
      "speak": 965,
      "app": 966,
      "av": 967,
      "My": 968,
      "sn": 969,
      "fri": 970,
      "bod": 971,
      "ised": 972,
      "Le": 973,
      "hy": 974,
      "fin": 975,
      "leg": 976,
      "bes": 977,
      "something": 978,
      "00": 979,
      "12": 980,
      "cept": 981,
      "tered": 982,
      "people": 983,
      "ring": 984,
      "seen": 985,
      "Ger": 986,
      "zard": 987,
      "igh": 988,
      "knew": 989,
      "da": 990,
      "human": 991,
      "hard": 992,
      "hands": 993,
      "raw": 994,
      "step": 995,
      "father": 996,
      "across": 997,
      "ady": 998,
      "poin": 999,
      "All": 1000,
      "stood": 1001,
      "book": 1002,
      "Char": 1003,
      "white": 1004,
      "fer": 1005,
      "pa": 1006,
      "ier": 1007,
      "web": 1008,
      "nothing": 1009,
      "qui": 1010,
      "iling": 1011,
      "ister": 1012,
      "stat": 1013,
      "Or": 1014,
      "large": 1015,
      "yet": 1016,
      "fight": 1017,
      "mak": 1018,
      "ready": 1019,
      "hes": 1020,
      "Bl": 1021,
      "cla": 1022,
      "gp": 1023,
      "wit": 1024,
      "je": 1025,
      "wr": 1026,
      "ither": 1027,
      "Gr": 1028,
      "called": 1029,
      "four": 1030,
      "comp": 1031,
      "ations": 1032,
      "ken": 1033,
      "ats": 1034,
      "Geralt": 1035,
      "tal": 1036,
      "ished": 1037,
      "mis": 1038,
      "hear": 1039,
      "sound": 1040,
      "wom": 1041,
      "iron": 1042,
      "ures": 1043,
      "nam": 1044,
      "ible": 1045,
      "ze": 1046,
      "mom": 1047,
      "ank": 1048,
      "cond": 1049,
      "power": 1050,
      "dwar": 1051,
      "dist": 1052,
      "shall": 1053,
      "ual": 1054,
      "gir": 1055,
      "orm": 1056,
      "ition": 1057,
      "creatures": 1058,
      "ia": 1059,
      "give": 1060,
      "hit": 1061,
      "cted": 1062,
      "stru": 1063,
      "within": 1064,
      "loc": 1065,
      "oc": 1066,
      "cold": 1067,
      "How": 1068,
      "won": 1069,
      "King": 1070,
      "arri": 1071,
      "En": 1072,
      "successful": 1073,
      "shad": 1074,
      "sts": 1075,
      "ash": 1076,
      "eld": 1077,
      "start": 1078,
      "years": 1079,
      "world": 1080,
      "vered": 1081,
      "aw": 1082,
      "heart": 1083,
      "ial": 1084,
      "iri": 1085,
      "north": 1086,
      "ship": 1087,
      "Dumbled": 1088,
      "Dumbledore": 1089,
      "hour": 1090,
      "cks": 1091,
      "cret": 1092,
      "nat": 1093,
      "ities": 1094,
      "hair": 1095,
      "dr": 1096,
      "name": 1097,
      "**.": 1098,
      "anger": 1099,
      "hall": 1100,
      "1d": 1101,
      "reg": 1102,
      "ately": 1103,
      "attle": 1104,
      "being": 1105,
      "ils": 1106,
      "inside": 1107,
      "Jon": 1108,
      "stop": 1109,
      "ceed": 1110,
      "bers": 1111,
      "enter": 1112,
      "moment": 1113,
      "next": 1114,
      "child": 1115,
      "tom": 1116,
      "fill": 1117,
      "lk": 1118,
      "Some": 1119,
      "same": 1120,
      "Co": 1121,
      "top": 1122,
      "gth": 1123,
      "real": 1124,
      "return": 1125,
      "both": 1126,
      "wait": 1127,
      "party": 1128,
      "house": 1129,
      "aces": 1130,
      "ress": 1131,
      "ph": 1132,
      "vern": 1133,
      "brother": 1134,
      "quest": 1135,
      "ages": 1136,
      "leave": 1137,
      "*,": 1138,
      "squ": 1139,
      "lls": 1140,
      "press": 1141,
      "god": 1142,
      "hid": 1143,
      "ane": 1144,
      "idd": 1145,
      "move": 1146,
      "days": 1147,
      "gar": 1148,
      "uring": 1149,
      "ris": 1150,
      "ered": 1151,
      "giant": 1152,
      "arn": 1153,
      "Mo": 1154,
      "arrow": 1155,
      "feel": 1156,
      "cham": 1157,
      "fle": 1158,
      "ility": 1159,
      "body": 1160,
      "dden": 1161,
      "Per": 1162,
      "One": 1163,
      "ering": 1164,
      "life": 1165,
      "El": 1166,
      "tun": 1167,
      "action": 1168,
      "wand": 1169,
      "gave": 1170,
      "pers": 1171,
      "du": 1172,
      "ush": 1173,
      "throw": 1174,
      "Un": 1175,
      "swe": 1176,
      "Al": 1177,
      "fing": 1178,
      "rion": 1179,
      "didn": 1180,
      "death": 1181,
      "owed": 1182,
      "folk": 1183,
      "sun": 1184,
      "dif": 1185,
      "ret": 1186,
      "times": 1187,
      "tall": 1188,
      "dest": 1189,
      "Con": 1190,
      "](": 1191,
      "south": 1192,
      "chap": 1193,
      "sudden": 1194,
      "Tre": 1195,
      "sim": 1196,
      "img": 1197,
      "webp": 1198,
      "![": 1199,
      "point": 1200,
      "pped": 1201,
      "Spe": 1202,
      "soon": 1203,
      "eneath": 1204,
      "pur": 1205,
      "weap": 1206,
      "os": 1207,
      "bey": 1208,
      "pull": 1209,
      "felt": 1210,
      "quick": 1211,
      "below": 1212,
      "atter": 1213,
      "youn": 1214,
      "walk": 1215,
      "green": 1216,
      "burn": 1217,
      "command": 1218,
      "because": 1219,
      "horse": 1220,
      "11": 1221,
      "mind": 1222,
      "tou": 1223,
      "evil": 1224,
      "coming": 1225,
      "things": 1226,
      "knight": 1227,
      "watch": 1228,
      "succeed": 1229,
      "iv": 1230,
      "ele": 1231,
      "Lo": 1232,
      "trap": 1233,
      "vers": 1234,
      "boy": 1235,
      "rent": 1236,
      "town": 1237,
      "chapter": 1238,
      "Well": 1239,
      "ize": 1240,
      "ird": 1241,
      "Go": 1242,
      "road": 1243,
      "lies": 1244,
      "stair": 1245,
      "fron": 1246,
      "close": 1247,
      "words": 1248,
      "Com": 1249,
      "gri": 1250,
      "battle": 1251,
      "ley": 1252,
      "west": 1253,
      "ught": 1254,
      "using": 1255,
      "Drag": 1256,
      "fear": 1257,
      "member": 1258,
      "ah": 1259,
      "13": 1260,
      "sat": 1261,
      "cut": 1262,
      "pot": 1263,
      "uck": 1264,
      "Your": 1265,
      "son": 1266,
      "appro": 1267,
      "ket": 1268,
      "fam": 1269,
      "poss": 1270,
      "cult": 1271,
      "gate": 1272,
      "sw": 1273,
      "others": 1274,
      "girl": 1275,
      "Ri": 1276,
      "Dex": 1277,
      "cloak": 1278,
      "tower": 1279,
      "dri": 1280,
      "Tyrion": 1281,
      "ined": 1282,
      "hund": 1283,
      "free": 1284,
      "**,": 1285,
      "gone": 1286,
      "among": 1287,
      "always": 1288,
      "Ma": 1289,
      "14": 1290,
      "mouth": 1291,
      "cry": 1292,
      "ider": 1293,
      "map": 1294,
      "roy": 1295,
      "secret": 1296,
      "better": 1297,
      "points": 1298,
      "covered": 1299,
      "beneath": 1300,
      "lost": 1301,
      "arms": 1302,
      "dire": 1303,
      "dev": 1304,
      "save": 1305,
      "Wis": 1306,
      "worth": 1307,
      "present": 1308,
      "home": 1309,
      "range": 1310,
      "known": 1311,
      "Black": 1312,
      "Not": 1313,
      "ald": 1314,
      "Any": 1315,
      "doors": 1316,
      "ains": 1317,
      "pic": 1318,
      "done": 1319,
      "rey": 1320,
      "woman": 1321,
      "dou": 1322,
      "cy": 1323,
      "eas": 1324,
      "slow": 1325,
      "Ad": 1326,
      "gg": 1327,
      "geon": 1328,
      "ago": 1329,
      "rength": 1330,
      "sure": 1331,
      "wooden": 1332,
      "fter": 1333,
      "ists": 1334,
      "chamber": 1335,
      "fully": 1336,
      "anything": 1337,
      "cross": 1338,
      "rew": 1339,
      "win": 1340,
      "encoun": 1341,
      "grow": 1342,
      "rought": 1343,
      "wide": 1344,
      "ics": 1345,
      "ofess": 1346,
      "castle": 1347,
      "began": 1348,
      "front": 1349,
      "mean": 1350,
      "wizard": 1351,
      "selves": 1352,
      "wise": 1353,
      "hundred": 1354,
      "After": 1355,
      "Character": 1356,
      "care": 1357,
      "since": 1358,
      "hur": 1359,
      "serv": 1360,
      "ached": 1361,
      "belie": 1362,
      "list": 1363,
      "effect": 1364,
      "ian": 1365,
      "Gand": 1366,
      "clim": 1367,
      "Gandalf": 1368,
      "item": 1369,
      "either": 1370,
      "ield": 1371,
      "Ho": 1372,
      "ured": 1373,
      "comes": 1374,
      "inform": 1375,
      "pain": 1376,
      "ized": 1377,
      "wol": 1378,
      "ently": 1379,
      "path": 1380,
      "ments": 1381,
      "wild": 1382,
      "gether": 1383,
      "cir": 1384,
      "fly": 1385,
      "fur": 1386,
      "uses": 1387,
      "Da": 1388,
      "second": 1389,
      "bb": 1390,
      "ried": 1391,
      "lit": 1392,
      "sleep": 1393,
      "def": 1394,
      "bat": 1395,
      "vill": 1396,
      "named": 1397,
      "else": 1398,
      "why": 1399,
      "beyond": 1400,
      "cts": 1401,
      "ime": 1402,
      "ased": 1403,
      "incl": 1404,
      "oft": 1405,
      "bus": 1406,
      "shout": 1407,
      "ges": 1408,
      "reve": 1409,
      "Treasure": 1410,
      "safe": 1411,
      "already": 1412,
      "Qu": 1413,
      "ually": 1414,
      "ening": 1415,
      "stri": 1416,
      "Is": 1417,
      "doesn": 1418,
      "cup": 1419,
      "break": 1420,
      "Characters": 1421,
      "These": 1422,
      "ular": 1423,
      "ded": 1424,
      "together": 1425,
      "va": 1426,
      "ange": 1427,
      "haps": 1428,
      ".**": 1429,
      "bow": 1430,
      "east": 1431,
      "ended": 1432,
      "ending": 1433,
      "With": 1434,
      "!”": 1435,
      "contains": 1436,
      "brid": 1437,
      "trees": 1438,
      "Now": 1439,
      "uri": 1440,
      "Ex": 1441,
      "hope": 1442,
      "almost": 1443,
      "short": 1444,
      "Sh": 1445,
      "ery": 1446,
      "silver": 1447,
      "Each": 1448,
      "sum": 1449,
      "best": 1450,
      "bur": 1451,
      "young": 1452,
      "coll": 1453,
      "stud": 1454,
      "sli": 1455,
      "*.": 1456,
      "kind": 1457,
      "ained": 1458,
      "sea": 1459,
      "common": 1460,
      "taken": 1461,
      "ofessor": 1462,
      "ener": 1463,
      "past": 1464,
      "ural": 1465,
      "ices": 1466,
      "cover": 1467,
      "Cha": 1468,
      "Hag": 1469,
      "dec": 1470,
      "clear": 1471,
      "passed": 1472,
      "arp": 1473,
      "dered": 1474,
      "sight": 1475,
      "friend": 1476,
      "dro": 1477,
      "sign": 1478,
      "suddenly": 1479,
      "!'": 1480,
      "Yes": 1481,
      "spir": 1482,
      "takes": 1483,
      "true": 1484,
      "col": 1485,
      "ense": 1486,
      "aren": 1487,
      "learn": 1488,
      "saving": 1489,
      "ather": 1490,
      "Mr": 1491,
      "guards": 1492,
      "information": 1493,
      "acks": 1494,
      "swi": 1495,
      "cial": 1496,
      "Dragon": 1497,
      "eye": 1498,
      "Professor": 1499,
      "ides": 1500,
      "par": 1501,
      "nder": 1502,
      "stead": 1503,
      "iddle": 1504,
      "feat": 1505,
      "30": 1506,
      "brought": 1507,
      "sou": 1508,
      "uth": 1509,
      "aced": 1510,
      "Lady": 1511,
      "moved": 1512,
      "law": 1513,
      "16": 1514,
      "enne": 1515,
      "gn": 1516,
      "adventurers": 1517,
      "Ciri": 1518,
      "descri": 1519,
      "ave": 1520,
      "least": 1521,
      "meet": 1522,
      "dream": 1523,
      "Mer": 1524,
      "Mar": 1525,
      "Att": 1526,
      "az": 1527,
      "ots": 1528,
      "strong": 1529,
      "master": 1530,
      "adv": 1531,
      "lion": 1532,
      "pat": 1533,
      "gobl": 1534,
      "river": 1535,
      "six": 1536,
      "ines": 1537,
      "whis": 1538,
      "uff": 1539,
      "tle": 1540,
      "rel": 1541,
      "exp": 1542,
      "pty": 1543,
      "themselves": 1544,
      "50": 1545,
      "reach": 1546,
      "ards": 1547,
      "standing": 1548,
      "magical": 1549,
      "Gu": 1550,
      "ib": 1551,
      "Hagrid": 1552,
      "mine": 1553,
      "sor": 1554,
      "queen": 1555,
      "thin": 1556,
      "tect": 1557,
      "ral": 1558,
      "fre": 1559,
      "chest": 1560,
      "expe": 1561,
      "knows": 1562,
      "key": 1563,
      "band": 1564,
      "ping": 1565,
      "ying": 1566,
      "quiet": 1567,
      "sub": 1568,
      "pos": 1569,
      "rock": 1570,
      "Wisdom": 1571,
      "anyone": 1572,
      "case": 1573,
      "camp": 1574,
      "Me": 1575,
      "ided": 1576,
      "course": 1577,
      "smo": 1578,
      "ton": 1579,
      "?'": 1580,
      "witcher": 1581,
      "fro": 1582,
      "certain": 1583,
      "mist": 1584,
      "Why": 1585,
      "poison": 1586,
      "bri": 1587,
      "twi": 1588,
      "prom": 1589,
      "bring": 1590,
      "Red": 1591,
      "male": 1592,
      "wel": 1593,
      "----------------------------------------------------------------": 1594,
      "host": 1595,
      "Once": 1596,
      "crow": 1597,
      "sme": 1598,
      "alone": 1599,
      "wanted": 1600,
      "yn": 1601,
      "fig": 1602,
      "hal": 1603,
      "oth": 1604,
      "talk": 1605,
      "empty": 1606,
      "17": 1607,
      "der": 1608,
      "Let": 1609,
      "hu": 1610,
      "outside": 1611,
      "cing": 1612,
      "wat": 1613,
      "lee": 1614,
      "endix": 1615,
      "Mor": 1616,
      "corn": 1617,
      "destroy": 1618,
      "gard": 1619,
      "steps": 1620,
      "bon": 1621,
      "ging": 1622,
      "held": 1623,
      "ek": 1624,
      "lands": 1625,
      "hang": 1626,
      "laugh": 1627,
      "broken": 1628,
      "minut": 1629,
      "pair": 1630,
      "spo": 1631,
      "stay": 1632,
      "cannot": 1633,
      "cell": 1634,
      "thr": 1635,
      "natural": 1636,
      "num": 1637,
      "prov": 1638,
      "tar": 1639,
      "fort": 1640,
      "threat": 1641,
      "bot": 1642,
      "ical": 1643,
      "ues": 1644,
      "18": 1645,
      "dwarf": 1646,
      "filled": 1647,
      "drow": 1648,
      "beside": 1649,
      "grou": 1650,
      "Who": 1651,
      "wish": 1652,
      "loud": 1653,
      "trying": 1654,
      "food": 1655,
      "contin": 1656,
      "ip": 1657,
      "ror": 1658,
      "Even": 1659,
      "deed": 1660,
      "plan": 1661,
      "travel": 1662,
      "ned": 1663,
      "search": 1664,
      "given": 1665,
      "raised": 1666,
      "ceiling": 1667,
      "ability": 1668,
      "Sna": 1669,
      "sever": 1670,
      "hidden": 1671,
      "Under": 1672,
      "tunne": 1673,
      "itting": 1674,
      "comple": 1675,
      "armor": 1676,
      "bad": 1677,
      "ushed": 1678,
      "lly": 1679,
      "Fe": 1680,
      "Don": 1681,
      "sy": 1682,
      "five": 1683,
      "bridge": 1684,
      "thick": 1685,
      "wine": 1686,
      "big": 1687,
      "sky": 1688,
      "bs": 1689,
      "deal": 1690,
      "Snape": 1691,
      "ungeon": 1692,
      "Water": 1693,
      "fast": 1694,
      "opened": 1695,
      "Sp": 1696,
      "someone": 1697,
      "touch": 1698,
      "several": 1699,
      "yr": 1700,
      "gods": 1701,
      "field": 1702,
      "mur": 1703,
      "grey": 1704,
      "during": 1705,
      "Will": 1706,
      "Oh": 1707,
      "gest": 1708,
      "19": 1709,
      "claim": 1710,
      "Two": 1711,
      "mother": 1712,
      "pit": 1713,
      "sol": 1714,
      "Ja": 1715,
      "attacks": 1716,
      "blue": 1717,
      "understand": 1718,
      "rang": 1719,
      "build": 1720,
      "pie": 1721,
      "quickly": 1722,
      "ney": 1723,
      "rain": 1724,
      "tor": 1725,
      "shadow": 1726,
      "Nor": 1727,
      "bling": 1728,
      "appendix": 1729,
      "hors": 1730,
      "Dark": 1731,
      "van": 1732,
      "inte": 1733,
      "aff": 1734,
      "mark": 1735,
      "mil": 1736,
      "zen": 1737,
      "avy": 1738,
      "orning": 1739,
      "cons": 1740,
      "Weas": 1741,
      "shield": 1742,
      "kne": 1743,
      "doing": 1744,
      "making": 1745,
      "trou": 1746,
      "killed": 1747,
      "Pot": 1748,
      "story": 1749,
      "ester": 1750,
      "Str": 1751,
      "visit": 1752,
      "anim": 1753,
      "later": 1754,
      "ids": 1755,
      "pose": 1756,
      "ception": 1757,
      "Pl": 1758,
      "year": 1759,
      "children": 1760,
      "pay": 1761,
      "ols": 1762,
      "deter": 1763,
      "Ary": 1764,
      "San": 1765,
      "force": 1766,
      "mal": 1767,
      "eth": 1768,
      "love": 1769,
      "wond": 1770,
      "tellig": 1771,
      "iness": 1772,
      "rot": 1773,
      "apped": 1774,
      "become": 1775,
      "darkness": 1776,
      "d6": 1777,
      "elf": 1778,
      "pulled": 1779,
      "ought": 1780,
      "appear": 1781,
      "diffe": 1782,
      "ously": 1783,
      "Har": 1784,
      "ames": 1785,
      "ably": 1786,
      "quire": 1787,
      "cape": 1788,
      "pes": 1789,
      "danger": 1790,
      "earth": 1791,
      "soft": 1792,
      "wed": 1793,
      "heavy": 1794,
      "vest": 1795,
      "melee": 1796,
      "ell": 1797,
      "rum": 1798,
      "taking": 1799,
      "horses": 1800,
      "gain": 1801,
      "ative": 1802,
      "ashed": 1803,
      "cloud": 1804,
      "Men": 1805,
      "ax": 1806,
      "tempt": 1807,
      "draw": 1808,
      "rup": 1809,
      "snow": 1810,
      "chance": 1811,
      ">**": 1812,
      "rand": 1813,
      "line": 1814,
      "terity": 1815,
      "Dexterity": 1816,
      "chair": 1817,
      "cave": 1818,
      "chang": 1819,
      "caught": 1820,
      "hon": 1821,
      "ason": 1822,
      "ounds": 1823,
      "show": 1824,
      "mut": 1825,
      "forward": 1826,
      "tried": 1827,
      "onto": 1828,
      "iny": 1829,
      "fingers": 1830,
      "lic": 1831,
      "ner": 1832,
      "exam": 1833,
      "towards": 1834,
      "morning": 1835,
      "died": 1836,
      "tree": 1837,
      "often": 1838,
      "herself": 1839,
      "thro": 1840,
      "aged": 1841,
      "Whi": 1842,
      "strange": 1843,
      "Hall": 1844,
      "remember": 1845,
      "plain": 1846,
      "treasure": 1847,
      "scream": 1848,
      "Bar": 1849,
      "lock": 1850,
      "aur": 1851,
      "Arya": 1852,
      "sla": 1853,
      "var": 1854,
      "aut": 1855,
      "horn": 1856,
      "gs": 1857,
      "bt": 1858,
      "makes": 1859,
      "gra": 1860,
      "person": 1861,
      "encounter": 1862,
      "prison": 1863,
      "slowly": 1864,
      "ident": 1865,
      "cal": 1866,
      "fic": 1867,
      "giants": 1868,
      "ench": 1869,
      "Weasley": 1870,
      "hill": 1871,
      "closed": 1872,
      "neck": 1873,
      "dragons": 1874,
      "stones": 1875,
      "iss": 1876,
      "includ": 1877,
      "Attack": 1878,
      "stre": 1879,
      "members": 1880,
      "Jaime": 1881,
      "stra": 1882,
      "weapons": 1883,
      "unity": 1884,
      "forest": 1885,
      "remains": 1886,
      "believe": 1887,
      "Mal": 1888,
      "longer": 1889,
      "Pi": 1890,
      "athe": 1891,
      "die": 1892,
      "rode": 1893,
      "order": 1894,
      "Great": 1895,
      "raid": 1896,
      "Arag": 1897,
      "Min": 1898,
      "stands": 1899,
      "bright": 1900,
      "ude": 1901,
      "spells": 1902,
      "glo": 1903,
      "glass": 1904,
      "alley": 1905,
      "non": 1906,
      "pale": 1907,
      "orc": 1908,
      "sit": 1909,
      "hours": 1910,
      "ref": 1911,
      "answer": 1912,
      "group": 1913,
      "really": 1914,
      "inv": 1915,
      "Master": 1916,
      "lled": 1917,
      "cavern": 1918,
      "isn": 1919,
      "event": 1920,
      "spl": 1921,
      "conf": 1922,
      "interest": 1923,
      "statue": 1924,
      "dra": 1925,
      "ored": 1926,
      "aven": 1927,
      "rol": 1928,
      "telligence": 1929,
      "sters": 1930,
      "reached": 1931,
      "breath": 1932,
      "wolf": 1933,
      "Aragorn": 1934,
      "live": 1935,
      "Tr": 1936,
      "bear": 1937,
      "allen": 1938,
      "**'": 1939,
      "ked": 1940,
      "Dand": 1941,
      "25": 1942,
      "Bran": 1943,
      "corner": 1944,
      "fish": 1945,
      "size": 1946,
      "players": 1947,
      "acti": 1948,
      "section": 1949,
      "ically": 1950,
      "surround": 1951,
      "contain": 1952,
      "Three": 1953,
      "mor": 1954,
      "edge": 1955,
      "har": 1956,
      "surpr": 1957,
      "Where": 1958,
      "ili": 1959,
      "mountain": 1960,
      "vision": 1961,
      "matter": 1962,
      "beard": 1963,
      "spoke": 1964,
      "rose": 1965,
      "au": 1966,
      "acked": 1967,
      "quite": 1968,
      "cient": 1969,
      "ject": 1970,
      "sto": 1971,
      "square": 1972,
      "Im": 1973,
      "Old": 1974,
      "legs": 1975,
      "fact": 1976,
      "born": 1977,
      "House": 1978,
      "ale": 1979,
      "carry": 1980,
      "middle": 1981,
      "demon": 1982,
      "rit": 1983,
      "moon": 1984,
      "skin": 1985,
      "aling": 1986,
      "Cer": 1987,
      "stairs": 1988,
      "ub": 1989,
      "warm": 1990,
      "change": 1991,
      "attered": 1992,
      "kept": 1993,
      "says": 1994,
      "different": 1995,
      "Lann": 1996,
      "met": 1997,
      "layer": 1998,
      "hide": 1999,
      "golden": 2000,
      "mand": 2001,
      "walked": 2002,
      "cas": 2003,
      "Em": 2004,
      "ilt": 2005,
      "oo": 2006,
      "monster": 2007,
      "everything": 2008,
      "River": 2009,
      "appeared": 2010,
      "seem": 2011,
      "Tom": 2012,
      "avo": 2013,
      "whose": 2014,
      "fun": 2015,
      "require": 2016,
      "unless": 2017,
      "rather": 2018,
      "ining": 2019,
      "ousand": 2020,
      "60": 2021,
      "carved": 2022,
      "window": 2023,
      "sion": 2024,
      "alth": 2025,
      "pick": 2026,
      "Strength": 2027,
      "Hand": 2028,
      "Dany": 2029,
      "mir": 2030,
      "foy": 2031,
      "happened": 2032,
      "bra": 2033,
      "reen": 2034,
      "Sansa": 2035,
      "Only": 2036,
      "doubt": 2037,
      "iant": 2038,
      "aled": 2039,
      "ppin": 2040,
      "bones": 2041,
      "Pippin": 2042,
      "ump": 2043,
      "ables": 2044,
      "however": 2045,
      "ching": 2046,
      "friends": 2047,
      "Wit": 2048,
      "lift": 2049,
      "sold": 2050,
      "Moun": 2051,
      "family": 2052,
      "ike": 2053,
      "escape": 2054,
      "scar": 2055,
      "leads": 2056,
      "Are": 2057,
      "sus": 2058,
      "ses": 2059,
      "silent": 2060,
      "Intelligence": 2061,
      "bert": 2062,
      "cried": 2063,
      "High": 2064,
      "Ye": 2065,
      "tong": 2066,
      "sharp": 2067,
      "emer": 2068,
      "priest": 2069,
      "pered": 2070,
      "bor": 2071,
      "possible": 2072,
      "Ne": 2073,
      "zz": 2074,
      "stal": 2075,
      "Sm": 2076,
      "climb": 2077,
      "vic": 2078,
      "serve": 2079,
      "locked": 2080,
      "swords": 2081,
      "main": 2082,
      "teeth": 2083,
      "arts": 2084,
      "hung": 2085,
      "returned": 2086,
      "terri": 2087,
      "ni": 2088,
      "daugh": 2089,
      "By": 2090,
      "hig": 2091,
      "di": 2092,
      "moving": 2093,
      "mad": 2094,
      "followed": 2095,
      "):": 2096,
      "test": 2097,
      "mental": 2098,
      "gotten": 2099,
      "grew": 2100,
      "obb": 2101,
      "weapon": 2102,
      "ns": 2103,
      "stream": 2104,
      "bonus": 2105,
      "Malfoy": 2106,
      "Stark": 2107,
      "Que": 2108,
      "Sil": 2109,
      "wing": 2110,
      "box": 2111,
      "narrow": 2112,
      "perhaps": 2113,
      "partic": 2114,
      "*)": 2115,
      "dress": 2116,
      "bas": 2117,
      "ths": 2118,
      "itself": 2119,
      "appears": 2120,
      "gle": 2121,
      "ries": 2122,
      "waiting": 2123,
      "attempt": 2124,
      "truth": 2125,
      "Other": 2126,
      "ball": 2127,
      "gue": 2128,
      "Po": 2129,
      "harm": 2130,
      "lady": 2131,
      "posed": 2132,
      "spect": 2133,
      "whole": 2134,
      "Every": 2135,
      "eat": 2136,
      "holds": 2137,
      "Magic": 2138,
      "ancient": 2139,
      "rac": 2140,
      "temple": 2141,
      "fair": 2142,
      "flat": 2143,
      "gan": 2144,
      "ets": 2145,
      "ilities": 2146,
      "compan": 2147,
      "yes": 2148,
      "tele": 2149,
      "tunnel": 2150,
      "Bil": 2151,
      "pal": 2152,
      "thousand": 2153,
      "roof": 2154,
      "instead": 2155,
      "aked": 2156,
      "ledge": 2157,
      "areas": 2158,
      "Merry": 2159,
      "combat": 2160,
      "smile": 2161,
      "-\"": 2162,
      "living": 2163,
      "Come": 2164,
      "cus": 2165,
      "looks": 2166,
      "leather": 2167,
      "explo": 2168,
      "ply": 2169,
      "sister": 2170,
      "approach": 2171,
      "kno": 2172,
      "leading": 2173,
      "Bilbo": 2174,
      "lan": 2175,
      "Ed": 2176,
      "Gate": 2177,
      "Vold": 2178,
      "gy": 2179,
      "beaut": 2180,
      "passage": 2181,
      "stopped": 2182,
      "ding": 2183,
      "entr": 2184,
      "unk": 2185,
      "shel": 2186,
      "emort": 2187,
      "scr": 2188,
      "holding": 2189,
      "ughed": 2190,
      "Voldemort": 2191,
      "Grace": 2192,
      "ited": 2193,
      "laughed": 2194,
      "Stone": 2195,
      "question": 2196,
      "dy": 2197,
      "heads": 2198,
      "wards": 2199,
      "iti": 2200,
      "asks": 2201,
      "medi": 2202,
      "items": 2203,
      "tent": 2204,
      "ilar": 2205,
      "space": 2206,
      "Bo": 2207,
      "none": 2208,
      "whether": 2209,
      "song": 2210,
      "drew": 2211,
      "pool": 2212,
      "silence": 2213,
      "village": 2214,
      "Fort": 2215,
      "Hal": 2216,
      "hun": 2217,
      "spot": 2218,
      "ctions": 2219,
      "except": 2220,
      "dwarves": 2221,
      "warri": 2222,
      "Am": 2223,
      "kes": 2224,
      "wearing": 2225,
      "running": 2226,
      "ficult": 2227,
      "jour": 2228,
      "City": 2229,
      "pping": 2230,
      "While": 2231,
      "rul": 2232,
      "iders": 2233,
      "Ab": 2234,
      "Man": 2235,
      "class": 2236,
      "From": 2237,
      "bal": 2238,
      "sort": 2239,
      "shouted": 2240,
      "elion": 2241,
      "straight": 2242,
      "cat": 2243,
      "sei": 2244,
      "Cersei": 2245,
      "hood": 2246,
      "offer": 2247,
      "visible": 2248,
      "company": 2249,
      "Perception": 2250,
      "bol": 2251,
      "cil": 2252,
      "mess": 2253,
      "Ste": 2254,
      "Tower": 2255,
      "crown": 2256,
      "claw": 2257,
      "thern": 2258,
      "count": 2259,
      "begin": 2260,
      "Sk": 2261,
      "star": 2262,
      "ony": 2263,
      "bles": 2264,
      "pen": 2265,
      "ride": 2266,
      "deta": 2267,
      "Shi": 2268,
      "…’": 2269,
      "leaves": 2270,
      "cultists": 2271,
      "Their": 2272,
      "fallen": 2273,
      "Val": 2274,
      "bird": 2275,
      "wasn": 2276,
      "fool": 2277,
      "teen": 2278,
      "wered": 2279,
      "Night": 2280,
      "haven": 2281,
      "wenty": 2282,
      "ired": 2283,
      "meant": 2284,
      "Potter": 2285,
      "bare": 2286,
      "allow": 2287,
      "similar": 2288,
      "pointed": 2289,
      "Ke": 2290,
      "May": 2291,
      "antage": 2292,
      "repe": 2293,
      "sweet": 2294,
      "stor": 2295,
      "bered": 2296,
      "wonder": 2297,
      "entrance": 2298,
      "became": 2299,
      "difficult": 2300,
      "ience": 2301,
      "vestig": 2302,
      "mus": 2303,
      "wag": 2304,
      "Pe": 2305,
      "Wall": 2306,
      "Mad": 2307,
      "imm": 2308,
      "smiled": 2309,
      "failed": 2310,
      "vie": 2311,
      "goblins": 2312,
      "lair": 2313,
      "drink": 2314,
      "bottom": 2315,
      "Yenne": 2316,
      "addition": 2317,
      "annis": 2318,
      "number": 2319,
      "having": 2320,
      "Yennefer": 2321,
      "aming": 2322,
      "game": 2323,
      "cli": 2324,
      "single": 2325,
      "rust": 2326,
      "succeeds": 2327,
      "center": 2328,
      "strength": 2329,
      "acc": 2330,
      "hole": 2331,
      "Here": 2332,
      "Stannis": 2333,
      "shoulder": 2334,
      "Dandelion": 2335,
      "trust": 2336,
      "late": 2337,
      "aned": 2338,
      "shut": 2339,
      "dust": 2340,
      "otherwise": 2341,
      "leaving": 2342,
      "redu": 2343,
      "irius": 2344,
      "pret": 2345,
      "Winter": 2346,
      "ium": 2347,
      "esh": 2348,
      "lying": 2349,
      "proper": 2350,
      "Just": 2351,
      "trud": 2352,
      "Sirius": 2353,
      "wrong": 2354,
      "complete": 2355,
      "vor": 2356,
      "import": 2357,
      "dry": 2358,
      "skull": 2359,
      "lightly": 2360,
      "joy": 2361,
      "ships": 2362,
      "destroyed": 2363,
      "oned": 2364,
      "zed": 2365,
      "See": 2366,
      "advantage": 2367,
      "join": 2368,
      "raven": 2369,
      "24": 2370,
      "cha": 2371,
      "talking": 2372,
      "Cr": 2373,
      "dim": 2374,
      "ination": 2375,
      "eng": 2376,
      "speed": 2377,
      "built": 2378,
      "aded": 2379,
      "sem": 2380,
      "atelyn": 2381,
      "Catelyn": 2382,
      "Robert": 2383,
      "mat": 2384,
      "means": 2385,
      "location": 2386,
      "allenge": 2387,
      "Waterdeep": 2388,
      "nose": 2389,
      "answered": 2390,
      "1d4": 2391,
      "Wh": 2392,
      "reco": 2393,
      "ution": 2394,
      "bound": 2395,
      "glow": 2396,
      "huge": 2397,
      "Charis": 2398,
      "ming": 2399,
      "fif": 2400,
      "getting": 2401,
      "wants": 2402,
      "sitting": 2403,
      "likely": 2404,
      "Robb": 2405,
      "anced": 2406,
      "utral": 2407,
      "player": 2408,
      "rolls": 2409,
      "flying": 2410,
      "mountains": 2411,
      "Good": 2412,
      "­­": 2413,
      "books": 2414,
      "iers": 2415,
      "sug": 2416,
      "surface": 2417,
      "monsters": 2418,
      "third": 2419,
      "score": 2420,
      "Charisma": 2421,
      "Far": 2422,
      "lame": 2423,
      "whispered": 2424,
      "including": 2425,
      "sym": 2426,
      "iously": 2427,
      "por": 2428,
      "steel": 2429,
      "watched": 2430,
      "cru": 2431,
      "flow": 2432,
      "ahead": 2433,
      "gif": 2434,
      "lad": 2435,
      "pill": 2436,
      "finger": 2437,
      "ians": 2438,
      "staff": 2439,
      "alive": 2440,
      "blade": 2441,
      "forth": 2442,
      "akes": 2443,
      "quar": 2444,
      "ears": 2445,
      "checks": 2446,
      "tongue": 2447,
      "Mon": 2448,
      "block": 2449,
      "orders": 2450,
      "hot": 2451,
      "Hog": 2452,
      "hob": 2453,
      "#####": 2454,
      "smoke": 2455,
      "Yet": 2456,
      "seven": 2457,
      "antly": 2458,
      "...\"": 2459,
      "tight": 2460,
      "leap": 2461,
      "faces": 2462,
      "gates": 2463,
      "oid": 2464,
      ".)": 2465,
      "Joff": 2466,
      "prep": 2467,
      "stern": 2468,
      "business": 2469,
      "please": 2470,
      "ny": 2471,
      "fighting": 2472,
      "dep": 2473,
      "ific": 2474,
      "afraid": 2475,
      "pse": 2476,
      "throat": 2477,
      "hunt": 2478,
      "lar": 2479,
      "lords": 2480,
      "higher": 2481,
      "started": 2482,
      "bag": 2483,
      "cro": 2484,
      "aer": 2485,
      "daughter": 2486,
      "Most": 2487,
      "immedi": 2488,
      "wound": 2489,
      "places": 2490,
      "desc": 2491,
      "eight": 2492,
      "pper": 2493,
      "wers": 2494,
      "trans": 2495,
      "arrive": 2496,
      "smell": 2497,
      "ER": 2498,
      "itted": 2499,
      "rooms": 2500,
      "powerful": 2501,
      "North": 2502,
      "ham": 2503,
      "ingly": 2504,
      "fled": 2505,
      "atop": 2506,
      "ray": 2507,
      "slo": 2508,
      "elves": 2509,
      "ashing": 2510,
      "acher": 2511,
      "ades": 2512,
      "grass": 2513,
      "summon": 2514,
      "colle": 2515,
      "base": 2516,
      "stret": 2517,
      "couldn": 2518,
      "Did": 2519,
      "saying": 2520,
      "further": 2521,
      "requires": 2522,
      "ention": 2523,
      "tro": 2524,
      "indeed": 2525,
      "kets": 2526,
      "iful": 2527,
      "1d6": 2528,
      "protect": 2529,
      "Ned": 2530,
      "easy": 2531,
      "trouble": 2532,
      "chain": 2533,
      "nod": 2534,
      "stick": 2535,
      "aside": 2536,
      "Level": 2537,
      "features": 2538,
      "llum": 2539,
      "pet": 2540,
      "conne": 2541,
      "Bri": 2542,
      "wife": 2543,
      "aste": 2544,
      "yourself": 2545,
      "fine": 2546,
      "phe": 2547,
      "twenty": 2548,
      "cere": 2549,
      "neutral": 2550,
      "tly": 2551,
      "spread": 2552,
      "Pro": 2553,
      "gro": 2554,
      "everyone": 2555,
      "catch": 2556,
      "occup": 2557,
      "Lannister": 2558,
      "recogn": 2559,
      "Fire": 2560,
      "orge": 2561,
      "seems": 2562,
      "stit": 2563,
      "view": 2564,
      "22": 2565,
      "Witcher": 2566,
      "ille": 2567,
      "plate": 2568,
      "thered": 2569,
      "thir": 2570,
      "circle": 2571,
      "bold": 2572,
      "Ring": 2573,
      "gho": 2574,
      "peace": 2575,
      "exper": 2576,
      "rub": 2577,
      "White": 2578,
      "ske": 2579,
      "ric": 2580,
      "Special": 2581,
      "lot": 2582,
      "oul": 2583,
      "choose": 2584,
      "mid": 2585,
      "lake": 2586,
      "remained": 2587,
      "Cl": 2588,
      "ior": 2589,
      "knights": 2590,
      "usk": 2591,
      "share": 2592,
      "reveals": 2593,
      "Cast": 2594,
      "ari": 2595,
      "tering": 2596,
      "ient": 2597,
      "nearby": 2598,
      "aking": 2599,
      "minutes": 2600,
      "brown": 2601,
      "ager": 2602,
      "journey": 2603,
      "send": 2604,
      "storm": 2605,
      "hobb": 2606,
      "shadows": 2607,
      "rece": 2608,
      "loy": 2609,
      ":|": 2610,
      "mit": 2611,
      "asts": 2612,
      "hobbits": 2613,
      "winter": 2614,
      "ame": 2615,
      "wal": 2616,
      "reason": 2617,
      "needed": 2618,
      "chie": 2619,
      "quietly": 2620,
      "gas": 2621,
      "thie": 2622,
      "Watch": 2623,
      "ert": 2624,
      "100": 2625,
      "Death": 2626,
      "usually": 2627,
      "whom": 2628,
      "sted": 2629,
      "falling": 2630,
      "fright": 2631,
      "broke": 2632,
      "figure": 2633,
      "ises": 2634,
      "....": 2635,
      "udge": 2636,
      "*).": 2637,
      "Tar": 2638,
      "irt": 2639,
      "dangerous": 2640,
      "wis": 2641,
      "blind": 2642,
      "sense": 2643,
      "hills": 2644,
      "laid": 2645,
      "inny": 2646,
      "enem": 2647,
      "agger": 2648,
      "Stra": 2649,
      "corrid": 2650,
      "Creat": 2651,
      "cand": 2652,
      "ued": 2653,
      "inking": 2654,
      "fling": 2655,
      "shape": 2656,
      "pon": 2657,
      "enemies": 2658,
      "40": 2659,
      "rele": 2660,
      "dozen": 2661,
      "robes": 2662,
      "Tho": 2663,
      "ien": 2664,
      "struct": 2665,
      "lips": 2666,
      "served": 2667,
      "watching": 2668,
      "easily": 2669,
      "Med": 2670,
      "cab": 2671,
      "weak": 2672,
      "iced": 2673,
      "gener": 2674,
      "honor": 2675,
      "Des": 2676,
      "d8": 2677,
      "windows": 2678,
      "dungeon": 2679,
      "pan": 2680,
      "survi": 2681,
      "Grey": 2682,
      "ben": 2683,
      "resp": 2684,
      "goblin": 2685,
      "miles": 2686,
      "women": 2687,
      "avoid": 2688,
      "lem": 2689,
      "burned": 2690,
      "minute": 2691,
      "immediately": 2692,
      "Its": 2693,
      "Um": 2694,
      "inst": 2695,
      "poor": 2696,
      "pray": 2697,
      "belong": 2698,
      "deli": 2699,
      "turning": 2700,
      "guess": 2701,
      "formed": 2702,
      "usion": 2703,
      "wouldn": 2704,
      "reck": 2705,
      "lizard": 2706,
      "adel": 2707,
      "Prince": 2708,
      "Bor": 2709,
      "suff": 2710,
      "Queen": 2711,
      "treat": 2712,
      "Before": 2713,
      "Sar": 2714,
      "Fred": 2715,
      "names": 2716,
      "possess": 2717,
      "fain": 2718,
      "mod": 2719,
      "forgotten": 2720,
      "lower": 2721,
      "capt": 2722,
      "flesh": 2723,
      "turns": 2724,
      "captain": 2725,
      "ully": 2726,
      "sence": 2727,
      "resist": 2728,
      "mass": 2729,
      "itadel": 2730,
      "control": 2731,
      "Mrs": 2732,
      "Player": 2733,
      "Shad": 2734,
      "ute": 2735,
      "Ha": 2736,
      "rolled": 2737,
      "Common": 2738,
      "Of": 2739,
      "apple": 2740,
      "tern": 2741,
      "building": 2742,
      "ryn": 2743,
      "finally": 2744,
      "ram": 2745,
      "noble": 2746,
      "Pet": 2747,
      "rak": 2748,
      "uman": 2749,
      "tail": 2750,
      "support": 2751,
      "21": 2752,
      "ances": 2753,
      "metal": 2754,
      "wear": 2755,
      "ko": 2756,
      "blow": 2757,
      "particular": 2758,
      "Su": 2759,
      "sen": 2760,
      "lives": 2761,
      "fold": 2762,
      "special": 2763,
      "clut": 2764,
      "ushing": 2765,
      "Out": 2766,
      "hag": 2767,
      "sell": 2768,
      "PC": 2769,
      "conv": 2770,
      "crowd": 2771,
      "flames": 2772,
      "armed": 2773,
      "tries": 2774,
      "merch": 2775,
      "Ver": 2776,
      "text": 2777,
      "boat": 2778,
      "hurt": 2779,
      "expected": 2780,
      "stuff": 2781,
      "worn": 2782,
      "membered": 2783,
      "skelet": 2784,
      "throne": 2785,
      "craw": 2786,
      "las": 2787,
      "recent": 2788,
      "agre": 2789,
      "bloody": 2790,
      "Those": 2791,
      "Gar": 2792,
      "warts": 2793,
      "Sea": 2794,
      "hd": 2795,
      "oney": 2796,
      "glad": 2797,
      "skill": 2798,
      "Winterfell": 2799,
      "div": 2800,
      "itche": 2801,
      "Gollum": 2802,
      "important": 2803,
      "Strahd": 2804,
      "vol": 2805,
      "oked": 2806,
      "board": 2807,
      "Perhaps": 2808,
      "Dor": 2809,
      "ergar": 2810,
      "feeling": 2811,
      "Dungeon": 2812,
      "forced": 2813,
      "wolves": 2814,
      "concer": 2815,
      "ext": 2816,
      "\").": 2817,
      "Nil": 2818,
      "normal": 2819,
      "placed": 2820,
      "seek": 2821,
      "itiative": 2822,
      "Encoun": 2823,
      "brothers": 2824,
      "Joffrey": 2825,
      "woods": 2826,
      "Ge": 2827,
      "gall": 2828,
      "entire": 2829,
      "Hit": 2830,
      "iting": 2831,
      "ples": 2832,
      "defend": 2833,
      "bran": 2834,
      "Never": 2835,
      "lied": 2836,
      "aches": 2837,
      "expect": 2838,
      "stars": 2839,
      "ively": 2840,
      "spirit": 2841,
      "cra": 2842,
      "gaard": 2843,
      "yellow": 2844,
      "acing": 2845,
      "Ref": 2846,
      "flee": 2847,
      "learned": 2848,
      "Hogwarts": 2849,
      "falls": 2850,
      "aid": 2851,
      "sque": 2852,
      "female": 2853,
      "angu": 2854,
      "Bag": 2855,
      "HD": 2856,
      "distance": 2857,
      "drawn": 2858,
      "AC": 2859,
      "Maester": 2860,
      "23": 2861,
      "mud": 2862,
      "pter": 2863,
      "remembered": 2864,
      "prin": 2865,
      "choice": 2866,
      "awn": 2867,
      "rad": 2868,
      "shook": 2869,
      "dawn": 2870,
      "God": 2871,
      "grand": 2872,
      "scho": 2873,
      "noise": 2874,
      "Look": 2875,
      "Keep": 2876,
      "thinking": 2877,
      "described": 2878,
      "aves": 2879,
      "wings": 2880,
      "myself": 2881,
      "lifted": 2882,
      "rise": 2883,
      "aware": 2884,
      "Bel": 2885,
      "playing": 2886,
      "muttered": 2887,
      "rare": 2888,
      "sig": 2889,
      "sand": 2890,
      "gon": 2891,
      "riding": 2892,
      "servants": 2893,
      "swift": 2894,
      "NPC": 2895,
      "staring": 2896,
      "umped": 2897,
      "Light": 2898,
      "itten": 2899,
      "grab": 2900,
      "axe": 2901,
      "Gon": 2902,
      "echo": 2903,
      "len": 2904,
      "sons": 2905,
      "els": 2906,
      "Gri": 2907,
      "Wiz": 2908,
      "pressed": 2909,
      "suggest": 2910,
      "Land": 2911,
      "pounds": 2912,
      "qual": 2913,
      "current": 2914,
      "determine": 2915,
      "sour": 2916,
      "rep": 2917,
      "maid": 2918,
      "shaped": 2919,
      "Elves": 2920,
      "staircase": 2921,
      "tools": 2922,
      "ouses": 2923,
      "Nilf": 2924,
      "orted": 2925,
      "detect": 2926,
      "plus": 2927,
      "vious": 2928,
      "Nilfgaard": 2929,
      "jects": 2930,
      "walking": 2931,
      "double": 2932,
      "random": 2933,
      "fit": 2934,
      "sadd": 2935,
      "intrud": 2936,
      "threw": 2937,
      "activ": 2938,
      "burning": 2939,
      "crystal": 2940,
      "tiny": 2941,
      "Mc": 2942,
      "ampire": 2943,
      "pursu": 2944,
      "fier": 2945,
      "closer": 2946,
      "grown": 2947,
      "prote": 2948,
      "curse": 2949,
      "becomes": 2950,
      "unic": 2951,
      "velo": 2952,
      "Lup": 2953,
      "Nev": 2954,
      "Raven": 2955,
      "Snow": 2956,
      "luck": 2957,
      "trad": 2958,
      "However": 2959,
      "Iron": 2960,
      "Kings": 2961,
      "cou": 2962,
      "bell": 2963,
      "offers": 2964,
      "beautiful": 2965,
      "Lupin": 2966,
      "rank": 2967,
      "igned": 2968,
      "pier": 2969,
      "lyn": 2970,
      "kick": 2971,
      "rous": 2972,
      "shoulders": 2973,
      "End": 2974,
      "Four": 2975,
      "uge": 2976,
      "scri": 2977,
      "iance": 2978,
      "pel": 2979,
      "attention": 2980,
      "ler": 2981,
      "---": 2982,
      "loved": 2983,
      "usual": 2984,
      "rowned": 2985,
      "000": 2986,
      "voices": 2987,
      "terrible": 2988,
      "ulti": 2989,
      "news": 2990,
      "Shadow": 2991,
      "mounted": 2992,
      "determin": 2993,
      "trem": 2994,
      "pushed": 2995,
      "devil": 2996,
      "piece": 2997,
      "Py": 2998,
      "gather": 2999,
      "Because": 3000,
      "direction": 3001,
      "students": 3002,
      "giving": 3003,
      "Gim": 3004,
      "flame": 3005,
      "apart": 3006,
      "works": 3007,
      "tress": 3008,
      "eks": 3009,
      "ka": 3010,
      "slightly": 3011,
      "circ": 3012,
      "Have": 3013,
      "![](": 3014,
      "Bro": 3015,
      "clothe": 3016,
      "Though": 3017,
      "thor": 3018,
      "Little": 3019,
      "Ren": 3020,
      "demand": 3021,
      "oper": 3022,
      "isters": 3023,
      "letter": 3024,
      "han": 3025,
      "uan": 3026,
      "thy": 3027,
      "stir": 3028,
      "escap": 3029,
      "itch": 3030,
      "sometimes": 3031,
      "ption": 3032,
      "changed": 3033,
      "school": 3034,
      "Neville": 3035,
      "ortal": 3036,
      "Long": 3037,
      "egg": 3038,
      "vos": 3039,
      "object": 3040,
      "duergar": 3041,
      "Eye": 3042,
      "kni": 3043,
      "rout": 3044,
      "iff": 3045,
      "gray": 3046,
      "collap": 3047,
      "ator": 3048,
      "spec": 3049,
      "burst": 3050,
      "mot": 3051,
      "pment": 3052,
      "notice": 3053,
      "goes": 3054,
      "Gimli": 3055,
      "throughout": 3056,
      "settle": 3057,
      "smaller": 3058,
      "beat": 3059,
      "Gold": 3060,
      "mag": 3061,
      "George": 3062,
      "grim": 3063,
      "Seven": 3064,
      "ults": 3065,
      "Car": 3066,
      "tion": 3067,
      "expl": 3068,
      "humanoid": 3069,
      "rising": 3070,
      "ban": 3071,
      "added": 3072,
      "Blo": 3073,
      "ement": 3074,
      "ague": 3075,
      "Ginny": 3076,
      "ety": 3077,
      "opens": 3078,
      "rine": 3079,
      "shri": 3080,
      "clean": 3081,
      "Dwar": 3082,
      "lin": 3083,
      "List": 3084,
      "Many": 3085,
      "wet": 3086,
      "whatever": 3087,
      "kills": 3088,
      "hero": 3089,
      "tray": 3090,
      "proved": 3091,
      "Tem": 3092,
      "arer": 3093,
      "needs": 3094,
      "ibility": 3095,
      "fresh": 3096,
      "soldiers": 3097,
      "bone": 3098,
      "iles": 3099,
      "growing": 3100,
      "fat": 3101,
      "Theon": 3102,
      "lights": 3103,
      "Map": 3104,
      "Sl": 3105,
      "pack": 3106,
      "eping": 3107,
      "simple": 3108,
      "exc": 3109,
      "tran": 3110,
      "remind": 3111,
      "Small": 3112,
      "fied": 3113,
      "inc": 3114,
      "arth": 3115,
      "greater": 3116,
      "evening": 3117,
      "prince": 3118,
      "attacked": 3119,
      "llen": 3120,
      "Orc": 3121,
      "agin": 3122,
      "spear": 3123,
      "kitche": 3124,
      "mage": 3125,
      "rule": 3126,
      "Medium": 3127,
      "\"*": 3128,
      "target": 3129,
      "ads": 3130,
      "lightning": 3131,
      "gno": 3132,
      "island": 3133,
      "nearly": 3134,
      "court": 3135,
      "kin": 3136,
      "hea": 3137,
      "hart": 3138,
      "lur": 3139,
      "sick": 3140,
      "presence": 3141,
      "pun": 3142,
      "yle": 3143,
      "neither": 3144,
      "Bal": 3145,
      "Cap": 3146,
      "Eld": 3147,
      "Tell": 3148,
      "noticed": 3149,
      "worse": 3150,
      "sir": 3151,
      "aband": 3152,
      "bann": 3153,
      "opport": 3154,
      "emp": 3155,
      "intruders": 3156,
      "bite": 3157,
      "march": 3158,
      "report": 3159,
      "weight": 3160,
      "une": 3161,
      "maybe": 3162,
      "Sy": 3163,
      "entered": 3164,
      "wondered": 3165,
      "ruins": 3166,
      "climbed": 3167,
      "ganiz": 3168,
      "wore": 3169,
      "fered": 3170,
      "idea": 3171,
      "spring": 3172,
      "|:": 3173,
      "opening": 3174,
      "helm": 3175,
      "laughter": 3176,
      "vampire": 3177,
      "favor": 3178,
      "Sol": 3179,
      "dwell": 3180,
      "zing": 3181,
      "gives": 3182,
      "listening": 3183,
      "teleport": 3184,
      "anted": 3185,
      "prof": 3186,
      "questions": 3187,
      "gift": 3188,
      "Castle": 3189,
      "tomb": 3190,
      "fortun": 3191,
      "amir": 3192,
      "willing": 3193,
      "desk": 3194,
      "apping": 3195,
      "example": 3196,
      "gent": 3197,
      "stared": 3198,
      "Ath": 3199,
      "valley": 3200,
      "acts": 3201,
      "rug": 3202,
      "forms": 3203,
      "crack": 3204,
      "Listen": 3205,
      "hanging": 3206,
      "thieves": 3207,
      "Tra": 3208,
      "McGon": 3209,
      "dread": 3210,
      "agall": 3211,
      "sail": 3212,
      "kings": 3213,
      "corridor": 3214,
      "McGonagall": 3215,
      "glim": 3216,
      "investig": 3217,
      "undead": 3218,
      "ender": 3219,
      "garden": 3220,
      "Tri": 3221,
      "represent": 3222,
      "trapped": 3223,
      "rope": 3224,
      "scent": 3225,
      "council": 3226,
      "stitution": 3227,
      "Er": 3228,
      "Fo": 3229,
      "bank": 3230,
      "fortress": 3231,
      "enemy": 3232,
      "ghost": 3233,
      "memory": 3234,
      "sounds": 3235,
      "Ly": 3236,
      "upid": 3237,
      "train": 3238,
      "position": 3239,
      "pol": 3240,
      "HA": 3241,
      "Brienne": 3242,
      "post": 3243,
      "omed": 3244,
      "pou": 3245,
      "occur": 3246,
      "clothes": 3247,
      "ere": 3248,
      "telling": 3249,
      "None": 3250,
      "rocks": 3251,
      "rows": 3252,
      "leader": 3253,
      "Guide": 3254,
      "bent": 3255,
      "rat": 3256,
      "seat": 3257,
      "pression": 3258,
      "purple": 3259,
      "Can": 3260,
      "bably": 3261,
      "weigh": 3262,
      "roud": 3263,
      "various": 3264,
      "Dice": 3265,
      "wizards": 3266,
      "Mel": 3267,
      "furn": 3268,
      "odd": 3269,
      "happy": 3270,
      "loyal": 3271,
      "reli": 3272,
      "iding": 3273,
      "repeated": 3274,
      "yard": 3275,
      ")![": 3276,
      "dear": 3277,
      "cking": 3278,
      "plans": 3279,
      "mail": 3280,
      "knees": 3281,
      "Lu": 3282,
      "dog": 3283,
      "Very": 3284,
      "bears": 3285,
      "oking": 3286,
      "Constitution": 3287,
      "Sep": 3288,
      "—”": 3289,
      "hollow": 3290,
      "feast": 3291,
      "Adventure": 3292,
      "cane": 3293,
      "carried": 3294,
      "continued": 3295,
      "pieces": 3296,
      "cket": 3297,
      "hr": 3298,
      "realm": 3299,
      "color": 3300,
      "bast": 3301,
      "lings": 3302,
      "otic": 3303,
      "Chapter": 3304,
      "Fl": 3305,
      "eve": 3306,
      "ander": 3307,
      "footed": 3308,
      "Halaster": 3309,
      ".,": 3310,
      "broad": 3311,
      "cord": 3312,
      "seeing": 3313,
      "West": 3314,
      "stepped": 3315,
      "Sever": 3316,
      "gen": 3317,
      "nature": 3318,
      "calm": 3319,
      "stupid": 3320,
      "pleas": 3321,
      "warriors": 3322,
      "Gry": 3323,
      "Run": 3324,
      "angry": 3325,
      "passing": 3326,
      "--------------------------------------------------------------------------------------------------------------------------------": 3327,
      "Blood": 3328,
      "ancing": 3329,
      "alam": 3330,
      "grave": 3331,
      "ising": 3332,
      "golas": 3333,
      "tale": 3334,
      "elemental": 3335,
      "direct": 3336,
      "Du": 3337,
      "tables": 3338,
      "allowed": 3339,
      "deck": 3340,
      "cious": 3341,
      "loudly": 3342,
      "details": 3343,
      "frost": 3344,
      "sides": 3345,
      "conce": 3346,
      "tract": 3347,
      "saddle": 3348,
      "Sum": 3349,
      "defe": 3350,
      "Tywin": 3351,
      "Legolas": 3352,
      "towers": 3353,
      "finished": 3354,
      "army": 3355,
      "ores": 3356,
      "Clo": 3357,
      "fil": 3358,
      "struck": 3359,
      "service": 3360,
      "TH": 3361,
      "lier": 3362,
      "affect": 3363,
      "ail": 3364,
      "amid": 3365,
      "prevent": 3366,
      "flu": 3367,
      "Davos": 3368,
      "larger": 3369,
      "Athlet": 3370,
      "keeps": 3371,
      "marked": 3372,
      "cliff": 3373,
      "nodded": 3374,
      "Gryf": 3375,
      "Half": 3376,
      "lived": 3377,
      "tears": 3378,
      "astern": 3379,
      "Gryffind": 3380,
      "Fore": 3381,
      "XP": 3382,
      "vanished": 3383,
      "incre": 3384,
      "chief": 3385,
      "meat": 3386,
      "rolling": 3387,
      "inner": 3388,
      "Athletics": 3389,
      "aign": 3390,
      "forget": 3391,
      "gem": 3392,
      "aps": 3393,
      "office": 3394,
      "Large": 3395,
      "sad": 3396,
      "imag": 3397,
      "carries": 3398,
      "Giant": 3399,
      "Ten": 3400,
      "owl": 3401,
      "**)": 3402,
      "habit": 3403,
      "fail": 3404,
      "itude": 3405,
      "containing": 3406,
      "create": 3407,
      "Mag": 3408,
      "guests": 3409,
      "cabin": 3410,
      "Jar": 3411,
      "touched": 3412,
      "wri": 3413,
      "Jo": 3414,
      "istics": 3415,
      "effects": 3416,
      "refle": 3417,
      "esc": 3418,
      "supposed": 3419,
      "mirror": 3420,
      "retreat": 3421,
      "potion": 3422,
      "decided": 3423,
      "(+": 3424,
      "Dead": 3425,
      "dare": 3426,
      "parch": 3427,
      "depic": 3428,
      "Plane": 3429,
      "Green": 3430,
      "Mord": 3431,
      "vig": 3432,
      "Like": 3433,
      "access": 3434,
      "mere": 3435,
      "loose": 3436,
      "desire": 3437,
      "written": 3438,
      "Wood": 3439,
      "Dro": 3440,
      "Ele": 3441,
      "Hill": 3442,
      "Whe": 3443,
      "Sun": 3444,
      "leep": 3445,
      "ON": 3446,
      "removed": 3447,
      "hip": 3448,
      "ordin": 3449,
      "working": 3450,
      "mention": 3451,
      "accept": 3452,
      "Int": 3453,
      "cially": 3454,
      "missing": 3455,
      "symbol": 3456,
      "Bra": 3457,
      "promised": 3458,
      "Know": 3459,
      "ford": 3460,
      "oken": 3461,
      "boys": 3462,
      "crew": 3463,
      "provide": 3464,
      "softly": 3465,
      "ba": 3466,
      "prefer": 3467,
      "ranged": 3468,
      "lizardfolk": 3469,
      "Ice": 3470,
      "sett": 3471,
      "crossed": 3472,
      "Skills": 3473,
      "carrying": 3474,
      "Vis": 3475,
      "match": 3476,
      "orig": 3477,
      "feed": 3478,
      "exist": 3479,
      "tired": 3480,
      "2d6": 3481,
      "forces": 3482,
      "/+": 3483,
      "pts": 3484,
      "knowledge": 3485,
      "probably": 3486,
      "marble": 3487,
      "reward": 3488,
      "locations": 3489,
      "houses": 3490,
      "corpse": 3491,
      "distant": 3492,
      "eager": 3493,
      "amat": 3494,
      "surprised": 3495,
      "py": 3496,
      "older": 3497,
      "mission": 3498,
      "Mother": 3499,
      "alco": 3500,
      "unted": 3501,
      "causes": 3502,
      "horri": 3503,
      "based": 3504,
      "idence": 3505,
      "angers": 3506,
      "Myr": 3507,
      "Uncle": 3508,
      "immunity": 3509,
      "kitchen": 3510,
      "chan": 3511,
      "track": 3512,
      "purpose": 3513,
      "surprise": 3514,
      "bir": 3515,
      "nal": 3516,
      "aning": 3517,
      "hook": 3518,
      "Room": 3519,
      "Vo": 3520,
      "aud": 3521,
      "mare": 3522,
      "fog": 3523,
      "girls": 3524,
      "sorry": 3525,
      "Mil": 3526,
      "RE": 3527,
      "rian": 3528,
      "riders": 3529,
      "distur": 3530,
      "music": 3531,
      "Umbridge": 3532,
      "cu": 3533,
      "dut": 3534,
      "ives": 3535,
      "sac": 3536,
      "shot": 3537,
      "tru": 3538,
      "brary": 3539,
      "local": 3540,
      "hiding": 3541,
      "urious": 3542,
      "height": 3543,
      "Reg": 3544,
      "slaves": 3545,
      "claws": 3546,
      "*\"": 3547,
      "fellow": 3548,
      "arrived": 3549,
      "Class": 3550,
      "ganization": 3551,
      "nine": 3552,
      "team": 3553,
      "Nothing": 3554,
      "inned": 3555,
      "cloaks": 3556,
      "length": 3557,
      "suspic": 3558,
      "parchment": 3559,
      "More": 3560,
      "although": 3561,
      "parts": 3562,
      "tales": 3563,
      "simply": 3564,
      "twisted": 3565,
      "welve": 3566,
      "lid": 3567,
      "hell": 3568,
      "itary": 3569,
      "pleased": 3570,
      "Armor": 3571,
      "dagger": 3572,
      "fal": 3573,
      "fts": 3574,
      "actions": 3575,
      "orcs": 3576,
      "Spot": 3577,
      "d4": 3578,
      "istry": 3579,
      "campaign": 3580,
      "rell": 3581,
      "slain": 3582,
      "slipped": 3583,
      "Sword": 3584,
      "d10": 3585,
      "plat": 3586,
      "events": 3587,
      "picked": 3588,
      "deser": 3589,
      "pow": 3590,
      "wears": 3591,
      "aunt": 3592,
      "ovi": 3593,
      "theast": 3594,
      "invisible": 3595,
      "omer": 3596,
      "joined": 3597,
      "shore": 3598,
      "Mir": 3599,
      "Zhen": 3600,
      "speaks": 3601,
      "reveal": 3602,
      "clearly": 3603,
      "consider": 3604,
      "Pers": 3605,
      "today": 3606,
      "lessly": 3607,
      "listen": 3608,
      "chains": 3609,
      "region": 3610,
      "Although": 3611,
      "rules": 3612,
      "Wind": 3613,
      "bing": 3614,
      "gling": 3615,
      "trick": 3616,
      "shaking": 3617,
      "Creatures": 3618,
      "knife": 3619,
      "Fir": 3620,
      "io": 3621,
      "del": 3622,
      "East": 3623,
      "vish": 3624,
      "yours": 3625,
      "encounters": 3626,
      "yrm": 3627,
      "Shire": 3628,
      "Gond": 3629,
      "Nine": 3630,
      "uncle": 3631,
      "outs": 3632,
      "realized": 3633,
      "arrows": 3634,
      "Ministry": 3635,
      "convers": 3636,
      "aterial": 3637,
      "levels": 3638,
      "meeting": 3639,
      "Underdark": 3640,
      "swall": 3641,
      "udd": 3642,
      "waited": 3643,
      "eastern": 3644,
      "acles": 3645,
      "pses": 3646,
      "remaining": 3647,
      "friendly": 3648,
      "dressed": 3649,
      "Ah": 3650,
      "mont": 3651,
      "Get": 3652,
      "fields": 3653,
      "bowed": 3654,
      "fli": 3655,
      "vil": 3656,
      "keeping": 3657,
      "Spell": 3658,
      "whisper": 3659,
      "origin": 3660,
      "decl": 3661,
      "aper": 3662,
      "plane": 3663,
      "happen": 3664,
      "sahu": 3665,
      "aped": 3666,
      "dropped": 3667,
      "sahuagin": 3668,
      "27": 3669,
      "task": 3670,
      "asc": 3671,
      "pled": 3672,
      "explore": 3673,
      "prepared": 3674,
      "Gryffindor": 3675,
      "Coun": 3676,
      "abilities": 3677,
      "contact": 3678,
      "swim": 3679,
      "waters": 3680,
      "Faramir": 3681,
      "fought": 3682,
      "antic": 3683,
      "sume": 3684,
      "Tal": 3685,
      "courage": 3686,
      "ritual": 3687,
      "craft": 3688,
      "fan": 3689,
      "till": 3690,
      "era": 3691,
      "betray": 3692,
      "indic": 3693,
      "glanced": 3694,
      "Sur": 3695,
      "upper": 3696,
      "dreams": 3697,
      "smooth": 3698,
      "opportunity": 3699,
      "Town": 3700,
      "sized": 3701,
      "Orcs": 3702,
      "Pri": 3703,
      "lab": 3704,
      "tur": 3705,
      "sne": 3706,
      "enorm": 3707,
      "omes": 3708,
      "ours": 3709,
      "moves": 3710,
      "suit": 3711,
      "ties": 3712,
      "prove": 3713,
      "buried": 3714,
      "net": 3715,
      "spent": 3716,
      "interrup": 3717,
      "frozen": 3718,
      "Hot": 3719,
      "tavern": 3720,
      "searching": 3721,
      "Yeah": 3722,
      "una": 3723,
      "gets": 3724,
      "cursed": 3725,
      "begins": 3726,
      "Jor": 3727,
      "locks": 3728,
      "spend": 3729,
      "proud": 3730,
      "…”": 3731,
      "ified": 3732,
      "decide": 3733,
      "Maybe": 3734,
      "gains": 3735,
      "acon": 3736,
      "beast": 3737,
      "trade": 3738,
      "fires": 3739,
      "witch": 3740,
      "iliar": 3741,
      "500": 3742,
      "spider": 3743,
      "changes": 3744,
      "First": 3745,
      "Ward": 3746,
      "necess": 3747,
      "raise": 3748,
      "managed": 3749,
      "ruin": 3750,
      "desper": 3751,
      "ixed": 3752,
      "IN": 3753,
      "resem": 3754,
      "weather": 3755,
      "speaking": 3756,
      "prisoners": 3757,
      "Knight": 3758,
      "ech": 3759,
      "rying": 3760,
      "coin": 3761,
      "gathered": 3762,
      "soul": 3763,
      "goth": 3764,
      "vault": 3765,
      "Father": 3766,
      "Sn": 3767,
      "equi": 3768,
      "sca": 3769,
      "izes": 3770,
      "follows": 3771,
      "frightened": 3772,
      "benef": 3773,
      "Sha": 3774,
      "ories": 3775,
      "bel": 3776,
      "omir": 3777,
      "objects": 3778,
      "freed": 3779,
      "animal": 3780,
      ");": 3781,
      "Citadel": 3782,
      "uct": 3783,
      "statues": 3784,
      "gloom": 3785,
      "Mountain": 3786,
      "Forest": 3787,
      "fate": 3788,
      "race": 3789,
      "omb": 3790,
      "odor": 3791,
      "crets": 3792,
      "rin": 3793,
      "rels": 3794,
      "liked": 3795,
      "yelled": 3796,
      "shift": 3797,
      "bodies": 3798,
      "bid": 3799,
      "maester": 3800,
      "silk": 3801,
      "early": 3802,
      "wagon": 3803,
      "sighed": 3804,
      "wheel": 3805,
      "created": 3806,
      "type": 3807,
      "snake": 3808,
      "sorcere": 3809,
      "welcome": 3810,
      "clouds": 3811,
      "squares": 3812,
      "hobbit": 3813,
      "Cult": 3814,
      "smiling": 3815,
      "pul": 3816,
      "itions": 3817,
      "western": 3818,
      "bron": 3819,
      "determined": 3820,
      "emon": 3821,
      "miss": 3822,
      "hunting": 3823,
      "Saruman": 3824,
      "enormous": 3825,
      "Over": 3826,
      "paid": 3827,
      "faint": 3828,
      "Dur": 3829,
      "myster": 3830,
      "psy": 3831,
      "Secret": 3832,
      "Worm": 3833,
      "hungry": 3834,
      "Dis": 3835,
      "tied": 3836,
      "tells": 3837,
      "trait": 3838,
      "situ": 3839,
      "Cor": 3840,
      "cous": 3841,
      "------": 3842,
      "sees": 3843,
      "haired": 3844,
      "circl": 3845,
      "Boromir": 3846,
      "ived": 3847,
      "rons": 3848,
      "decor": 3849,
      "adventures": 3850,
      "portal": 3851,
      "resistance": 3852,
      "Bre": 3853,
      "bore": 3854,
      "langu": 3855,
      "stall": 3856,
      "olen": 3857,
      "rence": 3858,
      "priv": 3859,
      "hardly": 3860,
      "flew": 3861,
      "racial": 3862,
      "bronze": 3863,
      "umbling": 3864,
      "final": 3865,
      "meter": 3866,
      "note": 3867,
      "comfor": 3868,
      "prey": 3869,
      "Landing": 3870,
      "asleep": 3871,
      "espe": 3872,
      "ivid": 3873,
      "painted": 3874,
      "surrounded": 3875,
      "Gondor": 3876,
      "sar": 3877,
      "somewhere": 3878,
      "Challenge": 3879,
      "trail": 3880,
      "Wor": 3881,
      "tu": 3882,
      "respect": 3883,
      "stan": 3884,
      "ases": 3885,
      "wealth": 3886,
      "deals": 3887,
      "ersion": 3888,
      "golem": 3889,
      "Initiative": 3890,
      "humans": 3891,
      "bitter": 3892,
      "wield": 3893,
      "familiar": 3894,
      "companions": 3895,
      "Ske": 3896,
      "exact": 3897,
      "risk": 3898,
      "Mug": 3899,
      "jumped": 3900,
      "depart": 3901,
      "holes": 3902,
      "usband": 3903,
      "recently": 3904,
      "belly": 3905,
      "challenge": 3906,
      "occas": 3907,
      "carefully": 3908,
      "branches": 3909,
      "Take": 3910,
      "lose": 3911,
      "ury": 3912,
      "perform": 3913,
      "include": 3914,
      "Lor": 3915,
      "ishing": 3916,
      "northern": 3917,
      "tunnels": 3918,
      "Abilities": 3919,
      "Chi": 3920,
      "dru": 3921,
      "Va": 3922,
      "ik": 3923,
      "Hel": 3924,
      "foes": 3925,
      "tie": 3926,
      "udgeon": 3927,
      "ridge": 3928,
      "firm": 3929,
      "played": 3930,
      "twice": 3931,
      "claimed": 3932,
      "torch": 3933,
      "birds": 3934,
      "26": 3935,
      "eds": 3936,
      "acle": 3937,
      "actually": 3938,
      "screamed": 3939,
      "reduced": 3940,
      "gently": 3941,
      "hp": 3942,
      "rings": 3943,
      "ilon": 3944,
      "result": 3945,
      "marsh": 3946,
      "Mark": 3947,
      "cust": 3948,
      "dia": 3949,
      "mast": 3950,
      "thunder": 3951,
      "Renly": 3952,
      "sens": 3953,
      "rod": 3954,
      "library": 3955,
      "vering": 3956,
      "verse": 3957,
      "amed": 3958,
      "coph": 3959,
      "statistics": 3960,
      "multi": 3961,
      "fierce": 3962,
      "heavi": 3963,
      "Version": 3964,
      "cage": 3965,
      "ites": 3966,
      "buy": 3967,
      "Unless": 3968,
      "pointing": 3969,
      "chairs": 3970,
      "card": 3971,
      "altar": 3972,
      "inch": 3973,
      "bludgeon": 3974,
      "headed": 3975,
      "Thor": 3976,
      "madness": 3977,
      "vast": 3978,
      "surrounding": 3979,
      "01": 3980,
      "TER": 3981,
      "taste": 3982,
      "enters": 3983,
      "umn": 3984,
      "hesit": 3985,
      "1d8": 3986,
      "nice": 3987,
      "aters": 3988,
      "kobold": 3989,
      "agreed": 3990,
      "ott": 3991,
      "assa": 3992,
      "acy": 3993,
      "Dragons": 3994,
      "spirits": 3995,
      "bludgeoning": 3996,
      "role": 3997,
      "amb": 3998,
      "coins": 3999,
      "Road": 4000,
      "quarters": 4001,
      "escaped": 4002,
      "viron": 4003,
      "stro": 4004,
      "amps": 4005,
      "alder": 4006,
      "ius": 4007,
      "job": 4008,
      "lines": 4009,
      "pile": 4010,
      "nest": 4011,
      "faith": 4012,
      "country": 4013,
      "viol": 4014,
      "hundreds": 4015,
      "chic": 4016,
      "defeat": 4017,
      "Storm": 4018,
      "struction": 4019,
      "stretched": 4020,
      "DM": 4021,
      "feather": 4022,
      "Adv": 4023,
      "bread": 4024,
      "husband": 4025,
      "money": 4026,
      "belt": 4027,
      "consc": 4028,
      "offic": 4029,
      "promise": 4030,
      "cophag": 4031,
      "Mood": 4032,
      "twelve": 4033,
      "wy": 4034,
      "shining": 4035,
      "perfect": 4036,
      "ancement": 4037,
      "suppose": 4038,
      "cruel": 4039,
      "dying": 4040,
      "heir": 4041,
      "scattered": 4042,
      "serves": 4043,
      "Army": 4044,
      "super": 4045,
      "stories": 4046,
      "especially": 4047,
      "Xan": 4048,
      "ugs": 4049,
      "singing": 4050,
      "invol": 4051,
      "sphere": 4052,
      "aries": 4053,
      "entry": 4054,
      "hadn": 4055,
      "helped": 4056,
      "charge": 4057,
      "slam": 4058,
      "additional": 4059,
      "ara": 4060,
      "allows": 4061,
      "showed": 4062,
      "personal": 4063,
      "warrior": 4064,
      "influ": 4065,
      "anks": 4066,
      "quired": 4067,
      "Captain": 4068,
      "state": 4069,
      "loss": 4070,
      "abl": 4071,
      "Cho": 4072,
      "stron": 4073,
      "asion": 4074,
      "extra": 4075,
      "posite": 4076,
      "Mormont": 4077,
      "Milva": 4078,
      "AN": 4079,
      "pu": 4080,
      "Rock": 4081,
      "Ko": 4082,
      "sits": 4083,
      "aks": 4084,
      "spoken": 4085,
      "guide": 4086,
      "rider": 4087,
      "breast": 4088,
      "bastard": 4089,
      "conversation": 4090,
      "Cur": 4091,
      "Dam": 4092,
      "gor": 4093,
      "vir": 4094,
      "woke": 4095,
      "slay": 4096,
      "chambers": 4097,
      "completely": 4098,
      "28": 4099,
      "wra": 4100,
      "healing": 4101,
      "individ": 4102,
      "occupied": 4103,
      "Loc": 4104,
      "South": 4105,
      "War": 4106,
      "faced": 4107,
      "jaw": 4108,
      "spy": 4109,
      "intro": 4110,
      "setting": 4111,
      "strike": 4112,
      "fails": 4113,
      "thoughts": 4114,
      "arys": 4115,
      "merchant": 4116,
      "./": 4117,
      "Ba": 4118,
      "torn": 4119,
      "inhabit": 4120,
      "offered": 4121,
      "robe": 4122,
      "Deep": 4123,
      "pillars": 4124,
      "Vernon": 4125,
      "truly": 4126,
      "Pre": 4127,
      "thus": 4128,
      "illy": 4129,
      "visibility": 4130,
      "Comp": 4131,
      "streets": 4132,
      "isk": 4133,
      "history": 4134,
      "caves": 4135,
      "oppon": 4136,
      "earlier": 4137,
      "Ti": 4138,
      "Use": 4139,
      "lined": 4140,
      "rect": 4141,
      "behold": 4142,
      "shaft": 4143,
      "Door": 4144,
      "commanded": 4145,
      "Sir": 4146,
      "equal": 4147,
      "ogre": 4148,
      "insist": 4149,
      "casting": 4150,
      "aken": 4151,
      "produ": 4152,
      "steep": 4153,
      "capti": 4154,
      "legend": 4155,
      "aura": 4156,
      "pretty": 4157,
      "Bol": 4158,
      "bark": 4159,
      "appre": 4160,
      "rises": 4161,
      "zy": 4162,
      "ashi": 4163,
      "seized": 4164,
      "--\"": 4165,
      "Lords": 4166,
      "uries": 4167,
      "convin": 4168,
      "Ano": 4169,
      "bath": 4170,
      "drun": 4171,
      "wid": 4172,
      "victim": 4173,
      "Tree": 4174,
      "Wy": 4175,
      "cure": 4176,
      "rant": 4177,
      "anx": 4178,
      "ilings": 4179,
      "mighty": 4180,
      "transp": 4181,
      "ordinary": 4182,
      "Another": 4183,
      "03": 4184,
      "bly": 4185,
      "tend": 4186,
      "arl": 4187,
      "ism": 4188,
      "rounds": 4189,
      "thirty": 4190,
      "pite": 4191,
      "inning": 4192,
      "ional": 4193,
      "hoping": 4194,
      "magically": 4195,
      "value": 4196,
      "brave": 4197,
      "psychic": 4198,
      "introdu": 4199,
      "Li": 4200,
      "dusk": 4201,
      "lyph": 4202,
      "covers": 4203,
      "handed": 4204,
      "serving": 4205,
      "tomat": 4206,
      "fifty": 4207,
      "Again": 4208,
      "lease": 4209,
      "rich": 4210,
      "Stand": 4211,
      "shelves": 4212,
      "Reach": 4213,
      "Sc": 4214,
      "cost": 4215,
      "summer": 4216,
      "---:|": 4217,
      "Moody": 4218,
      "Vic": 4219,
      "si": 4220,
      "doom": 4221,
      "copper": 4222,
      "imp": 4223,
      "noon": 4224,
      "Edd": 4225,
      ">***": 4226,
      "Cal": 4227,
      "dun": 4228,
      "grap": 4229,
      "gress": 4230,
      "Tor": 4231,
      "Ur": 4232,
      "rap": 4233,
      "discus": 4234,
      "Order": 4235,
      "drop": 4236,
      "continue": 4237,
      "birth": 4238,
      "toss": 4239,
      "terror": 4240,
      "tonight": 4241,
      "thrust": 4242,
      "separ": 4243,
      "Behind": 4244,
      "hurried": 4245,
      "fra": 4246,
      "wins": 4247,
      "utter": 4248,
      "thanks": 4249,
      "beginning": 4250,
      "Elemental": 4251,
      "Both": 4252,
      "Dob": 4253,
      "farm": 4254,
      "xes": 4255,
      "resc": 4256,
      "ading": 4257,
      "boar": 4258,
      "boots": 4259,
      "spears": 4260,
      "corpses": 4261,
      "provides": 4262,
      "murder": 4263,
      "gentle": 4264,
      "defeated": 4265,
      "oil": 4266,
      "adm": 4267,
      "replied": 4268,
      "Flo": 4269,
      "ino": 4270,
      "Az": 4271,
      "Bill": 4272,
      "thed": 4273,
      "ature": 4274,
      ">>\"": 4275,
      "cracked": 4276,
      "Drac": 4277,
      "Fre": 4278,
      "Horn": 4279,
      "Sly": 4280,
      "agon": 4281,
      "dogs": 4282,
      "cool": 4283,
      "reading": 4284,
      "wrapped": 4285,
      "Golden": 4286,
      "Che": 4287,
      "fi": 4288,
      "rond": 4289,
      "allies": 4290,
      "cloth": 4291,
      "merc": 4292,
      "Mountains": 4293,
      "fist": 4294,
      "wash": 4295,
      "spit": 4296,
      "trunk": 4297,
      "clad": 4298,
      "Fin": 4299,
      "Gal": 4300,
      "rate": 4301,
      "heat": 4302,
      "cele": 4303,
      "assum": 4304,
      "disgu": 4305,
      "laughing": 4306,
      "Undermountain": 4307,
      "wounded": 4308,
      "protection": 4309,
      "fut": 4310,
      "mill": 4311,
      "breathe": 4312,
      "swept": 4313,
      "drift": 4314,
      "Ill": 4315,
      "Tris": 4316,
      "lst": 4317,
      "olo": 4318,
      "arest": 4319,
      "useful": 4320,
      "counsel": 4321,
      "effort": 4322,
      "supp": 4323,
      "appearance": 4324,
      "uch": 4325,
      "tarim": 4326,
      "Bald": 4327,
      "Hold": 4328,
      "Qual": 4329,
      "ashes": 4330,
      "ales": 4331,
      "somehow": 4332,
      "chers": 4333,
      "Guild": 4334,
      "climbing": 4335,
      "barely": 4336,
      "During": 4337,
      "ai": 4338,
      "leaned": 4339,
      "ops": 4340,
      "discover": 4341,
      "visitors": 4342,
      "particularly": 4343,
      "Zhentarim": 4344,
      "ware": 4345,
      "bbing": 4346,
      "knocked": 4347,
      "Ali": 4348,
      "Dud": 4349,
      "Saur": 4350,
      "athing": 4351,
      "wake": 4352,
      "stolen": 4353,
      "agree": 4354,
      "whist": 4355,
      "killing": 4356,
      "price": 4357,
      "message": 4358,
      "Slyther": 4359,
      "04": 4360,
      "Aer": 4361,
      "thrown": 4362,
      "hast": 4363,
      "hers": 4364,
      "shrine": 4365,
      "angle": 4366,
      "ruined": 4367,
      "brand": 4368,
      "happens": 4369,
      "Moon": 4370,
      "Advancement": 4371,
      "Would": 4372,
      "idents": 4373,
      "noted": 4374,
      "asted": 4375,
      "oped": 4376,
      "Still": 4377,
      "passes": 4378,
      "royal": 4379,
      "Di": 4380,
      "Kre": 4381,
      "shouting": 4382,
      "Dobby": 4383,
      "Bey": 4384,
      "ration": 4385,
      "charges": 4386,
      "goods": 4387,
      "sooner": 4388,
      "figures": 4389,
      "Strider": 4390,
      "Sauron": 4391,
      "Hide": 4392,
      "Sor": 4393,
      "thank": 4394,
      "ishment": 4395,
      "sounded": 4396,
      "Cham": 4397,
      "candle": 4398,
      "Encounters": 4399,
      "Temple": 4400,
      "Jorah": 4401,
      "uld": 4402,
      "ify": 4403,
      "street": 4404,
      "abandoned": 4405,
      "Mordor": 4406,
      "Please": 4407,
      "keys": 4408,
      "nel": 4409,
      "soci": 4410,
      "younger": 4411,
      "Fudge": 4412,
      "vive": 4413,
      "ishes": 4414,
      "explain": 4415,
      "justment": 4416,
      "Bron": 4417,
      "fashi": 4418,
      "neigh": 4419,
      "scene": 4420,
      "energy": 4421,
      "brief": 4422,
      "Cand": 4423,
      "sting": 4424,
      "chas": 4425,
      "rif": 4426,
      "tracks": 4427,
      "Something": 4428,
      "movement": 4429,
      "piercing": 4430,
      "gnome": 4431,
      "vironment": 4432,
      "Var": 4433,
      "calling": 4434,
      "escort": 4435,
      "Ghost": 4436,
      "foul": 4437,
      "tes": 4438,
      "grounds": 4439,
      "regard": 4440,
      "lawful": 4441,
      "sarcophag": 4442,
      "Beyond": 4443,
      "ese": 4444,
      "odri": 4445,
      "suspe": 4446,
      "glowing": 4447,
      "conscious": 4448,
      "Six": 4449,
      "d20": 4450,
      "flies": 4451,
      "rats": 4452,
      "sal": 4453,
      "rix": 4454,
      "gaze": 4455,
      "Monster": 4456,
      "captured": 4457,
      "false": 4458,
      "EN": 4459,
      "Rating": 4460,
      "paren": 4461,
      "tt": 4462,
      "prophe": 4463,
      "lowered": 4464,
      "hangs": 4465,
      "wedding": 4466,
      "Elder": 4467,
      "Base": 4468,
      "Tur": 4469,
      "pi": 4470,
      "pred": 4471,
      "remove": 4472,
      "holy": 4473,
      "former": 4474,
      "runs": 4475,
      "ibly": 4476,
      "App": 4477,
      "champ": 4478,
      "shows": 4479,
      "blan": 4480,
      "pulling": 4481,
      "commands": 4482,
      "solid": 4483,
      "animals": 4484,
      "chaotic": 4485,
      "ote": 4486,
      "hale": 4487,
      "Develo": 4488,
      "pink": 4489,
      "erness": 4490,
      "whenever": 4491,
      "comfort": 4492,
      "kingdom": 4493,
      "Hodor": 4494,
      "lod": 4495,
      "steal": 4496,
      "weighs": 4497,
      "heavily": 4498,
      "Ben": 4499,
      "Day": 4500,
      "source": 4501,
      "Baldur": 4502,
      "bits": 4503,
      "cart": 4504,
      "lling": 4505,
      "aloud": 4506,
      "opposite": 4507,
      "peril": 4508,
      "Someone": 4509,
      "DR": 4510,
      "Our": 4511,
      "warned": 4512,
      "alaman": 4513,
      "proble": 4514,
      "attun": 4515,
      "eyed": 4516,
      "description": 4517,
      "palace": 4518,
      "mas": 4519,
      "secrets": 4520,
      "oden": 4521,
      "illa": 4522,
      "Elrond": 4523,
      "drawing": 4524,
      "sept": 4525,
      "coat": 4526,
      "cheek": 4527,
      "finds": 4528,
      "stag": 4529,
      "stained": 4530,
      "arewell": 4531,
      "warning": 4532,
      "devils": 4533,
      "Attacks": 4534,
      "29": 4535,
      "Nar": 4536,
      "Sud": 4537,
      "Wild": 4538,
      "ture": 4539,
      "atures": 4540,
      "leaders": 4541,
      "listened": 4542,
      "Bon": 4543,
      "Item": 4544,
      "arse": 4545,
      "gems": 4546,
      "assist": 4547,
      "portra": 4548,
      "ariel": 4549,
      "ani": 4550,
      "acid": 4551,
      "bearing": 4552,
      "elven": 4553,
      "Instead": 4554,
      "worked": 4555,
      "snapped": 4556,
      "starting": 4557,
      "balcon": 4558,
      "diameter": 4559,
      "Sudden": 4560,
      "Kalaman": 4561,
      "bows": 4562,
      "tit": 4563,
      "week": 4564,
      "anyway": 4565,
      "tribe": 4566,
      "pleasant": 4567,
      "gang": 4568,
      "yuan": 4569,
      "za": 4570,
      "fills": 4571,
      "Dun": 4572,
      "Was": 4573,
      "pir": 4574,
      "rd": 4575,
      "dem": 4576,
      "teach": 4577,
      "sleeping": 4578,
      "Gods": 4579,
      "Brand": 4580,
      "Ny": 4581,
      "Way": 4582,
      "lip": 4583,
      "Gl": 4584,
      "phi": 4585,
      "eric": 4586,
      "asking": 4587,
      "roared": 4588,
      "unable": 4589,
      "athar": 4590,
      "gras": 4591,
      "knee": 4592,
      "rubble": 4593,
      "Wizard": 4594,
      "exactly": 4595,
      "Full": 4596,
      "Zariel": 4597,
      "sway": 4598,
      "lets": 4599,
      "Weap": 4600,
      "clothing": 4601,
      "Guard": 4602,
      "comfortable": 4603,
      "fed": 4604,
      "inct": 4605,
      "unch": 4606,
      "umin": 4607,
      "attacking": 4608,
      "survive": 4609,
      "limb": 4610,
      "grabbed": 4611,
      "Triss": 4612,
      "Suddenly": 4613,
      "tory": 4614,
      "ghold": 4615,
      "lore": 4616,
      "understood": 4617,
      "certainly": 4618,
      "duty": 4619,
      "mile": 4620,
      "sav": 4621,
      "nearest": 4622,
      "bless": 4623,
      "spill": 4624,
      "ount": 4625,
      "establ": 4626,
      "interested": 4627,
      "months": 4628,
      "valu": 4629,
      "swarm": 4630,
      "swiftly": 4631,
      "dance": 4632,
      "ially": 4633,
      "mum": 4634,
      "stuck": 4635,
      "knowing": 4636,
      "writing": 4637,
      "Feats": 4638,
      "knock": 4639,
      "collect": 4640,
      "dir": 4641,
      "fru": 4642,
      "glyph": 4643,
      "alarm": 4644,
      "ounced": 4645,
      "disappeared": 4646,
      "Xanathar": 4647,
      "Dudley": 4648,
      "page": 4649,
      "rip": 4650,
      "uni": 4651,
      "bolt": 4652,
      "boats": 4653,
      "lax": 4654,
      "slid": 4655,
      "hearts": 4656,
      "Speed": 4657,
      "Otherwise": 4658,
      "massive": 4659,
      "reminded": 4660,
      "spiders": 4661,
      "starts": 4662,
      "flowers": 4663,
      "due": 4664,
      "frag": 4665,
      "recall": 4666,
      "roots": 4667,
      "aler": 4668,
      "oted": 4669,
      "vessel": 4670,
      "scroll": 4671,
      "strugg": 4672,
      "squire": 4673,
      "gap": 4674,
      "pound": 4675,
      "compl": 4676,
      "hasn": 4677,
      "Lock": 4678,
      "interrupted": 4679,
      "saved": 4680,
      "shed": 4681,
      "expression": 4682,
      "clam": 4683,
      "idditch": 4684,
      "swir": 4685,
      "traveling": 4686,
      "Space": 4687,
      "necessary": 4688,
      "(*": 4689,
      "mes": 4690,
      "outer": 4691,
      "aging": 4692,
      "flay": 4693,
      "Quidditch": 4694,
      "Pat": 4695,
      "faded": 4696,
      "paper": 4697,
      "inno": 4698,
      "strous": 4699,
      "total": 4700,
      "safely": 4701,
      "Candle": 4702,
      "Give": 4703,
      "ky": 4704,
      "weary": 4705,
      "sprang": 4706,
      "blew": 4707,
      "finding": 4708,
      "Varys": 4709,
      "station": 4710,
      "precious": 4711,
      "whir": 4712,
      "roads": 4713,
      "NPCs": 4714,
      ">-": 4715,
      "ku": 4716,
      "gear": 4717,
      "webs": 4718,
      "nerv": 4719,
      "couple": 4720,
      "rim": 4721,
      "unning": 4722,
      "delight": 4723,
      "comb": 4724,
      "worthy": 4725,
      "Company": 4726,
      "future": 4727,
      "gal": 4728,
      "notes": 4729,
      "pleasure": 4730,
      "200": 4731,
      "Slugh": 4732,
      "THE": 4733,
      "Qualities": 4734,
      "AT": 4735,
      "Barri": 4736,
      "ease": 4737,
      "rone": 4738,
      "tic": 4739,
      "fet": 4740,
      "const": 4741,
      "resting": 4742,
      "Madam": 4743,
      "respond": 4744,
      "bard": 4745,
      "mask": 4746,
      "Grand": 4747,
      "Mist": 4748,
      "rage": 4749,
      "stom": 4750,
      "anting": 4751,
      "venge": 4752,
      "Tommen": 4753,
      "Silver": 4754,
      "Huge": 4755,
      "hearing": 4756,
      "atic": 4757,
      "dell": 4758,
      "rests": 4759,
      "chosen": 4760,
      "snorted": 4761,
      "cow": 4762,
      "Wester": 4763,
      "trave": 4764,
      "Percy": 4765,
      "Command": 4766,
      "torches": 4767,
      "marks": 4768,
      "Slughorn": 4769,
      "kis": 4770,
      "pig": 4771,
      "terrain": 4772,
      "smith": 4773,
      "Rohan": 4774,
      "flight": 4775,
      "uration": 4776,
      "pocket": 4777,
      "manner": 4778,
      "unicorn": 4779,
      "CHA": 4780,
      "bree": 4781,
      "pent": 4782,
      "charm": 4783,
      "discovered": 4784,
      "Thank": 4785,
      "subject": 4786,
      "poisoned": 4787,
      "buildings": 4788,
      "automat": 4789,
      "banner": 4790,
      "supplies": 4791,
      "Hor": 4792,
      "Mur": 4793,
      "Ru": 4794,
      "wen": 4795,
      "sear": 4796,
      "gered": 4797,
      "Encounter": 4798,
      "Brother": 4799,
      "ordered": 4800,
      "grate": 4801,
      "Roll": 4802,
      "deeper": 4803,
      "Real": 4804,
      "southern": 4805,
      "hostile": 4806,
      "stronghold": 4807,
      "Salt": 4808,
      "seeking": 4809,
      "Investig": 4810,
      "returns": 4811,
      "swung": 4812,
      "refuse": 4813,
      "collapsed": 4814,
      "ladd": 4815,
      "swo": 4816,
      "uasion": 4817,
      "darkvision": 4818,
      "Adjustment": 4819,
      "relief": 4820,
      "Tiamat": 4821,
      "jer": 4822,
      "ker": 4823,
      "wished": 4824,
      "sidered": 4825,
      "approached": 4826,
      "screaming": 4827,
      "kobolds": 4828,
      "Ce": 4829,
      "Ene": 4830,
      "Nim": 4831,
      "aver": 4832,
      "lu": 4833,
      "zes": 4834,
      "ceress": 4835,
      "pest": 4836,
      "flood": 4837,
      "bul": 4838,
      "considered": 4839,
      "spark": 4840,
      "Inside": 4841,
      "Ang": 4842,
      "market": 4843,
      "hammer": 4844,
      "Bolton": 4845,
      "250": 4846,
      "jud": 4847,
      "inches": 4848,
      "vet": 4849,
      "riage": 4850,
      "hoped": 4851,
      "hate": 4852,
      "Chult": 4853,
      "Environment": 4854,
      "attering": 4855,
      "accord": 4856,
      "Solitary": 4857,
      "Ter": 4858,
      "gust": 4859,
      "blin": 4860,
      "poet": 4861,
      "traits": 4862,
      "ahir": 4863,
      "squee": 4864,
      "directly": 4865,
      "custom": 4866,
      "Van": 4867,
      "puff": 4868,
      "sending": 4869,
      "asty": 4870,
      "everywhere": 4871,
      "driven": 4872,
      "Evil": 4873,
      "Port": 4874,
      "greet": 4875,
      "viously": 4876,
      "contents": 4877,
      "fernal": 4878,
      "Organization": 4879,
      "witness": 4880,
      "Barristan": 4881,
      "Ca": 4882,
      "mortal": 4883,
      "salt": 4884,
      "cook": 4885,
      "angled": 4886,
      "deadly": 4887,
      "swear": 4888,
      "skeleton": 4889,
      "DI": 4890,
      "gers": 4891,
      "atory": 4892,
      "Grapple": 4893,
      "Riverrun": 4894,
      "Gaunt": 4895,
      "harp": 4896,
      "kn": 4897,
      "kiss": 4898,
      "naked": 4899,
      "rors": 4900,
      "sack": 4901,
      "zo": 4902,
      "chor": 4903,
      "rily": 4904,
      "umble": 4905,
      "ugly": 4906,
      "horror": 4907,
      "signs": 4908,
      "Barovi": 4909,
      "receive": 4910,
      "influence": 4911,
      "sarcophagus": 4912,
      "Bet": 4913,
      "batt": 4914,
      "broom": 4915,
      "sequ": 4916,
      "shrug": 4917,
      "surely": 4918,
      "Frey": 4919,
      "feared": 4920,
      "keeper": 4921,
      "Res": 4922,
      "facing": 4923,
      "yield": 4924,
      "haust": 4925,
      "...’": 4926,
      "slept": 4927,
      "dwarven": 4928,
      "returning": 4929,
      "demons": 4930,
      "Time": 4931,
      "drowned": 4932,
      "racks": 4933,
      "issu": 4934,
      "worship": 4935,
      "eggs": 4936,
      "mercen": 4937,
      "Five": 4938,
      "Riders": 4939,
      "kins": 4940,
      "inging": 4941,
      "beasts": 4942,
      "exchange": 4943,
      "norm": 4944,
      "Soon": 4945,
      "appropri": 4946,
      "servant": 4947,
      "halfling": 4948,
      "pouch": 4949,
      "Vil": 4950,
      "patch": 4951,
      "arcane": 4952,
      "omin": 4953,
      "ument": 4954,
      "percent": 4955,
      "shop": 4956,
      "griff": 4957,
      "Mee": 4958,
      "leapt": 4959,
      "Persuasion": 4960,
      "3d6": 4961,
      "fis": 4962,
      "sets": 4963,
      "yeh": 4964,
      "glit": 4965,
      "thinks": 4966,
      "amongst": 4967,
      "believes": 4968,
      "Features": 4969,
      "gins": 4970,
      "image": 4971,
      "treme": 4972,
      "Combat": 4973,
      "complex": 4974,
      "spotted": 4975,
      "Several": 4976,
      "Survi": 4977,
      "Cat": 4978,
      "oh": 4979,
      "atched": 4980,
      "lever": 4981,
      "unks": 4982,
      "amped": 4983,
      "Head": 4984,
      "nights": 4985,
      "cleared": 4986,
      "intra": 4987,
      "begun": 4988,
      "provided": 4989,
      "Manual": 4990,
      "Saves": 4991,
      "eli": 4992,
      "cauld": 4993,
      "clock": 4994,
      "Art": 4995,
      "centuries": 4996,
      "elder": 4997,
      "throws": 4998,
      "modif": 4999,
      "Summer": 5000,
      "nic": 5001,
      "waste": 5002,
      "adult": 5003,
      "ldom": 5004,
      "olt": 5005,
      "Tyrell": 5006,
      "sorceress": 5007,
      "maiden": 5008,
      "private": 5009,
      "Hound": 5010,
      "bars": 5011,
      "enjoy": 5012,
      "Isen": 5013,
      "Marsh": 5014,
      "matters": 5015,
      "Align": 5016,
      "parents": 5017,
      "Par": 5018,
      "shattered": 5019,
      "guild": 5020,
      "rested": 5021,
      "beds": 5022,
      "Does": 5023,
      "famous": 5024,
      "Earth": 5025,
      "apparen": 5026,
      "laws": 5027,
      "experience": 5028,
      "Alignment": 5029,
      "Youn": 5030,
      "tos": 5031,
      "dragged": 5032,
      "Coast": 5033,
      "descend": 5034,
      "sorcerer": 5035,
      "05": 5036,
      "AR": 5037,
      "exhaust": 5038,
      "creating": 5039,
      "Stat": 5040,
      "finish": 5041,
      "breaking": 5042,
      "Council": 5043,
      "gig": 5044,
      "lack": 5045,
      "becoming": 5046,
      "mold": 5047,
      "worst": 5048,
      "wave": 5049,
      "breathing": 5050,
      "busy": 5051,
      "*),": 5052,
      "Pen": 5053,
      "faction": 5054,
      "—’": 5055,
      "stem": 5056,
      "measure": 5057,
      "floating": 5058,
      "courty": 5059,
      "drinking": 5060,
      "brow": 5061,
      "required": 5062,
      "orrow": 5063,
      "rier": 5064,
      "corrup": 5065,
      "Handbook": 5066,
      "mush": 5067,
      "til": 5068,
      "rein": 5069,
      "uts": 5070,
      "typic": 5071,
      "Prin": 5072,
      "located": 5073,
      "horns": 5074,
      "alcove": 5075,
      "Vi": 5076,
      "lace": 5077,
      "tone": 5078,
      "chill": 5079,
      "geons": 5080,
      "Doom": 5081,
      "clutching": 5082,
      "investigate": 5083,
      "2d4": 5084,
      "tid": 5085,
      "forehead": 5086,
      "particip": 5087,
      "Wizards": 5088,
      "bug": 5089,
      "runes": 5090,
      "believed": 5091,
      "drops": 5092,
      "occasion": 5093,
      "Weapon": 5094,
      "Meereen": 5095,
      "Back": 5096,
      "Cour": 5097,
      "oring": 5098,
      "spat": 5099,
      "rune": 5100,
      "mount": 5101,
      "sunlight": 5102,
      "Without": 5103,
      "mistake": 5104,
      "settlement": 5105,
      "vain": 5106,
      "rog": 5107,
      "agers": 5108,
      "hili": 5109,
      "spi": 5110,
      "spire": 5111,
      "underground": 5112,
      "gler": 5113,
      "aboard": 5114,
      "situation": 5115,
      "caster": 5116,
      "zomb": 5117,
      "stiff": 5118,
      "Asha": 5119,
      "Elf": 5120,
      "wondering": 5121,
      "released": 5122,
      "Enemy": 5123,
      "bay": 5124,
      "sty": 5125,
      "impossible": 5126,
      "extreme": 5127,
      "peror": 5128,
      "crept": 5129,
      "blocks": 5130,
      "crying": 5131,
      "careful": 5132,
      "Such": 5133,
      "Down": 5134,
      "OU": 5135,
      "oids": 5136,
      "cana": 5137,
      "ouring": 5138,
      "warn": 5139,
      "wreck": 5140,
      "cheeks": 5141,
      "closely": 5142,
      "sharply": 5143,
      "sacrif": 5144,
      "Gi": 5145,
      "Miss": 5146,
      "ckets": 5147,
      "stab": 5148,
      "seldom": 5149,
      "likes": 5150,
      "colo": 5151,
      "shown": 5152,
      "anywhere": 5153,
      "grace": 5154,
      "clever": 5155,
      "calls": 5156,
      "halls": 5157,
      "crossbow": 5158,
      "split": 5159,
      "princess": 5160,
      "horrible": 5161,
      "language": 5162,
      "drunk": 5163,
      "Candlekeep": 5164,
      "dancing": 5165,
      "hest": 5166,
      "beam": 5167,
      "mood": 5168,
      "doorway": 5169,
      "landing": 5170,
      "communic": 5171,
      "shade": 5172,
      "rotting": 5173,
      "normally": 5174,
      "Luna": 5175,
      "Rand": 5176,
      "eating": 5177,
      "assume": 5178,
      "aly": 5179,
      "rud": 5180,
      "disadvantage": 5181,
      "stronger": 5182,
      "rocky": 5183,
      "murm": 5184,
      "emerged": 5185,
      "fang": 5186,
      "stable": 5187,
      "sealed": 5188,
      "hissed": 5189,
      "glance": 5190,
      "barrels": 5191,
      "enchant": 5192,
      "stuffed": 5193,
      "kicked": 5194,
      "gathering": 5195,
      "Chamber": 5196,
      "arily": 5197,
      "process": 5198,
      "Indeed": 5199,
      "domin": 5200,
      "throwing": 5201,
      "Others": 5202,
      "Survival": 5203,
      "(**": 5204,
      "Ac": 5205,
      "bind": 5206,
      "pace": 5207,
      "tour": 5208,
      "asons": 5209,
      "mel": 5210,
      "previous": 5211,
      "Kingdom": 5212,
      "student": 5213,
      "slip": 5214,
      "fifteen": 5215,
      "appropriate": 5216,
      "Cir": 5217,
      "Greg": 5218,
      "aim": 5219,
      "rear": 5220,
      "thrak": 5221,
      "agged": 5222,
      "forge": 5223,
      "imper": 5224,
      "quir": 5225,
      "quill": 5226,
      "Dale": 5227,
      "ravens": 5228,
      "Development": 5229,
      "balcony": 5230,
      "Au": 5231,
      "Fist": 5232,
      "agues": 5233,
      "icy": 5234,
      "inked": 5235,
      "mostly": 5236,
      "towns": 5237,
      "potions": 5238,
      "includes": 5239,
      "strewn": 5240,
      "Book": 5241,
      "hags": 5242,
      "Investigation": 5243,
      "Cahir": 5244,
      "Elt": 5245,
      "Viz": 5246,
      "dared": 5247,
      "eves": 5248,
      "vors": 5249,
      "health": 5250,
      "stage": 5251,
      "ros": 5252,
      "aby": 5253,
      "shone": 5254,
      "interior": 5255,
      "prisoner": 5256,
      "convince": 5257,
      "awning": 5258,
      "Right": 5259,
      "mers": 5260,
      "ume": 5261,
      "chase": 5262,
      "weeks": 5263,
      "Chri": 5264,
      "waves": 5265,
      "Dothrak": 5266,
      "gargo": 5267,
      "imagine": 5268,
      "dies": 5269,
      "ators": 5270,
      "eling": 5271,
      "distr": 5272,
      "shields": 5273,
      "Improved": 5274,
      "Eaters": 5275,
      "Fil": 5276,
      "OR": 5277,
      "store": 5278,
      "urs": 5279,
      "-----": 5280,
      "smashed": 5281,
      "Thay": 5282,
      "gles": 5283,
      "putting": 5284,
      "study": 5285,
      "Ced": 5286,
      "LE": 5287,
      "Zy": 5288,
      "drank": 5289,
      "oak": 5290,
      "vit": 5291,
      "straw": 5292,
      "moss": 5293,
      "itely": 5294,
      "smug": 5295,
      "eaten": 5296,
      "approaching": 5297,
      "songs": 5298,
      "deliver": 5299,
      "heroes": 5300,
      "Crou": 5301,
      "Cintra": 5302,
      "Ob": 5303,
      "Since": 5304,
      "lers": 5305,
      "icking": 5306,
      "maj": 5307,
      "passive": 5308,
      "bottle": 5309,
      "|:---:|": 5310,
      "dig": 5311,
      "pity": 5312,
      "urel": 5313,
      "Anim": 5314,
      "route": 5315,
      "Eddard": 5316,
      "cities": 5317,
      "sink": 5318,
      "oured": 5319,
      "glody": 5320,
      "telepath": 5321,
      "Cloak": 5322,
      "courtyard": 5323,
      "Walder": 5324,
      "hir": 5325,
      "pure": 5326,
      "wounds": 5327,
      "haz": 5328,
      "regular": 5329,
      "braz": 5330,
      "beauty": 5331,
      "merchants": 5332,
      "(–": 5333,
      "Bes": 5334,
      "fac": 5335,
      "foun": 5336,
      "xim": 5337,
      "beak": 5338,
      "fee": 5339,
      "teacher": 5340,
      "illusion": 5341,
      "concl": 5342,
      "spies": 5343,
      "trig": 5344,
      "vili": 5345,
      "tempts": 5346,
      "grows": 5347,
      "dusty": 5348,
      "inj": 5349,
      "rob": 5350,
      "exped": 5351,
      "letters": 5352,
      "strangers": 5353,
      "Second": 5354,
      "grief": 5355,
      "Slytherin": 5356,
      "fruit": 5357,
      "Ass": 5358,
      "Aemon": 5359,
      "ential": 5360,
      "amount": 5361,
      "cting": 5362,
      "spare": 5363,
      "Read": 5364,
      "badly": 5365,
      "swallowed": 5366,
      "Pal": 5367,
      "Up": 5368,
      "roar": 5369,
      "worry": 5370,
      "decis": 5371,
      "summoned": 5372,
      "Young": 5373,
      "ilion": 5374,
      "tles": 5375,
      "floors": 5376,
      "elsewhere": 5377,
      "uthor": 5378,
      "affected": 5379,
      "Muggle": 5380,
      "beholder": 5381,
      "Caster": 5382,
      "seated": 5383,
      "alin": 5384,
      "spends": 5385,
      "handle": 5386,
      "obsc": 5387,
      "missed": 5388,
      "victory": 5389,
      "wagons": 5390,
      "Petyr": 5391,
      "desperate": 5392,
      "oves": 5393,
      "rating": 5394,
      "meal": 5395,
      "followers": 5396,
      "taught": 5397,
      "central": 5398,
      "Leilon": 5399,
      "Always": 5400,
      "meaning": 5401,
      "consult": 5402,
      "slope": 5403,
      "motion": 5404,
      "06": 5405,
      "1Ã": 5406,
      "36": 5407,
      "Fle": 5408,
      "bench": 5409,
      "sang": 5410,
      "vin": 5411,
      "accompan": 5412,
      "ality": 5413,
      "ette": 5414,
      "goal": 5415,
      "mercy": 5416,
      "Lysa": 5417,
      "Ram": 5418,
      "airs": 5419,
      "acted": 5420,
      "patrol": 5421,
      "flick": 5422,
      "Towns": 5423,
      "Vilge": 5424,
      "Ta": 5425,
      "ju": 5426,
      "hilt": 5427,
      "sole": 5428,
      "aston": 5429,
      "foe": 5430,
      "reads": 5431,
      "Through": 5432,
      "Bear": 5433,
      "fortz": 5434,
      "claims": 5435,
      "slave": 5436,
      "Vilgefortz": 5437,
      "PTER": 5438,
      "troll": 5439,
      "reaches": 5440,
      "erup": 5441,
      "leaning": 5442,
      "lich": 5443,
      "haw": 5444,
      "cob": 5445,
      "shapes": 5446,
      "Witch": 5447,
      "Magical": 5448,
      "People": 5449,
      "Commander": 5450,
      "citadel": 5451,
      "chim": 5452,
      "wick": 5453,
      "coast": 5454,
      "easier": 5455,
      "priestess": 5456,
      "received": 5457,
      "original": 5458,
      "stomach": 5459,
      "Cry": 5460,
      "Def": 5461,
      "Vale": 5462,
      "chin": 5463,
      "izens": 5464,
      "cries": 5465,
      "bringing": 5466,
      "shriek": 5467,
      "settled": 5468,
      "cauldron": 5469,
      "Battle": 5470,
      "Dorn": 5471,
      "iently": 5472,
      "pup": 5473,
      "blaz": 5474,
      "cheer": 5475,
      "ruff": 5476,
      "curtain": 5477,
      "satis": 5478,
      "hurry": 5479,
      "covering": 5480,
      "Littlefinger": 5481,
      "declared": 5482,
      "02": 5483,
      "bil": 5484,
      "{@": 5485,
      "plot": 5486,
      "obs": 5487,
      "correct": 5488,
      "slopes": 5489,
      "Against": 5490,
      "lap": 5491,
      "pub": 5492,
      "uals": 5493,
      "orb": 5494,
      "veter": 5495,
      "nearer": 5496,
      "abs": 5497,
      "happening": 5498,
      "bowl": 5499,
      "Bronn": 5500,
      "Bur": 5501,
      "Den": 5502,
      "repair": 5503,
      "erous": 5504,
      "oration": 5505,
      "stalk": 5506,
      "leaf": 5507,
      "tea": 5508,
      "pools": 5509,
      "flash": 5510,
      "afternoon": 5511,
      "visions": 5512,
      "guarded": 5513,
      "Arcana": 5514,
      "Minas": 5515,
      "refuge": 5516,
      "wisdom": 5517,
      "convinced": 5518,
      "Aye": 5519,
      "Bu": 5520,
      "ival": 5521,
      "instru": 5522,
      "attempts": 5523,
      "orange": 5524,
      "unlocked": 5525,
      "ays": 5526,
      "causing": 5527,
      "speech": 5528,
      "Plan": 5529,
      "Dandilion": 5530,
      "circum": 5531,
      "assault": 5532,
      "CHAPTER": 5533,
      "Had": 5534,
      "pin": 5535,
      "beer": 5536,
      "vere": 5537,
      "groups": 5538,
      "Drogo": 5539,
      "platform": 5540,
      "Crouch": 5541,
      "material": 5542,
      "vul": 5543,
      "alty": 5544,
      "mechan": 5545,
      "washed": 5546,
      "notices": 5547,
      "quer": 5548,
      "overhead": 5549,
      "waved": 5550,
      "timid": 5551,
      "crypt": 5552,
      "flowing": 5553,
      "Mance": 5554,
      "ences": 5555,
      "agol": 5556,
      "assass": 5557,
      "damp": 5558,
      "candles": 5559,
      "Elturel": 5560,
      "Rha": 5561,
      "obey": 5562,
      "site": 5563,
      "flower": 5564,
      "residents": 5565,
      "Harren": 5566,
      "dirty": 5567,
      "33": 5568,
      "Yunk": 5569,
      "cul": 5570,
      "initiative": 5571,
      "achi": 5572,
      "sheep": 5573,
      "clave": 5574,
      "travelers": 5575,
      "treated": 5576,
      "Westeros": 5577,
      "Avern": 5578,
      "record": 5579,
      "commoner": 5580,
      "deeds": 5581,
      "depths": 5582,
      "recognize": 5583,
      "profic": 5584,
      "automatically": 5585,
      "Cedric": 5586,
      "Ara": 5587,
      "Event": 5588,
      "Tir": 5589,
      "bald": 5590,
      "ras": 5591,
      "sie": 5592,
      "ishings": 5593,
      "snar": 5594,
      "arrival": 5595,
      "Move": 5596,
      "threats": 5597,
      "Crab": 5598,
      "ario": 5599,
      "currently": 5600,
      "Dornish": 5601,
      "Gor": 5602,
      "Wol": 5603,
      "dull": 5604,
      "lorn": 5605,
      "reet": 5606,
      "plun": 5607,
      "monstrous": 5608,
      "despair": 5609,
      "Frost": 5610,
      "hallway": 5611,
      "paths": 5612,
      "­­\"": 5613,
      "ladder": 5614,
      "35": 5615,
      "Middle": 5616,
      "Te": 5617,
      "ggling": 5618,
      "mach": 5619,
      "stony": 5620,
      "wiped": 5621,
      "hopes": 5622,
      "izing": 5623,
      "swore": 5624,
      "vari": 5625,
      "About": 5626,
      "nar": 5627,
      "rush": 5628,
      "hop": 5629,
      "scor": 5630,
      "traps": 5631,
      "Daener": 5632,
      "milk": 5633,
      "confli": 5634,
      "reckon": 5635,
      "frame": 5636,
      "Daenerys": 5637,
      "Aunt": 5638,
      "Fey": 5639,
      "Ray": 5640,
      "cull": 5641,
      "oath": 5642,
      "prow": 5643,
      "issa": 5644,
      "urally": 5645,
      "onest": 5646,
      "offering": 5647,
      "fleet": 5648,
      "breakfast": 5649,
      "commoners": 5650,
      "halted": 5651,
      "capture": 5652,
      "powers": 5653,
      "cousin": 5654,
      "celebr": 5655,
      "portrait": 5656,
      "31": 5657,
      "lone": 5658,
      "loft": 5659,
      "phy": 5660,
      "wyn": 5661,
      "alliance": 5662,
      "liqu": 5663,
      "design": 5664,
      "counter": 5665,
      "Bell": 5666,
      "evidence": 5667,
      "eventually": 5668,
      "fond": 5669,
      "jar": 5670,
      "jac": 5671,
      "eding": 5672,
      "alle": 5673,
      "caused": 5674,
      "trip": 5675,
      "goti": 5676,
      "persu": 5677,
      "sweat": 5678,
      "thousands": 5679,
      "hunters": 5680,
      "druid": 5681,
      "Ever": 5682,
      "packed": 5683,
      "rained": 5684,
      "terms": 5685,
      "nobody": 5686,
      "oping": 5687,
      "clan": 5688,
      "sidebar": 5689,
      "justice": 5690,
      "reaching": 5691,
      "crows": 5692,
      "circular": 5693,
      "wrath": 5694,
      "innocent": 5695,
      "Yar": 5696,
      "yles": 5697,
      "alert": 5698,
      "ulpt": 5699,
      "illumin": 5700,
      "memories": 5701,
      "stole": 5702,
      "Baggins": 5703,
      "valuable": 5704,
      "Isengard": 5705,
      "Table": 5706,
      "author": 5707,
      "jen": 5708,
      "rols": 5709,
      "otion": 5710,
      "compart": 5711,
      "fireplace": 5712,
      "defens": 5713,
      "guessed": 5714,
      "Cle": 5715,
      "Find": 5716,
      "Hist": 5717,
      "Thi": 5718,
      "fixed": 5719,
      "gul": 5720,
      "tions": 5721,
      "rio": 5722,
      "raz": 5723,
      "raising": 5724,
      "conj": 5725,
      "blades": 5726,
      "lesser": 5727,
      "pract": 5728,
      "crossing": 5729,
      "Shag": 5730,
      "drove": 5731,
      "soldier": 5732,
      "tightly": 5733,
      "structure": 5734,
      "Kreacher": 5735,
      "kissed": 5736,
      "Dothraki": 5737,
      "Avernus": 5738,
      "Torm": 5739,
      "curious": 5740,
      "tin": 5741,
      "angrily": 5742,
      "evan": 5743,
      "Anyone": 5744,
      "wildlings": 5745,
      "Morgoth": 5746,
      "skulls": 5747,
      "trembling": 5748,
      "opponent": 5749,
      "insisted": 5750,
      "colored": 5751,
      "Wyrm": 5752,
      "bully": 5753,
      "tomorrow": 5754,
      "directions": 5755,
      "presented": 5756,
      "active": 5757,
      "Lannisters": 5758,
      "zzle": 5759,
      "modifier": 5760,
      "hire": 5761,
      "dece": 5762,
      "dispel": 5763,
      "gaery": 5764,
      "standard": 5765,
      "Margaery": 5766,
      "actice": 5767,
      "Dursle": 5768,
      "shrugged": 5769,
      "Human": 5770,
      "andre": 5771,
      "bellow": 5772,
      "havi": 5773,
      "umber": 5774,
      "forever": 5775,
      "Neverwinter": 5776,
      "Bonhart": 5777,
      "Ton": 5778,
      "armore": 5779,
      "leagues": 5780,
      "aco": 5781,
      "forests": 5782,
      "heading": 5783,
      "carav": 5784,
      "Sometimes": 5785,
      "approaches": 5786,
      "drive": 5787,
      "athed": 5788,
      "Nilfgaardian": 5789,
      "equipment": 5790,
      "2d8": 5791,
      "curi": 5792,
      "rival": 5793,
      "deb": 5794,
      "curity": 5795,
      "casts": 5796,
      "ungus": 5797,
      "drum": 5798,
      "wandering": 5799,
      "feature": 5800,
      "shelf": 5801,
      "Vault": 5802,
      "OM": 5803,
      "mered": 5804,
      "forty": 5805,
      "hooves": 5806,
      "umph": 5807,
      "polit": 5808,
      "sculpt": 5809,
      "obvious": 5810,
      "via": 5811,
      "defense": 5812,
      "Quar": 5813,
      "cellar": 5814,
      "cellent": 5815,
      "echoed": 5816,
      "problem": 5817,
      "08": 5818,
      "Cele": 5819,
      "Del": 5820,
      "Vol": 5821,
      "gown": 5822,
      "mure": 5823,
      "enger": 5824,
      "unia": 5825,
      "perman": 5826,
      "showing": 5827,
      "confess": 5828,
      "reduction": 5829,
      "Greyjoy": 5830,
      "Petunia": 5831,
      "specific": 5832,
      "fortune": 5833,
      "merely": 5834,
      "3rd": 5835,
      "Dar": 5836,
      "Swi": 5837,
      "vine": 5838,
      "tore": 5839,
      "defin": 5840,
      "destruction": 5841,
      "pets": 5842,
      "trained": 5843,
      "scared": 5844,
      "flung": 5845,
      "winds": 5846,
      "mering": 5847,
      "avail": 5848,
      "Quent": 5849,
      "crowded": 5850,
      "murdered": 5851,
      "skeletons": 5852,
      "concerned": 5853,
      "banners": 5854,
      "fashion": 5855,
      "Next": 5856,
      "ffled": 5857,
      "shim": 5858,
      "sank": 5859,
      "ws": 5860,
      "align": 5861,
      "tip": 5862,
      "Were": 5863,
      "pride": 5864,
      "northeast": 5865,
      "treacher": 5866,
      "awak": 5867,
      "wilderness": 5868,
      "knelt": 5869,
      "Which": 5870,
      "fiend": 5871,
      "Saltmarsh": 5872,
      "37": 5873,
      "Pass": 5874,
      "een": 5875,
      "kh": 5876,
      "marched": 5877,
      "dealing": 5878,
      "factions": 5879,
      "respons": 5880,
      "Treebeard": 5881,
      "Aur": 5882,
      "Part": 5883,
      "Rest": 5884,
      "fant": 5885,
      "lesson": 5886,
      "Lost": 5887,
      "column": 5888,
      "honour": 5889,
      "instant": 5890,
      "calmly": 5891,
      "Dread": 5892,
      "bould": 5893,
      "cott": 5894,
      "inscri": 5895,
      "rien": 5896,
      "loom": 5897,
      "waits": 5898,
      "slashing": 5899,
      "phys": 5900,
      "Speak": 5901,
      "aza": 5902,
      "Valar": 5903,
      "suggested": 5904,
      "Cleg": 5905,
      "DQ": 5906,
      "Riddle": 5907,
      "Sch": 5908,
      "ana": 5909,
      "anno": 5910,
      "itation": 5911,
      "fewer": 5912,
      "longsword": 5913,
      "brass": 5914,
      "Throne": 5915,
      "maze": 5916,
      "Too": 5917,
      "sought": 5918,
      "Edmure": 5919,
      "sisters": 5920,
      "targe": 5921,
      "fest": 5922,
      "pling": 5923,
      "foc": 5924,
      "worm": 5925,
      "civili": 5926,
      "carving": 5927,
      "Rez": 5928,
      "Leave": 5929,
      "dais": 5930,
      "kindly": 5931,
      "slaad": 5932,
      "allowing": 5933,
      "Kingsguard": 5934,
      "individual": 5935,
      "Gregor": 5936,
      "Make": 5937,
      "cise": 5938,
      "tort": 5939,
      "assem": 5940,
      "chose": 5941,
      "challen": 5942,
      "neath": 5943,
      "attached": 5944,
      "seless": 5945,
      "ugg": 5946,
      "version": 5947,
      "stayed": 5948,
      "Barathe": 5949,
      "emerge": 5950,
      "release": 5951,
      "folded": 5952,
      "History": 5953,
      "Dene": 5954,
      "cunning": 5955,
      "pard": 5956,
      "asy": 5957,
      "weren": 5958,
      "handsome": 5959,
      "practice": 5960,
      "howling": 5961,
      "designed": 5962,
      "ggers": 5963,
      "villagers": 5964,
      "safety": 5965,
      "maintain": 5966,
      "Balon": 5967,
      "Clegane": 5968,
      "lon": 5969,
      "wyrm": 5970,
      "oting": 5971,
      "haste": 5972,
      "ament": 5973,
      "negoti": 5974,
      "greatest": 5975,
      "skir": 5976,
      "stral": 5977,
      "captains": 5978,
      "jewel": 5979,
      "entering": 5980,
      "brightly": 5981,
      "murmured": 5982,
      "mort": 5983,
      "ora": 5984,
      "ache": 5985,
      "liath": 5986,
      "amaz": 5987,
      "keen": 5988,
      "prone": 5989,
      "glory": 5990,
      "Dean": 5991,
      "revealed": 5992,
      "consists": 5993,
      "caverns": 5994,
      "demanded": 5995,
      "Sand": 5996,
      "spun": 5997,
      "ptions": 5998,
      "rux": 5999,
      "plays": 6000,
      "shame": 6001,
      "shock": 6002,
      "growled": 6003,
      "souls": 6004,
      "dreadful": 6005,
      "Kingdoms": 6006,
      "theless": 6007,
      "imprison": 6008,
      "shouldn": 6009,
      "waist": 6010,
      "harder": 6011,
      "describe": 6012,
      "celle": 6013,
      "threatened": 6014,
      "treasures": 6015,
      "lucky": 6016,
      "Pycelle": 6017,
      "Baratheon": 6018,
      "Kar": 6019,
      "ST": 6020,
      "Sel": 6021,
      "hing": 6022,
      "caut": 6023,
      "tier": 6024,
      "intent": 6025,
      "Charm": 6026,
      "buck": 6027,
      "fights": 6028,
      "fourth": 6029,
      "realize": 6030,
      "louder": 6031,
      "refused": 6032,
      "basin": 6033,
      "bidden": 6034,
      "Zybil": 6035,
      "Zybilna": 6036,
      "sworn": 6037,
      "**),": 6038,
      "mycon": 6039,
      "gazing": 6040,
      "encountered": 6041,
      "fury": 6042,
      "cases": 6043,
      "Everyone": 6044,
      "lantern": 6045,
      "possession": 6046,
      "Regis": 6047,
      "Denethor": 6048,
      "Hun": 6049,
      "mound": 6050,
      "heed": 6051,
      "stench": 6052,
      "beli": 6053,
      "load": 6054,
      "vert": 6055,
      "chests": 6056,
      "mock": 6057,
      "silently": 6058,
      "queer": 6059,
      "Alliance": 6060,
      "planes": 6061,
      "Minister": 6062,
      "audience": 6063,
      "Harrenhal": 6064,
      "Dest": 6065,
      "vity": 6066,
      "wrought": 6067,
      "seal": 6068,
      "unconscious": 6069,
      "amond": 6070,
      "anki": 6071,
      "scarce": 6072,
      "difficulty": 6073,
      "occurs": 6074,
      "existence": 6075,
      "scale": 6076,
      "Aby": 6077,
      "Bite": 6078,
      "Fa": 6079,
      "Os": 6080,
      "dirt": 6081,
      "ja": 6082,
      "piled": 6083,
      "raken": 6084,
      "blank": 6085,
      "gazed": 6086,
      "helping": 6087,
      "troubled": 6088,
      "Rhae": 6089,
      "Faer": 6090,
      "Power": 6091,
      "Rad": 6092,
      "thri": 6093,
      "thic": 6094,
      "mani": 6095,
      "serious": 6096,
      "Thus": 6097,
      "write": 6098,
      "commander": 6099,
      "solute": 6100,
      "Quest": 6101,
      "Abyss": 6102,
      "forts": 6103,
      "ulted": 6104,
      "steam": 6105,
      "guest": 6106,
      "companion": 6107,
      "troglody": 6108,
      "80": 6109,
      "yri": 6110,
      "strode": 6111,
      "leth": 6112,
      "account": 6113,
      "idly": 6114,
      "pole": 6115,
      "olor": 6116,
      "handful": 6117,
      "brings": 6118,
      "landed": 6119,
      "slender": 6120,
      "Arch": 6121,
      "advice": 6122,
      "advance": 6123,
      "rotted": 6124,
      "scores": 6125,
      "transform": 6126,
      "troops": 6127,
      "suffer": 6128,
      "Neither": 6129,
      "Off": 6130,
      "Portal": 6131,
      "ands": 6132,
      "accompany": 6133,
      "apor": 6134,
      "scrolls": 6135,
      "berg": 6136,
      "grant": 6137,
      "ppa": 6138,
      "surre": 6139,
      "150": 6140,
      "hyr": 6141,
      "gnomes": 6142,
      "gasped": 6143,
      "mysterious": 6144,
      "Rodri": 6145,
      "halt": 6146,
      "heels": 6147,
      "goat": 6148,
      "backed": 6149,
      "Blue": 6150,
      "frequ": 6151,
      "daughters": 6152,
      "circumst": 6153,
      "Phand": 6154,
      "frowned": 6155,
      "stu": 6156,
      "isandre": 6157,
      "portcull": 6158,
      "string": 6159,
      "Arryn": 6160,
      "snakes": 6161,
      "rett": 6162,
      "Tomb": 6163,
      "prepare": 6164,
      "excited": 6165,
      "Melisandre": 6166,
      "Nold": 6167,
      "Vist": 6168,
      "retri": 6169,
      "Hey": 6170,
      "gaunt": 6171,
      "dried": 6172,
      "07": 6173,
      "fr": 6174,
      "tents": 6175,
      "agents": 6176,
      "plent": 6177,
      "proof": 6178,
      "ragged": 6179,
      "bedded": 6180,
      "crimin": 6181,
      "Doors": 6182,
      "mson": 6183,
      "distri": 6184,
      "parap": 6185,
      "continues": 6186,
      "Harpers": 6187,
      "terrified": 6188,
      "Griff": 6189,
      "chasm": 6190,
      "Big": 6191,
      "Omu": 6192,
      "bought": 6193,
      "adjust": 6194,
      "welt": 6195,
      "dete": 6196,
      "impress": 6197,
      "whip": 6198,
      "flag": 6199,
      "bris": 6200,
      "limbs": 6201,
      "Rience": 6202,
      "direwolf": 6203,
      "Add": 6204,
      "revealing": 6205,
      "Dorne": 6206,
      "09": 6207,
      "Phili": 6208,
      "Ra": 6209,
      "Wa": 6210,
      "eag": 6211,
      "gary": 6212,
      "homes": 6213,
      "rushed": 6214,
      "anging": 6215,
      "scales": 6216,
      "thereal": 6217,
      "layers": 6218,
      "dahr": 6219,
      "awake": 6220,
      "grip": 6221,
      "seconds": 6222,
      "dreamed": 6223,
      "tidings": 6224,
      "Rodrik": 6225,
      "Noldor": 6226,
      "Philippa": 6227,
      "Beneath": 6228,
      "vy": 6229,
      "posts": 6230,
      "month": 6231,
      "vio": 6232,
      "fishing": 6233,
      "detailed": 6234,
      "foolish": 6235,
      "rusty": 6236,
      "collection": 6237,
      "explained": 6238,
      "dungeons": 6239,
      "Climb": 6240,
      "ee": 6241,
      "regre": 6242,
      "request": 6243,
      "ghter": 6244,
      "ceilings": 6245,
      "ctor": 6246,
      "owner": 6247,
      "ounce": 6248,
      "grin": 6249,
      "voy": 6250,
      "hides": 6251,
      "painting": 6252,
      "rumors": 6253,
      "scram": 6254,
      "World": 6255,
      "Filch": 6256,
      "compartment": 6257,
      "32": 6258,
      "Dep": 6259,
      "Fang": 6260,
      "Hiz": 6261,
      "dwelt": 6262,
      "ina": 6263,
      "log": 6264,
      "appointed": 6265,
      "shell": 6266,
      "igg": 6267,
      "clay": 6268,
      "deeply": 6269,
      "shallow": 6270,
      "elect": 6271,
      "breaks": 6272,
      "friendship": 6273,
      "connected": 6274,
      "experien": 6275,
      "Sa": 6276,
      "vat": 6277,
      "attract": 6278,
      "hoard": 6279,
      "nels": 6280,
      "odge": 6281,
      "dop": 6282,
      "acting": 6283,
      "barrel": 6284,
      "northwest": 6285,
      "southwest": 6286,
      "highest": 6287,
      "gleaming": 6288,
      "Valin": 6289,
      "entirely": 6290,
      "Septon": 6291,
      "Hizdahr": 6292,
      "Ae": 6293,
      "vas": 6294,
      "wl": 6295,
      "yrian": 6296,
      "upward": 6297,
      "umb": 6298,
      "content": 6299,
      "supper": 6300,
      "device": 6301,
      "paint": 6302,
      "threatening": 6303,
      "axes": 6304,
      "Targary": 6305,
      "benefit": 6306,
      "Scri": 6307,
      "pho": 6308,
      "toa": 6309,
      "nec": 6310,
      "tear": 6311,
      "ettle": 6312,
      "plant": 6313,
      "quis": 6314,
      "whilst": 6315,
      "curled": 6316,
      "farther": 6317,
      "filling": 6318,
      "touches": 6319,
      "trapdoor": 6320,
      "burden": 6321,
      "animate": 6322,
      "repeat": 6323,
      "ghosts": 6324,
      "crawling": 6325,
      "concern": 6326,
      "poured": 6327,
      "Buck": 6328,
      "rus": 6329,
      "icated": 6330,
      "herd": 6331,
      "proceed": 6332,
      "clum": 6333,
      "ridden": 6334,
      "crates": 6335,
      "crash": 6336,
      "tempor": 6337,
      "ringing": 6338,
      "moments": 6339,
      "decorated": 6340,
      "tossed": 6341,
      "mercenaries": 6342,
      "bullyw": 6343,
      "Cave": 6344,
      "James": 6345,
      "bond": 6346,
      "san": 6347,
      "slight": 6348,
      "vines": 6349,
      "hem": 6350,
      "reasons": 6351,
      "thar": 6352,
      "chard": 6353,
      "unuch": 6354,
      "Hells": 6355,
      "consum": 6356,
      "Stud": 6357,
      "funny": 6358,
      "boxed": 6359,
      "descends": 6360,
      "midst": 6361,
      "accompanied": 6362,
      "Ax": 6363,
      "Fing": 6364,
      "Fal": 6365,
      "pages": 6366,
      "anor": 6367,
      "stumbled": 6368,
      "cells": 6369,
      "fears": 6370,
      "shared": 6371,
      "------------------------": 6372,
      "underneath": 6373,
      "dracon": 6374,
      "bandits": 6375,
      "poses": 6376,
      "properties": 6377,
      "rubbed": 6378,
      "shares": 6379,
      "Grim": 6380,
      "Icewind": 6381,
      "disturb": 6382,
      "1st": 6383,
      "galley": 6384,
      "thorn": 6385,
      "uments": 6386,
      "concent": 6387,
      "eled": 6388,
      "Stor": 6389,
      "clearing": 6390,
      "wax": 6391,
      "condition": 6392,
      "smelled": 6393,
      "training": 6394,
      "Material": 6395,
      "eunuch": 6396,
      "honest": 6397,
      "zer": 6398,
      "stare": 6399,
      "iment": 6400,
      "impat": 6401,
      "roughly": 6402,
      "picture": 6403,
      "tarion": 6404,
      "animated": 6405,
      "Emhyr": 6406,
      "fountain": 6407,
      "Bree": 6408,
      "Dan": 6409,
      "Rick": 6410,
      "d12": 6411,
      "mant": 6412,
      "wart": 6413,
      "invent": 6414,
      "owing": 6415,
      "illus": 6416,
      "scouts": 6417,
      "ridd": 6418,
      "alongside": 6419,
      "villain": 6420,
      "numbers": 6421,
      "accident": 6422,
      "Luwin": 6423,
      "Bael": 6424,
      "extremely": 6425,
      "gion": 6426,
      "vague": 6427,
      "hewn": 6428,
      "tops": 6429,
      "stranger": 6430,
      "paused": 6431,
      "1d3": 6432,
      "CoS": 6433,
      "pitch": 6434,
      "fungi": 6435,
      "winged": 6436,
      "belongs": 6437,
      "masters": 6438,
      "Thorin": 6439,
      "Victarion": 6440,
      "admitted": 6441,
      "paraphr": 6442,
      "Av": 6443,
      "Abo": 6444,
      "Sim": 6445,
      "honey": 6446,
      "kor": 6447,
      "nasty": 6448,
      "erie": 6449,
      "secure": 6450,
      "alche": 6451,
      "irs": 6452,
      "goble": 6453,
      "plates": 6454,
      "fault": 6455,
      "passages": 6456,
      "barred": 6457,
      "Until": 6458,
      "litter": 6459,
      "general": 6460,
      "survived": 6461,
      "rescue": 6462,
      "major": 6463,
      "bull": 6464,
      "borders": 6465,
      "jk": 6466,
      "och": 6467,
      "security": 6468,
      "iffe": 6469,
      "flashed": 6470,
      "damaged": 6471,
      "hearth": 6472,
      "stock": 6473,
      "sacrifice": 6474,
      "Bas": 6475,
      "Dri": 6476,
      "hut": 6477,
      "piles": 6478,
      "rer": 6479,
      "ita": 6480,
      "adorn": 6481,
      "imir": 6482,
      "capable": 6483,
      "Reek": 6484,
      "Elvish": 6485,
      "changing": 6486,
      "Viser": 6487,
      "firmly": 6488,
      "appren": 6489,
      "Mum": 6490,
      "jump": 6491,
      "oars": 6492,
      "ratt": 6493,
      "forgive": 6494,
      "dement": 6495,
      "hospit": 6496,
      "shud": 6497,
      "blame": 6498,
      "backs": 6499,
      "waving": 6500,
      "winding": 6501,
      "domain": 6502,
      "humanoids": 6503,
      "naturally": 6504,
      "Maid": 6505,
      "public": 6506,
      "siege": 6507,
      "Phandalin": 6508,
      "AL": 6509,
      "bund": 6510,
      "ilies": 6511,
      "ome": 6512,
      "vals": 6513,
      "wench": 6514,
      "organ": 6515,
      "ules": 6516,
      "trance": 6517,
      "flank": 6518,
      "pedest": 6519,
      "rane": 6520,
      "awk": 6521,
      "Should": 6522,
      "pillar": 6523,
      "fiery": 6524,
      "120": 6525,
      "Krum": 6526,
      "Last": 6527,
      "dug": 6528,
      "rhy": 6529,
      "wro": 6530,
      "renow": 6531,
      "tha": 6532,
      "lla": 6533,
      "contr": 6534,
      "flut": 6535,
      "temper": 6536,
      "bushes": 6537,
      "shouts": 6538,
      "southeast": 6539,
      "favorite": 6540,
      "Whenever": 6541,
      "multiple": 6542,
      "apparently": 6543,
      "75": 6544,
      "Kill": 6545,
      "wight": 6546,
      "unities": 6547,
      "ody": 6548,
      "whel": 6549,
      "suf": 6550,
      "triggers": 6551,
      "bub": 6552,
      "carn": 6553,
      "earn": 6554,
      "miser": 6555,
      "colors": 6556,
      "interesting": 6557,
      "shelter": 6558,
      "quarter": 6559,
      "rarely": 6560,
      "suspicious": 6561,
      "Princess": 6562,
      "liquid": 6563,
      "Ag": 6564,
      "Hur": 6565,
      "Wand": 6566,
      "ecut": 6567,
      "races": 6568,
      "uter": 6569,
      "asing": 6570,
      "adri": 6571,
      "wig": 6572,
      "weed": 6573,
      "unned": 6574,
      "rynd": 6575,
      "butter": 6576,
      "pop": 6577,
      "tive": 6578,
      "glasses": 6579,
      "priests": 6580,
      "survivors": 6581,
      "blowing": 6582,
      "branch": 6583,
      "polished": 6584,
      "equ": 6585,
      "mm": 6586,
      "yards": 6587,
      "asha": 6588,
      "hated": 6589,
      "hatch": 6590,
      "posing": 6591,
      "announced": 6592,
      "coldly": 6593,
      "Ents": 6594,
      "feels": 6595,
      "spiral": 6596,
      "frog": 6597,
      "corners": 6598,
      "Stealth": 6599,
      "crude": 6600,
      "instantly": 6601,
      "Loras": 6602,
      "hesitated": 6603,
      "expedition": 6604,
      "pits": 6605,
      "pire": 6606,
      "uin": 6607,
      "ano": 6608,
      "iture": 6609,
      "los": 6610,
      "crimson": 6611,
      "marriage": 6612,
      "slime": 6613,
      "Shield": 6614,
      "sticks": 6615,
      "mentioned": 6616,
      "feathers": 6617,
      "inhabitants": 6618,
      "\")": 6619,
      "Could": 6620,
      "Mem": 6621,
      "mists": 6622,
      "idden": 6623,
      "haunted": 6624,
      "umes": 6625,
      "wool": 6626,
      "attend": 6627,
      "answers": 6628,
      "fav": 6629,
      "slew": 6630,
      "happily": 6631,
      "Meera": 6632,
      "hobgoblins": 6633,
      "Barovia": 6634,
      "Zolt": 6635,
      "judge": 6636,
      "reput": 6637,
      "atives": 6638,
      "ropes": 6639,
      "delay": 6640,
      "backward": 6641,
      "iest": 6642,
      "renched": 6643,
      "reshold": 6644,
      "sniff": 6645,
      "jewe": 6646,
      "scarlet": 6647,
      "harmless": 6648,
      "tentacles": 6649,
      "protected": 6650,
      "Ravenloft": 6651,
      "settlements": 6652,
      "Dijk": 6653,
      "occasionally": 6654,
      "Dijkstra": 6655,
      "ials": 6656,
      "umping": 6657,
      "bother": 6658,
      "rowning": 6659,
      "serpent": 6660,
      "Riven": 6661,
      "reluct": 6662,
      "promises": 6663,
      "Dwarves": 6664,
      "Ramsay": 6665,
      "ox": 6666,
      "root": 6667,
      "accompl": 6668,
      "alan": 6669,
      "hired": 6670,
      "exception": 6671,
      "inky": 6672,
      "guardian": 6673,
      "families": 6674,
      "shortly": 6675,
      "warmth": 6676,
      "Silently": 6677,
      "recognized": 6678,
      "Locations": 6679,
      "Mans": 6680,
      "bend": 6681,
      "patter": 6682,
      "rab": 6683,
      "inted": 6684,
      "rely": 6685,
      "cock": 6686,
      "canthro": 6687,
      "worried": 6688,
      "Inn": 6689,
      "grinned": 6690,
      "efforts": 6691,
      "obtain": 6692,
      "sleeve": 6693,
      "arrives": 6694,
      "Trelaw": 6695,
      "smells": 6696,
      "talked": 6697,
      "diamond": 6698,
      "loyalty": 6699,
      "Vogler": 6700,
      "champion": 6701,
      "Lockhart": 6702,
      "Zoltan": 6703,
      "Hidden": 6704,
      "aga": 6705,
      "loses": 6706,
      "plants": 6707,
      "blur": 6708,
      "spots": 6709,
      "lava": 6710,
      "mane": 6711,
      "Shrine": 6712,
      "licate": 6713,
      "anxious": 6714,
      "transport": 6715,
      "Spr": 6716,
      "Turn": 6717,
      "bbed": 6718,
      "dorm": 6719,
      "figh": 6720,
      "og": 6721,
      "progress": 6722,
      "disappears": 6723,
      "inkled": 6724,
      "footsteps": 6725,
      "Prison": 6726,
      "Gray": 6727,
      "Prophe": 6728,
      "stirred": 6729,
      "Cro": 6730,
      "Glo": 6731,
      "Law": 6732,
      "Warri": 6733,
      "zens": 6734,
      "chuck": 6735,
      "term": 6736,
      "shack": 6737,
      "endry": 6738,
      "venturing": 6739,
      "Star": 6740,
      "intended": 6741,
      "system": 6742,
      "Despite": 6743,
      "benches": 6744,
      "Fleur": 6745,
      "Wolf": 6746,
      "Rivendell": 6747,
      "jest": 6748,
      "pha": 6749,
      "tug": 6750,
      "invisibility": 6751,
      "arrange": 6752,
      "engra": 6753,
      "compe": 6754,
      "mansion": 6755,
      "brace": 6756,
      "swamp": 6757,
      "Strong": 6758,
      "freedom": 6759,
      "Trelawney": 6760,
      "Gendry": 6761,
      "Kevan": 6762,
      "Owl": 6763,
      "brows": 6764,
      "lance": 6765,
      "yed": 6766,
      "infernal": 6767,
      "onic": 6768,
      "arg": 6769,
      "youth": 6770,
      "immen": 6771,
      "focus": 6772,
      "spur": 6773,
      "ornate": 6774,
      "udding": 6775,
      "series": 6776,
      "largest": 6777,
      "Quick": 6778,
      "signific": 6779,
      "midnight": 6780,
      "thorough": 6781,
      "slammed": 6782,
      "armored": 6783,
      "regret": 6784,
      "Aegon": 6785,
      "faster": 6786,
      "push": 6787,
      "sin": 6788,
      "uous": 6789,
      "enched": 6790,
      "unseen": 6791,
      "debris": 6792,
      "nois": 6793,
      "artif": 6794,
      "trace": 6795,
      "Intimid": 6796,
      "singer": 6797,
      "brazier": 6798,
      "Tonks": 6799,
      "available": 6800,
      "AS": 6801,
      "Has": 6802,
      "Using": 6803,
      "Yawning": 6804,
      "mour": 6805,
      "mund": 6806,
      "unexpected": 6807,
      "pless": 6808,
      "sprout": 6809,
      "scab": 6810,
      "perce": 6811,
      "manage": 6812,
      "archway": 6813,
      "shake": 6814,
      "![{@": 6815,
      "maps": 6816,
      "eastward": 6817,
      "iency": 6818,
      "Travel": 6819,
      "mushrooms": 6820,
      "Quarters": 6821,
      "alignment": 6822,
      "lamp": 6823,
      "marry": 6824,
      "thigh": 6825,
      "losing": 6826,
      "amu": 6827,
      "abrup": 6828,
      "reds": 6829,
      "nowhere": 6830,
      "ppers": 6831,
      "ignore": 6832,
      "halfway": 6833,
      "cutting": 6834,
      "presents": 6835,
      "bigger": 6836,
      "descended": 6837,
      "Flaming": 6838,
      "gemstones": 6839,
      "savage": 6840,
      "according": 6841,
      "Animal": 6842,
      "Ber": 6843,
      "dinner": 6844,
      "nur": 6845,
      "arranged": 6846,
      "doll": 6847,
      "therefore": 6848,
      "brush": 6849,
      "wherever": 6850,
      "carni": 6851,
      "appearing": 6852,
      "Undead": 6853,
      "visited": 6854,
      "function": 6855,
      "thyanki": 6856,
      "banks": 6857,
      "hears": 6858,
      "saur": 6859,
      "icing": 6860,
      "option": 6861,
      "githyanki": 6862,
      "draws": 6863,
      "necklace": 6864,
      "conflict": 6865,
      "plenty": 6866,
      "carnival": 6867,
      "Ir": 6868,
      "Swe": 6869,
      "kers": 6870,
      "inth": 6871,
      "replace": 6872,
      "adin": 6873,
      "territ": 6874,
      "deem": 6875,
      "copy": 6876,
      "govern": 6877,
      "blast": 6878,
      "trum": 6879,
      "restrained": 6880,
      "lasts": 6881,
      "crumbling": 6882,
      "mouths": 6883,
      "Imp": 6884,
      "Helm": 6885,
      "Draco": 6886,
      "attuned": 6887,
      "kuo": 6888,
      "Tirith": 6889,
      "pardon": 6890,
      "portcullis": 6891,
      "90": 6892,
      "Mu": 6893,
      "arak": 6894,
      "tograp": 6895,
      "unusual": 6896,
      "forged": 6897,
      "omen": 6898,
      "exit": 6899,
      "grapple": 6900,
      "identical": 6901,
      "crawled": 6902,
      "perfectly": 6903,
      "ogres": 6904,
      "disguise": 6905,
      "vulner": 6906,
      "tide": 6907,
      "stif": 6908,
      "alike": 6909,
      "gests": 6910,
      "tribut": 6911,
      "balls": 6912,
      "suggests": 6913,
      "....\"": 6914,
      "wishes": 6915,
      "crawl": 6916,
      "Jan": 6917,
      "Lys": 6918,
      "iod": 6919,
      "tap": 6920,
      "stables": 6921,
      "alter": 6922,
      "contract": 6923,
      "cles": 6924,
      "skins": 6925,
      "squir": 6926,
      "torment": 6927,
      "borne": 6928,
      "cushi": 6929,
      "Fortitude": 6930,
      "bolts": 6931,
      "furniture": 6932,
      "swimming": 6933,
      "Finally": 6934,
      "Swim": 6935,
      "Targaryen": 6936,
      "Above": 6937,
      "Es": 6938,
      "Hed": 6939,
      "Horc": 6940,
      "Sla": 6941,
      "ige": 6942,
      "pushing": 6943,
      "sends": 6944,
      "initi": 6945,
      "chol": 6946,
      "umns": 6947,
      "confir": 6948,
      "contest": 6949,
      "endless": 6950,
      "span": 6951,
      "somewhat": 6952,
      "flowed": 6953,
      "disappear": 6954,
      "gax": 6955,
      "velvet": 6956,
      "deny": 6957,
      "Thunder": 6958,
      "compon": 6959,
      "Spells": 6960,
      "susp": 6961,
      "immune": 6962,
      "courtes": 6963,
      "marching": 6964,
      "furnishings": 6965,
      "concealed": 6966,
      "ING": 6967,
      "struggled": 6968,
      "grateful": 6969,
      "paraphrase": 6970,
      "Mart": 6971,
      "OF": 6972,
      "hudd": 6973,
      "choked": 6974,
      "unknown": 6975,
      "shirt": 6976,
      "Hell": 6977,
      "background": 6978,
      "flings": 6979,
      "unting": 6980,
      "despite": 6981,
      "counted": 6982,
      "locals": 6983,
      "Everything": 6984,
      "Braavo": 6985,
      "immense": 6986,
      "dart": 6987,
      "pond": 6988,
      "admit": 6989,
      "whore": 6990,
      "ignor": 6991,
      "nightmare": 6992,
      "ranny": 6993,
      "inting": 6994,
      "slab": 6995,
      "workers": 6996,
      "Goyle": 6997,
      "harmed": 6998,
      "ruled": 6999,
      "gifts": 7000,
      "fleeing": 7001,
      "Bagman": 7002,
      "betrayed": 7003,
      "circles": 7004,
      "5th": 7005,
      "Hob": 7006,
      "IDR": 7007,
      "bats": 7008,
      "cured": 7009,
      "jam": 7010,
      "rack": 7011,
      "tact": 7012,
      "enn": 7013,
      "express": 7014,
      "slits": 7015,
      "address": 7016,
      "Among": 7017,
      "radius": 7018,
      "magn": 7019,
      "cube": 7020,
      "Random": 7021,
      "Yunkai": 7022,
      "Crabbe": 7023,
      "Air": 7024,
      "Nat": 7025,
      "cit": 7026,
      "farewell": 7027,
      "hug": 7028,
      "lean": 7029,
      "urged": 7030,
      "fey": 7031,
      "astes": 7032,
      "images": 7033,
      "indiffe": 7034,
      "flows": 7035,
      "brain": 7036,
      "greed": 7037,
      "closest": 7038,
      "Darkvision": 7039,
      "screams": 7040,
      "reflected": 7041,
      "spikes": 7042,
      "zombies": 7043,
      "Gilly": 7044,
      "Might": 7045,
      "Tam": 7046,
      "trolls": 7047,
      "zar": 7048,
      "otF": 7049,
      "deity": 7050,
      "ulous": 7051,
      "spellbook": 7052,
      "shoved": 7053,
      "jected": 7054,
      "hideous": 7055,
      "chaos": 7056,
      "transformed": 7057,
      "eagerly": 7058,
      "predic": 7059,
      "stubb": 7060,
      "IDRotF": 7061,
      "Dr": 7062,
      "Na": 7063,
      "Wond": 7064,
      "crou": 7065,
      "tta": 7066,
      "wre": 7067,
      "}](": 7068,
      "stur": 7069,
      "pla": 7070,
      "chess": 7071,
      "istic": 7072,
      "partially": 7073,
      "Whatever": 7074,
      "rung": 7075,
      "crust": 7076,
      "supply": 7077,
      "Within": 7078,
      "oooo": 7079,
      "tongues": 7080,
      "glimpse": 7081,
      "Casterly": 7082,
      "Cell": 7083,
      "Gren": 7084,
      "La": 7085,
      "Slow": 7086,
      "Uth": 7087,
      "eh": 7088,
      "aris": 7089,
      "beating": 7090,
      "shine": 7091,
      "shes": 7092,
      "cheese": 7093,
      "ranks": 7094,
      "Thé": 7095,
      "blocked": 7096,
      "crushed": 7097,
      "shores": 7098,
      "property": 7099,
      "symbo": 7100,
      "abandon": 7101,
      "Whether": 7102,
      "captive": 7103,
      "swirling": 7104,
      "Rhaegar": 7105,
      "Vistani": 7106,
      "Auri": 7107,
      "Emer": 7108,
      "Ju": 7109,
      "rend": 7110,
      "eran": 7111,
      "owyn": 7112,
      "hil": 7113,
      "bye": 7114,
      "intact": 7115,
      "minor": 7116,
      "draped": 7117,
      "pressure": 7118,
      "splend": 7119,
      "trusted": 7120,
      "corridors": 7121,
      "Damage": 7122,
      "pipe": 7123,
      "pestry": 7124,
      "-----:|": 7125,
      "Quentyn": 7126,
      "Der": 7127,
      "Div": 7128,
      "Kel": 7129,
      "cp": 7130,
      "furious": 7131,
      "frowning": 7132,
      "gin": 7133,
      "ints": 7134,
      "organization": 7135,
      "stump": 7136,
      "wicked": 7137,
      "neat": 7138,
      "inder": 7139,
      "excellent": 7140,
      "collar": 7141,
      "arpen": 7142,
      "Darkness": 7143,
      "bearded": 7144,
      "Sky": 7145,
      "leaped": 7146,
      "divine": 7147,
      "Refle": 7148,
      "explains": 7149,
      "disturbed": 7150,
      "sneak": 7151,
      "victims": 7152,
      "45": 7153,
      "Bed": 7154,
      "Lake": 7155,
      "Lance": 7156,
      "Net": 7157,
      "cone": 7158,
      "resol": 7159,
      "stored": 7160,
      "otaur": 7161,
      "peas": 7162,
      "Heart": 7163,
      "charged": 7164,
      "wary": 7165,
      "bedroom": 7166,
      "mounts": 7167,
      "elev": 7168,
      "keyed": 7169,
      "fetch": 7170,
      "Vizeran": 7171,
      "cottage": 7172,
      "Call": 7173,
      "Free": 7174,
      "Wave": 7175,
      "fab": 7176,
      "stout": 7177,
      "lycanthro": 7178,
      "sake": 7179,
      "sheer": 7180,
      "seeks": 7181,
      "cath": 7182,
      "boot": 7183,
      "Inter": 7184,
      "closing": 7185,
      "naught": 7186,
      "voc": 7187,
      "obli": 7188,
      "iplo": 7189,
      "Potion": 7190,
      "Design": 7191,
      "---|": 7192,
      "deserted": 7193,
      "involved": 7194,
      "legendary": 7195,
      "discuss": 7196,
      "Christ": 7197,
      "circumstances": 7198,
      "Théoden": 7199,
      "Cra": 7200,
      "cod": 7201,
      "fitted": 7202,
      "anthe": 7203,
      "errand": 7204,
      "ril": 7205,
      "lian": 7206,
      "dock": 7207,
      "clenched": 7208,
      "bride": 7209,
      "columns": 7210,
      "clutched": 7211,
      "Dwarvish": 7212,
      "Follow": 7213,
      "variety": 7214,
      "Dursleys": 7215,
      ">*": 7216,
      "Ald": 7217,
      "Dire": 7218,
      "baby": 7219,
      "fne": 7220,
      "schol": 7221,
      "meth": 7222,
      "pear": 7223,
      "apolo": 7224,
      "portion": 7225,
      "Ende": 7226,
      "destiny": 7227,
      "balance": 7228,
      "pursue": 7229,
      "Auril": 7230,
      "Fol": 7231,
      "Squ": 7232,
      "sche": 7233,
      "Éomer": 7234,
      "reply": 7235,
      "oren": 7236,
      "confront": 7237,
      "display": 7238,
      "describes": 7239,
      "bottles": 7240,
      "rusted": 7241,
      "suffic": 7242,
      "faintly": 7243,
      "stubborn": 7244,
      "Endelyn": 7245,
      "Mod": 7246,
      "Trid": 7247,
      "itive": 7248,
      "scen": 7249,
      "anned": 7250,
      "wildling": 7251,
      "muttering": 7252,
      "nonmagical": 7253,
      "belonged": 7254,
      "Dwarf": 7255,
      "tiefling": 7256,
      "OO": 7257,
      "Pie": 7258,
      "bust": 7259,
      "kid": 7260,
      "sigh": 7261,
      "inspe": 7262,
      "aligned": 7263,
      "bells": 7264,
      "eless": 7265,
      "seriously": 7266,
      "rances": 7267,
      "wanting": 7268,
      "bedchamber": 7269,
      "triumph": 7270,
      "ignored": 7271,
      "breasts": 7272,
      "curtains": 7273,
      "community": 7274,
      "taller": 7275,
      "strangely": 7276,
      "New": 7277,
      "fifth": 7278,
      "connects": 7279,
      "Hills": 7280,
      "Calanthe": 7281,
      "prophecy": 7282,
      "Prophet": 7283,
      "300": 7284,
      "Astral": 7285,
      "Eli": 7286,
      "Pur": 7287,
      "Sure": 7288,
      "nie": 7289,
      "instr": 7290,
      "shit": 7291,
      "angling": 7292,
      "cleric": 7293,
      "Invisibility": 7294,
      "hedge": 7295,
      "disease": 7296,
      "maxim": 7297,
      "brood": 7298,
      "remark": 7299,
      "struggling": 7300,
      "drain": 7301,
      "sorts": 7302,
      "filthy": 7303,
      "ambush": 7304,
      "nervous": 7305,
      "exhaustion": 7306,
      "Ret": 7307,
      "Stop": 7308,
      "hul": 7309,
      "khal": 7310,
      "masks": 7311,
      "vehi": 7312,
      "ripped": 7313,
      "unoccupied": 7314,
      "haul": 7315,
      "peering": 7316,
      "boom": 7317,
      "Butter": 7318,
      "vile": 7319,
      "conduct": 7320,
      "identify": 7321,
      "morrow": 7322,
      "ternal": 7323,
      "pursuit": 7324,
      "depicts": 7325,
      "physical": 7326,
      "Bav": 7327,
      "Cass": 7328,
      "Flame": 7329,
      "Nob": 7330,
      "Outer": 7331,
      "Shall": 7332,
      "furi": 7333,
      "rison": 7334,
      "ucked": 7335,
      "ouls": 7336,
      "stial": 7337,
      "itors": 7338,
      "itated": 7339,
      "mead": 7340,
      "docks": 7341,
      "mob": 7342,
      "spawn": 7343,
      "gran": 7344,
      "Therefore": 7345,
      "burg": 7346,
      "travels": 7347,
      "fangs": 7348,
      "Ast": 7349,
      "Farewell": 7350,
      "OW": 7351,
      "Set": 7352,
      "Tele": 7353,
      "pine": 7354,
      "associ": 7355,
      "iter": 7356,
      "uten": 7357,
      "fools": 7358,
      "somebody": 7359,
      "disgust": 7360,
      "rights": 7361,
      "desert": 7362,
      "Alert": 7363,
      "staying": 7364,
      "gesture": 7365,
      "penet": 7366,
      "Syl": 7367,
      "traitor": 7368,
      "virfne": 7369,
      "virfneblin": 7370,
      "34": 7371,
      "Tall": 7372,
      "jagged": 7373,
      "nut": 7374,
      "tw": 7375,
      "tum": 7376,
      "whim": 7377,
      "toad": 7378,
      "lle": 7379,
      "bee": 7380,
      "hosts": 7381,
      "popul": 7382,
      "execut": 7383,
      "sidekick": 7384,
      "profess": 7385,
      "destination": 7386,
      "dimly": 7387,
      "teleportation": 7388,
      "grasp": 7389,
      "sturdy": 7390,
      "Bavlorn": 7391,
      "Bak": 7392,
      "Illy": 7393,
      "ym": 7394,
      "smen": 7395,
      "wands": 7396,
      "villages": 7397,
      "twisting": 7398,
      "Trap": 7399,
      "delivered": 7400,
      "tradition": 7401,
      "cliffs": 7402,
      "alcoves": 7403,
      "Bavlorna": 7404,
      "Arian": 7405,
      "DH": 7406,
      "Pa": 7407,
      "Valley": 7408,
      "WDH": 7409,
      "rass": 7410,
      "itory": 7411,
      "confin": 7412,
      "modest": 7413,
      "spraw": 7414,
      "counts": 7415,
      "horiz": 7416,
      "element": 7417,
      "possibly": 7418,
      "Tarly": 7419,
      "sailors": 7420,
      "Jojen": 7421,
      "whispering": 7422,
      "stroke": 7423,
      "faithful": 7424,
      "Giants": 7425,
      "Eight": 7426,
      "Upper": 7427,
      "knot": 7428,
      "mong": 7429,
      "inse": 7430,
      "atin": 7431,
      "toes": 7432,
      "unaware": 7433,
      "dealt": 7434,
      "petri": 7435,
      "absolute": 7436,
      "shark": 7437,
      "okay": 7438,
      "cler": 7439,
      "navig": 7440,
      "joining": 7441,
      "Elven": 7442,
      "Also": 7443,
      "osity": 7444,
      "touching": 7445,
      "confused": 7446,
      "ladies": 7447,
      "Curse": 7448,
      "blanket": 7449,
      "Hedwig": 7450,
      "Illyrio": 7451,
      "Mith": 7452,
      "RC": 7453,
      "Scar": 7454,
      "Tun": 7455,
      "eter": 7456,
      "lust": 7457,
      "inspir": 7458,
      "intellig": 7459,
      "reins": 7460,
      "thread": 7461,
      "threshold": 7462,
      "archers": 7463,
      "ency": 7464,
      "itte": 7465,
      "season": 7466,
      "sheets": 7467,
      "complain": 7468,
      "clas": 7469,
      "berry": 7470,
      "gale": 7471,
      "adventurer": 7472,
      "obviously": 7473,
      "westward": 7474,
      "mistaken": 7475,
      "numerous": 7476,
      "harsh": 7477,
      "thief": 7478,
      "demands": 7479,
      "hooks": 7480,
      "Person": 7481,
      "battles": 7482,
      "communicate": 7483,
      "caravan": 7484,
      "skirts": 7485,
      "Trident": 7486,
      "Ap": 7487,
      "Cons": 7488,
      "Kark": 7489,
      "Oc": 7490,
      "Sig": 7491,
      "gained": 7492,
      "yer": 7493,
      "replaced": 7494,
      "revenge": 7495,
      "advis": 7496,
      "forgot": 7497,
      "hore": 7498,
      "dome": 7499,
      "cos": 7500,
      "tire": 7501,
      "overwhel": 7502,
      "trial": 7503,
      "baron": 7504,
      "freely": 7505,
      "athered": 7506,
      "ooze": 7507,
      "Skull": 7508,
      "stretch": 7509,
      "prayer": 7510,
      "senses": 7511,
      "Draconic": 7512,
      "awakened": 7513,
      "Emerald": 7514,
      "Alay": 7515,
      "Bridge": 7516,
      "Cold": 7517,
      "Hen": 7518,
      "Jtt": 7519,
      "Tully": 7520,
      "mixed": 7521,
      "pouring": 7522,
      "acious": 7523,
      "wives": 7524,
      "imens": 7525,
      "ourselves": 7526,
      "elite": 7527,
      "grat": 7528,
      "steady": 7529,
      "Search": 7530,
      "barbar": 7531,
      "Enclave": 7532,
      "stops": 7533,
      "pressing": 7534,
      "growth": 7535,
      "Feanor": 7536,
      "Harbor": 7537,
      "grove": 7538,
      "maximum": 7539,
      "JttRC": 7540,
      "Bling": 7541,
      "Khal": 7542,
      "Nan": 7543,
      "Ry": 7544,
      "Sto": 7545,
      "ffect": 7546,
      "mam": 7547,
      "mim": 7548,
      "ramp": 7549,
      "refer": 7550,
      "fever": 7551,
      "sideways": 7552,
      "denstone": 7553,
      "tapestry": 7554,
      "Arth": 7555,
      "Reli": 7556,
      "Remember": 7557,
      "distinct": 7558,
      "minds": 7559,
      "services": 7560,
      "climbs": 7561,
      "Dragonstone": 7562,
      "esterday": 7563,
      "Emperor": 7564,
      "defenders": 7565,
      "conceal": 7566,
      "title": 7567,
      "Christmas": 7568,
      "horizon": 7569,
      "Fri": 7570,
      "Gates": 7571,
      "eved": 7572,
      "wars": 7573,
      "aggress": 7574,
      "**).": 7575,
      "shanks": 7576,
      "hase": 7577,
      "scout": 7578,
      "overcome": 7579,
      "lowers": 7580,
      "silvery": 7581,
      "Arts": 7582,
      "appar": 7583,
      "1d10": 7584,
      "wandered": 7585,
      "driving": 7586,
      "dripping": 7587,
      "hurrying": 7588,
      "subst": 7589,
      "gardt": 7590,
      "payment": 7591,
      "Area": 7592,
      "expecting": 7593,
      "druids": 7594,
      "flayer": 7595,
      "glittering": 7596,
      "decision": 7597,
      "pedestal": 7598,
      "Blingdenstone": 7599,
      "Bow": 7600,
      "Jey": 7601,
      "Vel": 7602,
      "cards": 7603,
      "frey": 7604,
      "ias": 7605,
      "mages": 7606,
      "encour": 7607,
      "rivers": 7608,
      "loves": 7609,
      "deaf": 7610,
      "develo": 7611,
      "peered": 7612,
      "ession": 7613,
      "grinning": 7614,
      "slit": 7615,
      "phan": 7616,
      "paraly": 7617,
      "skills": 7618,
      "indicated": 7619,
      "captives": 7620,
      "Aerys": 7621,
      "searches": 7622,
      "Feywild": 7623,
      "Viserys": 7624,
      "engraved": 7625,
      "Bay": 7626,
      "Hard": 7627,
      "vid": 7628,
      "arin": 7629,
      "argu": 7630,
      "llied": 7631,
      "okes": 7632,
      "moth": 7633,
      "tile": 7634,
      "orting": 7635,
      "embedded": 7636,
      "scare": 7637,
      "aching": 7638,
      "Strix": 7639,
      "slashed": 7640,
      "crime": 7641,
      "cuts": 7642,
      "threaten": 7643,
      "activity": 7644,
      "beaten": 7645,
      "assassin": 7646,
      "civiliz": 7647,
      "imprisoned": 7648,
      "abruptly": 7649,
      "Dj": 7650,
      "Tiny": 7651,
      "bli": 7652,
      "mix": 7653,
      "pony": 7654,
      "anna": 7655,
      "revol": 7656,
      "shard": 7657,
      "ongue": 7658,
      "elbow": 7659,
      "atted": 7660,
      "nails": 7661,
      "tunic": 7662,
      "potential": 7663,
      "crowned": 7664,
      "uskan": 7665,
      "muddy": 7666,
      "incred": 7667,
      "failure": 7668,
      "assumes": 7669,
      "constantly": 7670,
      "targets": 7671,
      "hinges": 7672,
      "wrote": 7673,
      "Strixhaven": 7674,
      "Fer": 7675,
      "Gro": 7676,
      "Hat": 7677,
      "Mage": 7678,
      "jet": 7679,
      "jug": 7680,
      "arched": 7681,
      "atrix": 7682,
      "weep": 7683,
      "sails": 7684,
      "ambit": 7685,
      "period": 7686,
      "Insight": 7687,
      "armies": 7688,
      "bucket": 7689,
      "swing": 7690,
      "brick": 7691,
      "Redan": 7692,
      "Moria": 7693,
      "cella": 7694,
      "properly": 7695,
      "crooked": 7696,
      "Myrcella": 7697,
      "breeze": 7698,
      "swollen": 7699,
      "Tormund": 7700,
      "Lem": 7701,
      "Mot": 7702,
      "Rose": 7703,
      "bored": 7704,
      "cough": 7705,
      "fla": 7706,
      "nak": 7707,
      "rushing": 7708,
      "ancer": 7709,
      "tok": 7710,
      "seize": 7711,
      "chick": 7712,
      "umps": 7713,
      "afterward": 7714,
      "caps": 7715,
      "ungle": 7716,
      "wander": 7717,
      "brig": 7718,
      "brist": 7719,
      "Spider": 7720,
      "Mount": 7721,
      "scratch": 7722,
      "engers": 7723,
      "volcan": 7724,
      "gargoyles": 7725,
      "hawk": 7726,
      "Bellatrix": 7727,
      "Grenn": 7728,
      "COM": 7729,
      "DS": 7730,
      "Gener": 7731,
      "Mac": 7732,
      "cred": 7733,
      "iser": 7734,
      "seas": 7735,
      "sele": 7736,
      "melt": 7737,
      "nobles": 7738,
      "sheet": 7739,
      "crashed": 7740,
      "prim": 7741,
      "married": 7742,
      "Mae": 7743,
      "destroying": 7744,
      "Track": 7745,
      "harbor": 7746,
      "attempting": 7747,
      "Help": 7748,
      "jaws": 7749,
      "reinforce": 7750,
      "instructions": 7751,
      "eagle": 7752,
      "Astapor": 7753,
      "CR": 7754,
      "Camp": 7755,
      "Upon": 7756,
      "cate": 7757,
      "twin": 7758,
      "recover": 7759,
      "eri": 7760,
      "idian": 7761,
      "rith": 7762,
      "loomed": 7763,
      "herald": 7764,
      "impression": 7765,
      "constru": 7766,
      "garrison": 7767,
      "gardens": 7768,
      "zzled": 7769,
      "divided": 7770,
      "Galadri": 7771,
      "snarled": 7772,
      "Galadriel": 7773,
      "38": 7774,
      "Je": 7775,
      "Rem": 7776,
      "boun": 7777,
      "cers": 7778,
      "danced": 7779,
      "wret": 7780,
      "aton": 7781,
      "adventuring": 7782,
      "amber": 7783,
      "ilty": 7784,
      "abor": 7785,
      "mines": 7786,
      "highly": 7787,
      "Seam": 7788,
      "gging": 7789,
      "paying": 7790,
      "invited": 7791,
      "scrap": 7792,
      "catching": 7793,
      "panic": 7794,
      "Standing": 7795,
      "disguised": 7796,
      "nervously": 7797,
      "Realm": 7798,
      "obscured": 7799,
      "Volant": 7800,
      "permanent": 7801,
      "FaerÃ": 7802,
      "bullywugs": 7803,
      "39": 7804,
      "Tro": 7805,
      "useless": 7806,
      "intri": 7807,
      "array": 7808,
      "stark": 7809,
      "noises": 7810,
      "blows": 7811,
      "hatred": 7812,
      "sullied": 7813,
      "angular": 7814,
      "clust": 7815,
      "howled": 7816,
      "Thanks": 7817,
      "castles": 7818,
      "merry": 7819,
      "soup": 7820,
      "raiders": 7821,
      "hunger": 7822,
      "Brok": 7823,
      "wrist": 7824,
      "hastily": 7825,
      "troglodytes": 7826,
      "Rob": 7827,
      "fuck": 7828,
      "edges": 7829,
      "itor": 7830,
      "weird": 7831,
      "underwater": 7832,
      "psed": 7833,
      "openly": 7834,
      "Thing": 7835,
      "remn": 7836,
      "lordship": 7837,
      "resour": 7838,
      "speaker": 7839,
      "entertain": 7840,
      "pots": 7841,
      "colour": 7842,
      "uffle": 7843,
      "difference": 7844,
      "Craster": 7845,
      "departed": 7846,
      "neighb": 7847,
      "Marshal": 7848,
      "typically": 7849,
      "awkward": 7850,
      "method": 7851,
      "Cassalan": 7852,
      "Arthur": 7853,
      "Drow": 7854,
      "tangled": 7855,
      "ena": 7856,
      "liar": 7857,
      "kered": 7858,
      "goals": 7859,
      "discer": 7860,
      "inks": 7861,
      "results": 7862,
      "barrier": 7863,
      "berser": 7864,
      "idding": 7865,
      "gatehouse": 7866,
      "effective": 7867,
      "wildly": 7868,
      "burrow": 7869,
      "moonlight": 7870,
      "lemn": 7871,
      "radi": 7872,
      "collapse": 7873,
      "Wormtail": 7874,
      "neighbor": 7875,
      "Alertness": 7876,
      "2nd": 7877,
      "gant": 7878,
      "tons": 7879,
      "thel": 7880,
      "forman": 7881,
      "upstairs": 7882,
      "tice": 7883,
      "rags": 7884,
      "curses": 7885,
      "Roy": 7886,
      "cups": 7887,
      "decay": 7888,
      "consist": 7889,
      "penalty": 7890,
      "groaned": 7891,
      "Jarlax": 7892,
      "opponents": 7893,
      "pounding": 7894,
      "Wait": 7895,
      "reputation": 7896,
      "Jarlaxle": 7897,
      "BG": 7898,
      "Bless": 7899,
      "Near": 7900,
      "fying": 7901,
      "lund": 7902,
      "rans": 7903,
      "swell": 7904,
      "uary": 7905,
      "roaring": 7906,
      "adem": 7907,
      "asting": 7908,
      "whores": 7909,
      "prefect": 7910,
      "oldest": 7911,
      "helmet": 7912,
      "minotaur": 7913,
      "cracks": 7914,
      "Ent": 7915,
      "flees": 7916,
      "burns": 7917,
      "bridges": 7918,
      "military": 7919,
      "detail": 7920,
      "Monsters": 7921,
      "reports": 7922,
      "increases": 7923,
      "struggle": 7924,
      "suspended": 7925,
      "Dem": 7926,
      "Kay": 7927,
      "Kettle": 7928,
      "Mister": 7929,
      "Sup": 7930,
      "Usu": 7931,
      "hits": 7932,
      "forcing": 7933,
      "coal": 7934,
      "goliath": 7935,
      "spite": 7936,
      "trunks": 7937,
      "towering": 7938,
      "dedicated": 7939,
      "Empire": 7940,
      "Outside": 7941,
      "gladly": 7942,
      "Jarre": 7943,
      "separate": 7944,
      "pirates": 7945,
      "motionless": 7946,
      "lonely": 7947,
      "suffered": 7948,
      "Brokilon": 7949,
      "Lair": 7950,
      "Open": 7951,
      "Pit": 7952,
      "cats": 7953,
      "mies": 7954,
      "enjo": 7955,
      "sevent": 7956,
      "peak": 7957,
      "plunder": 7958,
      "blown": 7959,
      "spinning": 7960,
      "pause": 7961,
      "native": 7962,
      "elements": 7963,
      "Spir": 7964,
      "prints": 7965,
      "randomly": 7966,
      "fiercely": 7967,
      "wraith": 7968,
      "utterly": 7969,
      "society": 7970,
      "DIA": 7971,
      "Court": 7972,
      "bellowed": 7973,
      "belief": 7974,
      "artifact": 7975,
      "indifferent": 7976,
      "Usually": 7977,
      "Dag": 7978,
      "EL": 7979,
      "Isle": 7980,
      "Ride": 7981,
      "oes": 7982,
      "heal": 7983,
      "ante": 7984,
      "isha": 7985,
      "lded": 7986,
      "aint": 7987,
      "solemn": 7988,
      "Enough": 7989,
      "circling": 7990,
      "tucked": 7991,
      "trigger": 7992,
      "plunged": 7993,
      "Brown": 7994,
      "Dav": 7995,
      "Eyri": 7996,
      "Lav": 7997,
      "Must": 7998,
      "aa": 7999,
      "bang": 8000,
      "stals": 8001,
      "beck": 8002,
      "veget": 8003,
      "agu": 8004,
      "ayne": 8005,
      "hoon": 8006,
      "apes": 8007,
      "perched": 8008,
      "precise": 8009,
      "ildur": 8010,
      "crimes": 8011,
      "Arcane": 8012,
      "succeeding": 8013,
      "doub": 8014,
      "itement": 8015,
      "True": 8016,
      "harvest": 8017,
      "bolted": 8018,
      "operate": 8019,
      "lurking": 8020,
      "fortunately": 8021,
      "Child": 8022,
      "individuals": 8023,
      "Between": 8024,
      "flickering": 8025,
      "scarcely": 8026,
      "Rickon": 8027,
      "Eyrie": 8028,
      "Cross": 8029,
      "crest": 8030,
      "dot": 8031,
      "mou": 8032,
      "twit": 8033,
      "waking": 8034,
      "sections": 8035,
      "terns": 8036,
      "suits": 8037,
      "perm": 8038,
      "tooth": 8039,
      "helps": 8040,
      "Beren": 8041,
      "cris": 8042,
      "picking": 8043,
      "Isildur": 8044,
      "planning": 8045,
      "vanishes": 8046,
      "ceremon": 8047,
      "recognizes": 8048,
      "echoing": 8049,
      "Running": 8050,
      "sorcerers": 8051,
      "bugbears": 8052,
      "proficiency": 8053,
      "violet": 8054,
      "goblet": 8055,
      "Manshoon": 8056,
      "BGDIA": 8057,
      "bin": 8058,
      "bill": 8059,
      "gut": 8060,
      "kraken": 8061,
      "anchor": 8062,
      "behavi": 8063,
      "unts": 8064,
      "deer": 8065,
      "holid": 8066,
      "ulu": 8067,
      "mode": 8068,
      "werewolf": 8069,
      "spores": 8070,
      "perate": 8071,
      "perished": 8072,
      "Shem": 8073,
      "wardrobe": 8074,
      "parted": 8075,
      "shivering": 8076,
      "counting": 8077,
      "intend": 8078,
      "conditions": 8079,
      "Entrance": 8080,
      "studied": 8081,
      "grandfather": 8082,
      "operation": 8083,
      "empire": 8084,
      "|:-----:|": 8085,
      "Duke": 8086,
      "resembles": 8087,
      "champions": 8088,
      "gaxor": 8089,
      "inspiration": 8090,
      "(\"": 8091,
      "Dusk": 8092,
      "Ham": 8093,
      "Put": 8094,
      "bru": 8095,
      "coff": 8096,
      "fix": 8097,
      "lamps": 8098,
      "rated": 8099,
      "heaven": 8100,
      "irrit": 8101,
      "rym": 8102,
      "antine": 8103,
      "closes": 8104,
      "Alter": 8105,
      "poisonous": 8106,
      "ppery": 8107,
      "generally": 8108,
      "Murgaxor": 8109,
      "Durn": 8110,
      "Larch": 8111,
      "Mud": 8112,
      "Ras": 8113,
      "Wel": 8114,
      "Ygr": 8115,
      "Yarpen": 8116,
      "blight": 8117,
      "fers": 8118,
      "mate": 8119,
      "weeping": 8120,
      "options": 8121,
      "spin": 8122,
      "rubb": 8123,
      "forming": 8124,
      "earned": 8125,
      "ensure": 8126,
      "Pris": 8127,
      "furs": 8128,
      "whispers": 8129,
      "gloves": 8130,
      "contained": 8131,
      "stool": 8132,
      "Oldtown": 8133,
      "emerges": 8134,
      "messages": 8135,
      "depend": 8136,
      "spreading": 8137,
      "skeletal": 8138,
      "Pyke": 8139,
      "increase": 8140,
      "mystery": 8141,
      "average": 8142,
      "sniffed": 8143,
      "Sweet": 8144,
      "Jeyne": 8145,
      "Ygritte": 8146,
      "Beric": 8147,
      "Dou": 8148,
      "Ul": 8149,
      "casks": 8150,
      "hint": 8151,
      "pudd": 8152,
      "svirfneblin": 8153,
      "thryn": 8154,
      "attr": 8155,
      "ande": 8156,
      "owls": 8157,
      "veins": 8158,
      "lime": 8159,
      "ardor": 8160,
      "aban": 8161,
      "plague": 8162,
      "sullen": 8163,
      "eman": 8164,
      "lessons": 8165,
      "ranz": 8166,
      "crate": 8167,
      "merged": 8168,
      "bargain": 8169,
      "dropping": 8170,
      "prompt": 8171,
      "planar": 8172,
      "examines": 8173,
      "Baron": 8174,
      "gleam": 8175,
      "knocking": 8176,
      "Luci": 8177,
      "whirl": 8178,
      "Ethereal": 8179,
      "Hobb": 8180,
      "Sw": 8181,
      "Ythryn": 8182,
      "hull": 8183,
      "pall": 8184,
      "rok": 8185,
      "meals": 8186,
      "**:": 8187,
      "woven": 8188,
      "brushed": 8189,
      "understanding": 8190,
      "damn": 8191,
      "Albus": 8192,
      "Daario": 8193,
      "descriptions": 8194,
      "bags": 8195,
      "Solam": 8196,
      "swallow": 8197,
      "Knights": 8198,
      "components": 8199,
      "Key": 8200,
      "Lower": 8201,
      "Won": 8202,
      "lain": 8203,
      "enna": 8204,
      "decks": 8205,
      "compre": 8206,
      "spray": 8207,
      "Goblin": 8208,
      "Rivia": 8209,
      "fastened": 8210,
      "lovely": 8211,
      "laden": 8212,
      "excitement": 8213,
      "roleplaying": 8214,
      "violent": 8215,
      "enchantress": 8216,
      "Lulu": 8217,
      "Temer": 8218,
      "oon": 8219,
      "tattered": 8220,
      "weir": 8221,
      "uncommon": 8222,
      "sailed": 8223,
      "shor": 8224,
      "prospect": 8225,
      "brut": 8226,
      "blackened": 8227,
      "studded": 8228,
      "patches": 8229,
      "Guards": 8230,
      "remembering": 8231,
      "autumn": 8232,
      "typical": 8233,
      "beams": 8234,
      "quiring": 8235,
      "Slowly": 8236,
      "symbols": 8237,
      "furiously": 8238,
      "Seamus": 8239,
      "Eater": 8240,
      "jars": 8241,
      "kaban": 8242,
      "yesterday": 8243,
      "beloved": 8244,
      "bearer": 8245,
      "canal": 8246,
      "opin": 8247,
      "restore": 8248,
      "curved": 8249,
      "temples": 8250,
      "regain": 8251,
      "quests": 8252,
      "Unsullied": 8253,
      "messenger": 8254,
      "engine": 8255,
      "leaping": 8256,
      "summons": 8257,
      "agreement": 8258,
      "desperately": 8259,
      "Azkaban": 8260,
      "Cavern": 8261,
      "dementors": 8262,
      "territory": 8263,
      "huddled": 8264,
      "70": 8265,
      "Bones": 8266,
      "Bring": 8267,
      "Id": 8268,
      "Kor": 8269,
      "Tongue": 8270,
      "aqu": 8271,
      "fitting": 8272,
      "osing": 8273,
      "seats": 8274,
      "imate": 8275,
      "construct": 8276,
      "assured": 8277,
      "uded": 8278,
      "guilty": 8279,
      "medall": 8280,
      "letting": 8281,
      "startled": 8282,
      "bands": 8283,
      "boxes": 8284,
      "transm": 8285,
      "Septa": 8286,
      "Skellen": 8287,
      "whistle": 8288,
      "blankets": 8289,
      "staggered": 8290,
      "Brandy": 8291,
      "Gauntlet": 8292,
      "popular": 8293,
      "ardorok": 8294,
      "Dist": 8295,
      "Xardorok": 8296,
      "uc": 8297,
      "anzar": 8298,
      "recru": 8299,
      "roth": 8300,
      "owers": 8301,
      "unlock": 8302,
      "anymore": 8303,
      "glers": 8304,
      "cip": 8305,
      "skinned": 8306,
      "creep": 8307,
      "apply": 8308,
      "witches": 8309,
      "regains": 8310,
      "steadily": 8311,
      "basket": 8312,
      "echoes": 8313,
      "knives": 8314,
      "fortunate": 8315,
      "glimpsed": 8316,
      "resemble": 8317,
      "Shae": 8318,
      "delighted": 8319,
      "obsidian": 8320,
      "Network": 8321,
      "*+": 8322,
      "Bright": 8323,
      "BAT": 8324,
      "Mander": 8325,
      "pap": 8326,
      "ata": 8327,
      "seed": 8328,
      "chased": 8329,
      "unpleasant": 8330,
      "appoint": 8331,
      "acklst": 8332,
      "ulate": 8333,
      "poster": 8334,
      "tram": 8335,
      "Start": 8336,
      "vels": 8337,
      "rightful": 8338,
      "restoration": 8339,
      "creeping": 8340,
      "needle": 8341,
      "Roose": 8342,
      "crum": 8343,
      "stray": 8344,
      "aboleth": 8345,
      "barn": 8346,
      "fourteen": 8347,
      "traplan": 8348,
      "battlements": 8349,
      "ellan": 8350,
      "examine": 8351,
      "preparing": 8352,
      "sellswords": 8353,
      "Dori": 8354,
      "employ": 8355,
      "filtr": 8356,
      "drifting": 8357,
      "Brotherhood": 8358,
      "acoly": 8359,
      "intelligent": 8360,
      "Alayne": 8361,
      "acklstugh": 8362,
      "traplanar": 8363,
      "Gno": 8364,
      "Lam": 8365,
      "RI": 8366,
      "Tel": 8367,
      "Vy": 8368,
      "YOU": 8369,
      "nigh": 8370,
      "rations": 8371,
      "sacks": 8372,
      "relie": 8373,
      "league": 8374,
      "ghouls": 8375,
      "otDQ": 8376,
      "ilisk": 8377,
      "bleeding": 8378,
      "brus": 8379,
      "strate": 8380,
      "ferry": 8381,
      "bandit": 8382,
      "ipes": 8383,
      "rotten": 8384,
      "plainly": 8385,
      "engage": 8386,
      "cousins": 8387,
      "anxiously": 8388,
      "citizens": 8389,
      "DSotDQ": 8390,
      "General": 8391,
      "Dust": 8392,
      "Fel": 8393,
      "Lol": 8394,
      "Xary": 8395,
      "hounds": 8396,
      "jack": 8397,
      "tumbled": 8398,
      "relic": 8399,
      "dozens": 8400,
      "ista": 8401,
      "willingly": 8402,
      "daylight": 8403,
      "guise": 8404,
      "dense": 8405,
      "types": 8406,
      "guarding": 8407,
      "Gracklstugh": 8408,
      "patron": 8409,
      "Need": 8410,
      "chieft": 8411,
      "depicting": 8412,
      "Snitch": 8413,
      "Standard": 8414,
      "gaping": 8415,
      "breeches": 8416,
      "myconids": 8417,
      "renown": 8418,
      "Warrior": 8419,
      "Lolth": 8420,
      "Fear": 8421,
      "ki": 8422,
      "lg": 8423,
      "thugs": 8424,
      "solit": 8425,
      "outpost": 8426,
      "apt": 8427,
      "charmed": 8428,
      "conver": 8429,
      "cery": 8430,
      "striking": 8431,
      "sixty": 8432,
      "shadowy": 8433,
      "connection": 8434,
      "Muggles": 8435,
      "responsible": 8436,
      "jewelry": 8437,
      "44": 8438,
      "Kal": 8439,
      "Nature": 8440,
      "Row": 8441,
      "Yoren": 8442,
      "style": 8443,
      "hissing": 8444,
      "embro": 8445,
      "void": 8446,
      "rides": 8447,
      "treason": 8448,
      "Forgotten": 8449,
      "innkeeper": 8450,
      "Moving": 8451,
      "Quill": 8452,
      "Exam": 8453,
      "eyebrows": 8454,
      "vanish": 8455,
      "pays": 8456,
      "hunter": 8457,
      "hooded": 8458,
      "thirteen": 8459,
      "Triboar": 8460,
      "Freys": 8461,
      "suspected": 8462,
      "Realms": 8463,
      "magnific": 8464,
      "Dev": 8465,
      "Slyn": 8466,
      "Wal": 8467,
      "Zor": 8468,
      "cages": 8469,
      "din": 8470,
      "nons": 8471,
      "pyr": 8472,
      "arning": 8473,
      "peaks": 8474,
      "shr": 8475,
      "folly": 8476,
      "boss": 8477,
      "boards": 8478,
      "yourselves": 8479,
      "afford": 8480,
      "resco": 8481,
      "patrols": 8482,
      "sorrow": 8483,
      "Highgarden": 8484,
      "Neve": 8485,
      "stalag": 8486,
      "depends": 8487,
      "trading": 8488,
      "Temperate": 8489,
      "represents": 8490,
      "distracted": 8491,
      "Darrett": 8492,
      "boulder": 8493,
      "district": 8494,
      "illusory": 8495,
      "Il": 8496,
      "Mund": 8497,
      "bough": 8498,
      "cack": 8499,
      "camps": 8500,
      "drown": 8501,
      "pies": 8502,
      "virt": 8503,
      "onse": 8504,
      "adam": 8505,
      "shiny": 8506,
      "plains": 8507,
      "moy": 8508,
      "raged": 8509,
      "rember": 8510,
      "remote": 8511,
      "intention": 8512,
      "dragging": 8513,
      "biting": 8514,
      "Took": 8515,
      "brill": 8516,
      "pretend": 8517,
      "skilled": 8518,
      "princes": 8519,
      "puzzle": 8520,
      "jerked": 8521,
      "Ceilings": 8522,
      "Thingol": 8523,
      "Durnan": 8524,
      "Slynt": 8525,
      "Neverember": 8526,
      "CM": 8527,
      "Dess": 8528,
      "Fun": 8529,
      "Low": 8530,
      "NE": 8531,
      "Zugg": 8532,
      "dess": 8533,
      "lam": 8534,
      "tank": 8535,
      "tmoy": 8536,
      "inx": 8537,
      "rever": 8538,
      "stunned": 8539,
      "isons": 8540,
      "severed": 8541,
      "chained": 8542,
      "withered": 8543,
      "delicate": 8544,
      "ference": 8545,
      "sport": 8546,
      "scree": 8547,
      "afar": 8548,
      "grind": 8549,
      "archmage": 8550,
      "strings": 8551,
      "Love": 8552,
      "strict": 8553,
      "dreaming": 8554,
      "splash": 8555,
      "streams": 8556,
      "Steel": 8557,
      "fancy": 8558,
      "rina": 8559,
      "Breath": 8560,
      "spilled": 8561,
      "travell": 8562,
      "flooded": 8563,
      "squeeze": 8564,
      "gigantic": 8565,
      "Defense": 8566,
      "defenses": 8567,
      "sanct": 8568,
      "Zuggtmoy": 8569,
      "4th": 8570,
      "Caves": 8571,
      "Field": 8572,
      "Rita": 8573,
      "Sle": 8574,
      "heap": 8575,
      "token": 8576,
      "lob": 8577,
      "button": 8578,
      "contempt": 8579,
      "construction": 8580,
      "protrud": 8581,
      "desired": 8582,
      "Serv": 8583,
      "prize": 8584,
      "secretly": 8585,
      "relative": 8586,
      "godswood": 8587,
      "smelling": 8588,
      "suffering": 8589,
      "pelg": 8590,
      "trembled": 8591,
      "cabinet": 8592,
      "veteran": 8593,
      "treacherous": 8594,
      "iplom": 8595,
      "COMBAT": 8596,
      "Xaryx": 8597,
      "Dessarin": 8598,
      "Crag": 8599,
      "Dol": 8600,
      "Nest": 8601,
      "jungle": 8602,
      "lute": 8603,
      "ners": 8604,
      "wrenched": 8605,
      "rift": 8606,
      "hazard": 8607,
      "exposed": 8608,
      "protest": 8609,
      "flask": 8610,
      "Ange": 8611,
      "helpless": 8612,
      "sliding": 8613,
      "joke": 8614,
      "locate": 8615,
      "northward": 8616,
      "sunset": 8617,
      "oses": 8618,
      "crystals": 8619,
      "questioned": 8620,
      "ponies": 8621,
      "Kingslayer": 8622,
      "Appendix": 8623,
      "Reznak": 8624,
      "torture": 8625,
      "Uthgardt": 8626,
      "sufficient": 8627,
      "Bt": 8628,
      "Op": 8629,
      "Sit": 8630,
      "WBt": 8631,
      "cies": 8632,
      "fare": 8633,
      "twins": 8634,
      "wits": 8635,
      "anda": 8636,
      "asters": 8637,
      "ulac": 8638,
      "attitude": 8639,
      "Sty": 8640,
      "dish": 8641,
      "magician": 8642,
      "everybody": 8643,
      "snatched": 8644,
      "sixteen": 8645,
      "enchanted": 8646,
      "splin": 8647,
      "Nightshade": 8648,
      "engul": 8649,
      "Bloody": 8650,
      "wields": 8651,
      "Nyanzar": 8652,
      "shrieked": 8653,
      "courtesy": 8654,
      "WBtW": 8655,
      "Nyanzaru": 8656,
      "Pom": 8657,
      "fray": 8658,
      "iy": 8659,
      "nin": 8660,
      "éagol": 8661,
      "lli": 8662,
      "ira": 8663,
      "forbidden": 8664,
      "sailing": 8665,
      "soaked": 8666,
      "canop": 8667,
      "plum": 8668,
      "Coven": 8669,
      "sweeping": 8670,
      "seemingly": 8671,
      "functions": 8672,
      "Poor": 8673,
      "script": 8674,
      "accepted": 8675,
      "gloomy": 8676,
      "birthday": 8677,
      "comfortably": 8678,
      "jewels": 8679,
      "Welcome": 8680,
      "=\"": 8681,
      "Crow": 8682,
      "Qy": 8683,
      "gna": 8684,
      "ock": 8685,
      "inher": 8686,
      "vey": 8687,
      "ghast": 8688,
      "hoarse": 8689,
      "pestri": 8690,
      "costs": 8691,
      "perf": 8692,
      "club": 8693,
      "century": 8694,
      "nament": 8695,
      "purse": 8696,
      "pathy": 8697,
      "stripped": 8698,
      "misty": 8699,
      "bony": 8700,
      "combatants": 8701,
      "pretending": 8702,
      "surviving": 8703,
      "supported": 8704,
      "gnolls": 8705,
      "Knowledge": 8706,
      "Count": 8707,
      "stallion": 8708,
      "Items": 8709,
      "assistance": 8710,
      "injured": 8711,
      "veterans": 8712,
      "adorned": 8713,
      "amulet": 8714,
      "Personality": 8715,
      "Qyburn": 8716,
      "9th": 8717,
      "Bast": 8718,
      "Effect": 8719,
      "Twi": 8720,
      "Ve": 8721,
      "core": 8722,
      "dad": 8723,
      "lacter": 8724,
      "research": 8725,
      "deleg": 8726,
      "pearl": 8727,
      "footh": 8728,
      "adding": 8729,
      "shoot": 8730,
      "submerged": 8731,
      "Potions": 8732,
      "visiting": 8733,
      "lanterns": 8734,
      "response": 8735,
      "possessed": 8736,
      "rynn": 8737,
      "lurk": 8738,
      "labor": 8739,
      "Chief": 8740,
      "demi": 8741,
      "greeted": 8742,
      "townsfolk": 8743,
      "shimmering": 8744,
      "retrieve": 8745,
      "Bond": 8746,
      "Gall": 8747,
      "Kir": 8748,
      "Scab": 8749,
      "Winky": 8750,
      "pad": 8751,
      "slaughter": 8752,
      "resent": 8753,
      "lest": 8754,
      "idi": 8755,
      "ribs": 8756,
      "absence": 8757,
      "tearing": 8758,
      "owners": 8759,
      "tribes": 8760,
      "observed": 8761,
      "Deception": 8762,
      "successfully": 8763,
      "daily": 8764,
      "movements": 8765,
      "Elend": 8766,
      "signal": 8767,
      "patri": 8768,
      "confusion": 8769,
      "punishment": 8770,
      "sacred": 8771,
      "lodge": 8772,
      "attunement": 8773,
      "mortals": 8774,
      "vehicle": 8775,
      "Age": 8776,
      "Cla": 8777,
      "Luck": 8778,
      "Players": 8779,
      "coffer": 8780,
      "hn": 8781,
      "jade": 8782,
      "pipes": 8783,
      "sinking": 8784,
      "infiltr": 8785,
      "aroff": 8786,
      "islands": 8787,
      "itial": 8788,
      "meph": 8789,
      "rik": 8790,
      "cope": 8791,
      "butcher": 8792,
      "planted": 8793,
      "endure": 8794,
      "quet": 8795,
      "tiger": 8796,
      "emperor": 8797,
      "flaming": 8798,
      "parties": 8799,
      "yeah": 8800,
      "maids": 8801,
      "Ancient": 8802,
      "spellcasting": 8803,
      "stealing": 8804,
      "Spire": 8805,
      "gleamed": 8806,
      "palm": 8807,
      "scratched": 8808,
      "Peeves": 8809,
      "drinks": 8810,
      "prayers": 8811,
      "activate": 8812,
      "unique": 8813,
      "stationed": 8814,
      "chimney": 8815,
      "shuddered": 8816,
      "ranean": 8817,
      "confirmed": 8818,
      "Karkaroff": 8819,
      "Religion": 8820,
      "mephits": 8821,
      "Ale": 8822,
      "Fring": 8823,
      "Mort": 8824,
      "Shand": 8825,
      "Vall": 8826,
      "aze": 8827,
      "carts": 8828,
      "dangers": 8829,
      "fists": 8830,
      "lor": 8831,
      "mounds": 8832,
      "tat": 8833,
      "tub": 8834,
      "reth": 8835,
      "eral": 8836,
      "tod": 8837,
      "itia": 8838,
      "learning": 8839,
      "ayna": 8840,
      "fork": 8841,
      "wheels": 8842,
      "atha": 8843,
      "thanc": 8844,
      "vial": 8845,
      "stew": 8846,
      "sentence": 8847,
      "legged": 8848,
      "vaulted": 8849,
      "Meri": 8850,
      "figur": 8851,
      "males": 8852,
      "lifting": 8853,
      "Talos": 8854,
      "benefits": 8855,
      "shifted": 8856,
      "separated": 8857,
      "political": 8858,
      "Crook": 8859,
      "Lancel": 8860,
      "petrified": 8861,
      "behavior": 8862,
      "Gam": 8863,
      "Mand": 8864,
      "Mine": 8865,
      "Ph": 8866,
      "Path": 8867,
      "gled": 8868,
      "grot": 8869,
      "—'": 8870,
      "lems": 8871,
      "metall": 8872,
      "terranean": 8873,
      "pelled": 8874,
      "consequ": 8875,
      "moaned": 8876,
      "creation": 8877,
      "gilded": 8878,
      "granted": 8879,
      "alka": 8880,
      "ensive": 8881,
      "garb": 8882,
      "Anyway": 8883,
      "Northern": 8884,
      "harness": 8885,
      "wonderful": 8886,
      "breathed": 8887,
      "Penny": 8888,
      "triggered": 8889,
      "carvings": 8890,
      "electri": 8891,
      "imensional": 8892,
      "6th": 8893,
      "Burn": 8894,
      "Sen": 8895,
      "cass": 8896,
      "ghed": 8897,
      "mild": 8898,
      "acly": 8899,
      "alls": 8900,
      "neg": 8901,
      "shu": 8902,
      "compet": 8903,
      "Stones": 8904,
      "restored": 8905,
      "minions": 8906,
      "centaur": 8907,
      "Lee": 8908,
      "Orthanc": 8909,
      "burnt": 8910,
      "battlefield": 8911,
      "swarms": 8912,
      "worthless": 8913,
      "ggy": 8914,
      "dryad": 8915,
      "reported": 8916,
      "vengeance": 8917,
      "searched": 8918,
      "definitely": 8919,
      "detected": 8920,
      "Valinor": 8921,
      "Members": 8922,
      "formance": 8923,
      "medallion": 8924,
      "Fringilla": 8925,
      "7th": 8926,
      "Dra": 8927,
      "Eur": 8928,
      "Mun": 8929,
      "dice": 8930,
      "dining": 8931,
      "flaw": 8932,
      "hound": 8933,
      "pil": 8934,
      "infect": 8935,
      "thamp": 8936,
      "liken": 8937,
      "conven": 8938,
      "manor": 8939,
      "inkling": 8940,
      "nail": 8941,
      "steward": 8942,
      "miners": 8943,
      "coral": 8944,
      "Yellow": 8945,
      "ramed": 8946,
      "extends": 8947,
      "sources": 8948,
      "babe": 8949,
      "Horse": 8950,
      "Planes": 8951,
      "Elendil": 8952,
      "Crookshanks": 8953,
      "Ask": 8954,
      "Bane": 8955,
      "Sab": 8956,
      "border": 8957,
      "iet": 8958,
      "initial": 8959,
      "encourage": 8960,
      "meer": 8961,
      "logy": 8962,
      "geant": 8963,
      "rape": 8964,
      "goss": 8965,
      "nostri": 8966,
      "tips": 8967,
      "flour": 8968,
      "grunted": 8969,
      "greatly": 8970,
      "chooses": 8971,
      "slippery": 8972,
      "related": 8973,
      "witchers": 8974,
      "connect": 8975,
      "Outlands": 8976,
      "quality": 8977,
      "activities": 8978,
      "Reghed": 8979,
      "elimin": 8980,
      "melted": 8981,
      "gargoyle": 8982,
      "Djayna": 8983,
      "coffin": 8984,
      "Pomfrey": 8985,
      "pestries": 8986,
      "aclysm": 8987,
      "Cond": 8988,
      "Num": 8989,
      "Nsi": 8990,
      "Say": 8991,
      "Sho": 8992,
      "cults": 8993,
      "hom": 8994,
      "jut": 8995,
      "pour": 8996,
      "sive": 8997,
      "sip": 8998,
      "heel": 8999,
      "arrog": 9000,
      "stacked": 9001,
      "chi": 9002,
      "chant": 9003,
      "chop": 9004,
      "ideas": 9005,
      "clinging": 9006,
      "restless": 9007,
      "maw": 9008,
      "carpet": 9009,
      "sunken": 9010,
      "swinging": 9011,
      "signed": 9012,
      "Mean": 9013,
      "affli": 9014,
      "Starks": 9015,
      "reduce": 9016,
      "hobgoblin": 9017,
      "structures": 9018,
      "prayed": 9019,
      "Nilfgaardians": 9020,
      "suspicion": 9021,
      "official": 9022,
      "breastplate": 9023,
      "issue": 9024,
      "experienced": 9025,
      "iplomacy": 9026,
      "Much": 9027,
      "Qhor": 9028,
      "vows": 9029,
      "react": 9030,
      "stors": 9031,
      "toe": 9032,
      "esi": 9033,
      "wept": 9034,
      "abar": 9035,
      "ifies": 9036,
      "fox": 9037,
      "spared": 9038,
      "laun": 9039,
      "backwards": 9040,
      "foreign": 9041,
      "Infernal": 9042,
      "Stay": 9043,
      "Soth": 9044,
      "crip": 9045,
      "wrinkled": 9046,
      "sounding": 9047,
      "studying": 9048,
      "solar": 9049,
      "Imper": 9050,
      "Sméagol": 9051,
      "Poison": 9052,
      "occupants": 9053,
      "crafted": 9054,
      "wealthy": 9055,
      "produce": 9056,
      "Turin": 9057,
      "haleesi": 9058,
      "imperial": 9059,
      "Sandor": 9060,
      "scrambled": 9061,
      "mantle": 9062,
      "likeness": 9063,
      "Flaw": 9064,
      "Ideal": 9065,
      "Liz": 9066,
      "Rats": 9067,
      "aving": 9068,
      "mith": 9069,
      "tough": 9070,
      "unfold": 9071,
      "uncomfortable": 9072,
      "decre": 9073,
      "neys": 9074,
      "charred": 9075,
      "sheath": 9076,
      "scow": 9077,
      "thereafter": 9078,
      "overgrown": 9079,
      "dismay": 9080,
      "grants": 9081,
      "darker": 9082,
      "Thir": 9083,
      "Alley": 9084,
      "complic": 9085,
      "topped": 9086,
      "relation": 9087,
      "demonic": 9088,
      "avoided": 9089,
      "Creature": 9090,
      "briefly": 9091,
      "Karstark": 9092,
      "Intimidation": 9093,
      "Arianne": 9094,
      "resources": 9095,
      "Prismeer": 9096,
      "Cy": 9097,
      "Care": 9098,
      "Later": 9099,
      "Si": 9100,
      "blights": 9101,
      "framed": 9102,
      "tasks": 9103,
      "zone": 9104,
      "recalled": 9105,
      "beings": 9106,
      "rig": 9107,
      "haunt": 9108,
      "astral": 9109,
      "comment": 9110,
      "boiled": 9111,
      "permission": 9112,
      "Anduin": 9113,
      "ruby": 9114,
      "actual": 9115,
      "buzz": 9116,
      "Bereg": 9117,
      "begged": 9118,
      "crit": 9119,
      "commod": 9120,
      "cretion": 9121,
      "sweep": 9122,
      "troubles": 9123,
      "Valyrian": 9124,
      "lairs": 9125,
      "Hogsme": 9126,
      "descending": 9127,
      "Boros": 9128,
      "divination": 9129,
      "Grip": 9130,
      "colorful": 9131,
      "----------------------------------------------------------------------------------------------------------------------------------------------------------------------------------------------------------------------------------------------------------------": 9132,
      "wheeled": 9133,
      "appreci": 9134,
      "swayed": 9135,
      "fisher": 9136,
      "persuade": 9137,
      "miserable": 9138,
      "saurus": 9139,
      "Caer": 9140,
      "Demon": 9141,
      "Fair": 9142,
      "Haven": 9143,
      "Ka": 9144,
      "Mas": 9145,
      "Names": 9146,
      "nag": 9147,
      "pus": 9148,
      "uk": 9149,
      "uga": 9150,
      "inum": 9151,
      "stamped": 9152,
      "envelo": 9153,
      "beet": 9154,
      "beacon": 9155,
      "chal": 9156,
      "goats": 9157,
      "improve": 9158,
      "poly": 9159,
      "cav": 9160,
      "labe": 9161,
      "icked": 9162,
      "Thaned": 9163,
      "floated": 9164,
      "minim": 9165,
      "choosing": 9166,
      "capac": 9167,
      "Deck": 9168,
      "shoes": 9169,
      "realizes": 9170,
      "walks": 9171,
      "Blackwater": 9172,
      "batics": 9173,
      "spoon": 9174,
      "interests": 9175,
      "diary": 9176,
      "peaceful": 9177,
      "Eldar": 9178,
      "imagined": 9179,
      "platinum": 9180,
      "violence": 9181,
      "constant": 9182,
      "Better": 9183,
      "tourney": 9184,
      "healthy": 9185,
      "teachers": 9186,
      "juice": 9187,
      "authority": 9188,
      "scabbard": 9189,
      "Janos": 9190,
      "ignoring": 9191,
      "Surely": 9192,
      "opinion": 9193,
      "papers": 9194,
      "magnificent": 9195,
      "Hogsmeade": 9196,
      "Thanedd": 9197,
      "Bom": 9198,
      "Iym": 9199,
      "Name": 9200,
      "SK": 9201,
      "bidding": 9202,
      "dl": 9203,
      "usa": 9204,
      "healed": 9205,
      "hiss": 9206,
      "lions": 9207,
      "amuse": 9208,
      "plots": 9209,
      "confron": 9210,
      "blinked": 9211,
      "caution": 9212,
      "creates": 9213,
      "muffled": 9214,
      "Almost": 9215,
      "eleven": 9216,
      "inclined": 9217,
      "yrinth": 9218,
      "Having": 9219,
      "sellsword": 9220,
      "tradimensional": 9221,
      "profit": 9222,
      "occurred": 9223,
      "matching": 9224,
      "duties": 9225,
      "proudly": 9226,
      "officers": 9227,
      "squeezed": 9228,
      "cobwebs": 9229,
      "curiosity": 9230,
      "Depart": 9231,
      "Scrim": 9232,
      "impatiently": 9233,
      "Braavos": 9234,
      "Meanwhile": 9235,
      "42": 9236,
      "AG": 9237,
      "Aber": 9238,
      "Dim": 9239,
      "Ith": 9240,
      "Tod": 9241,
      "Twenty": 9242,
      "Zal": 9243,
      "bush": 9244,
      "fungus": 9245,
      "gment": 9246,
      "obed": 9247,
      "tiles": 9248,
      "wan": 9249,
      "rebell": 9250,
      "aro": 9251,
      "admir": 9252,
      "aggy": 9253,
      "unarmed": 9254,
      "nephe": 9255,
      "social": 9256,
      "atting": 9257,
      "flagon": 9258,
      "DCs": 9259,
      "killer": 9260,
      "natively": 9261,
      "subterranean": 9262,
      "planet": 9263,
      "countless": 9264,
      "Pyp": 9265,
      "Severus": 9266,
      "sadly": 9267,
      "feeding": 9268,
      "suitable": 9269,
      "languages": 9270,
      "bitterly": 9271,
      "coward": 9272,
      "Axe": 9273,
      "travellers": 9274,
      "Iymrith": 9275,
      "Gard": 9276,
      "fits": 9277,
      "lane": 9278,
      "obel": 9279,
      "pom": 9280,
      "pinned": 9281,
      "loo": 9282,
      "outlaws": 9283,
      "geour": 9284,
      "cooking": 9285,
      "bler": 9286,
      "pockets": 9287,
      "anybody": 9288,
      "explan": 9289,
      "rubbing": 9290,
      "discretion": 9291,
      "cyl": 9292,
      "bury": 9293,
      "colony": 9294,
      "mistress": 9295,
      "murd": 9296,
      "paladin": 9297,
      "storage": 9298,
      "matched": 9299,
      "modrons": 9300,
      "retreated": 9301,
      "stalls": 9302,
      "Aeron": 9303,
      "perilous": 9304,
      "pirate": 9305,
      "fragments": 9306,
      "sparks": 9307,
      "mechanism": 9308,
      "Rayder": 9309,
      "Selmy": 9310,
      "doppelg": 9311,
      "permitted": 9312,
      "47": 9313,
      "Acro": 9314,
      "Acere": 9315,
      "Cup": 9316,
      "Col": 9317,
      "Huffle": 9318,
      "Ilyn": 9319,
      "Lily": 9320,
      "Ol": 9321,
      "SC": 9322,
      "Troll": 9323,
      "lure": 9324,
      "eron": 9325,
      "archer": 9326,
      "enix": 9327,
      "ido": 9328,
      "rick": 9329,
      "cean": 9330,
      "loso": 9331,
      "acking": 9332,
      "cany": 9333,
      "canvas": 9334,
      "spaces": 9335,
      "elk": 9336,
      "scars": 9337,
      "clues": 9338,
      "monks": 9339,
      "disrup": 9340,
      "glancing": 9341,
      "carriage": 9342,
      "carcass": 9343,
      "tapestries": 9344,
      "household": 9345,
      "cloaked": 9346,
      "Shar": 9347,
      "rangers": 9348,
      "refuses": 9349,
      "gallery": 9350,
      "escaping": 9351,
      "wreckage": 9352,
      "machine": 9353,
      "jacket": 9354,
      "Addition": 9355,
      "significant": 9356,
      "metallic": 9357,
      "Beregond": 9358,
      "Acererak": 9359,
      "Hufflepuff": 9360,
      "\"),": 9361,
      "2d10": 9362,
      "Claw": 9363,
      "Fight": 9364,
      "Ghis": 9365,
      "Krynn": 9366,
      "TY": 9367,
      "awaits": 9368,
      "data": 9369,
      "lag": 9370,
      "math": 9371,
      "nim": 9372,
      "yawn": 9373,
      "ême": 9374,
      "—,": 9375,
      "theater": 9376,
      "ancy": 9377,
      "render": 9378,
      "arc": 9379,
      "enced": 9380,
      "tool": 9381,
      "aya": 9382,
      "loaded": 9383,
      "haze": 9384,
      "notion": 9385,
      "doomed": 9386,
      "shy": 9387,
      "ravine": 9388,
      "etched": 9389,
      "blond": 9390,
      "pogriff": 9391,
      "pering": 9392,
      "Stairs": 9393,
      "smoking": 9394,
      "pron": 9395,
      "Third": 9396,
      "linger": 9397,
      "Role": 9398,
      "guardians": 9399,
      "mining": 9400,
      "valiant": 9401,
      "worlds": 9402,
      "Alas": 9403,
      "Shut": 9404,
      "kinds": 9405,
      "Adventurers": 9406,
      "reflection": 9407,
      "powder": 9408,
      "Mirror": 9409,
      "officer": 9410,
      "established": 9411,
      "knuck": 9412,
      "digging": 9413,
      "assembled": 9414,
      "hospital": 9415,
      "accomplish": 9416,
      "discern": 9417,
      "nostrils": 9418,
      "Dad": 9419,
      "Gild": 9420,
      "Golor": 9421,
      "Jack": 9422,
      "March": 9423,
      "Oll": 9424,
      "Rum": 9425,
      "date": 9426,
      "fy": 9427,
      "fake": 9428,
      "gam": 9429,
      "lum": 9430,
      "nis": 9431,
      "enclosed": 9432,
      "enthus": 9433,
      "covery": 9434,
      "rouded": 9435,
      "placing": 9436,
      "suri": 9437,
      "venom": 9438,
      "owned": 9439,
      "mond": 9440,
      "rounded": 9441,
      "greatsword": 9442,
      "vibr": 9443,
      "rones": 9444,
      "slot": 9445,
      "ensla": 9446,
      "barrow": 9447,
      "Lead": 9448,
      "Blind": 9449,
      "stopping": 9450,
      "servatory": 9451,
      "Dawn": 9452,
      "battered": 9453,
      "promin": 9454,
      "oulême": 9455,
      "selling": 9456,
      "Belwas": 9457,
      "ghostly": 9458,
      "Melkor": 9459,
      "vigrad": 9460,
      "multiverse": 9461,
      "wyck": 9462,
      "Wilderness": 9463,
      "Angoulême": 9464,
      "corruption": 9465,
      "stabbed": 9466,
      "scorp": 9467,
      "thoroughly": 9468,
      "sinister": 9469,
      "reinforcements": 9470,
      "Alternatively": 9471,
      "Acrobatics": 9472,
      "Golorr": 9473,
      "4d6": 9474,
      "Around": 9475,
      "Bryn": 9476,
      "Brynd": 9477,
      "Cot": 9478,
      "bak": 9479,
      "dangling": 9480,
      "fading": 9481,
      "oy": 9482,
      "thwart": 9483,
      "sticking": 9484,
      "isel": 9485,
      "itter": 9486,
      "wiping": 9487,
      "unlocks": 9488,
      "debt": 9489,
      "umed": 9490,
      "scorn": 9491,
      "performed": 9492,
      "clung": 9493,
      "Story": 9494,
      "remor": 9495,
      "cargo": 9496,
      "valry": 9497,
      "continu": 9498,
      "Few": 9499,
      "stooped": 9500,
      "Pool": 9501,
      "straightened": 9502,
      "depth": 9503,
      "stretches": 9504,
      "suggestion": 9505,
      "exploring": 9506,
      "indicates": 9507,
      "AND": 9508,
      "introduction": 9509,
      "blessed": 9510,
      "records": 9511,
      "challenges": 9512,
      "Destroy": 9513,
      "temporary": 9514,
[...]
