{
  "version": "1.0",
  "truncation": null,
  "padding": null,
  "added_tokens": [],
  "normalizer": null,
  "pre_tokenizer": {
    "type": "Whitespace"
  },
  "post_processor": null,
  "decoder": null,
  "model": {
    "type": "BPE",
    "dropout": null,
    "unk_token": null,
    "continuing_subword_prefix": null,
    "end_of_word_suffix": null,
    "fuse_unk": false,
    "byte_fallback": false,
    "vocab": {
      "\u001f": 0,
      "!": 1,
      "\"": 2,
      "$": 3,
      "%": 4,
      "&": 5,
      "'": 6,
      "(": 7,
      ")": 8,
      "*": 9,
      ",": 10,
      "-": 11,
      ".": 12,
      "/": 13,
      "0": 14,
      "1": 15,
      "2": 16,
      "3": 17,
      "4": 18,
      "5": 19,
      "6": 20,
      "7": 21,
      "8": 22,
      "9": 23,
      ":": 24,
      ";": 25,
      "=": 26,
      ">": 27,
      "?": 28,
      "A": 29,
      "B": 30,
      "C": 31,
      "D": 32,
      "E": 33,
      "F": 34,
      "G": 35,
      "H": 36,
      "I": 37,
      "J": 38,
      "K": 39,
      "L": 40,
      "M": 41,
      "N": 42,
      "O": 43,
      "P": 44,
      "Q": 45,
      "R": 46,
      "S": 47,
      "T": 48,
      "U": 49,
      "V": 50,
      "W": 51,
      "X": 52,
      "Y": 53,
      "Z": 54,
      "[": 55,
      "\\": 56,
      "]": 57,
      "^": 58,
      "_": 59,
      "`": 60,
      "a": 61,
      "b": 62,
      "c": 63,
      "d": 64,
      "e": 65,
      "f": 66,
      "g": 67,
      "h": 68,
      "i": 69,
      "j": 70,
      "k": 71,
      "l": 72,
      "m": 73,
      "n": 74,
      "o": 75,
      "p": 76,
      "q": 77,
      "r": 78,
      "s": 79,
      "t": 80,
      "u": 81,
      "v": 82,
      "w": 83,
      "x": 84,
      "y": 85,
      "z": 86,
      "{": 87,
      "}": 88,
      "~": 89,
      "": 90,
      "": 91,
      "": 92,
      "": 93,
      "": 94,
      "£": 95,
      "¦": 96,
      "«": 97,
      "¬": 98,
      "­": 99,
      "»": 100,
      "Á": 101,
      "É": 102,
      "Í": 103,
      "Ó": 104,
      "Û": 105,
      "à": 106,
      "á": 107,
      "â": 108,
      "ä": 109,
      "ç": 110,
      "é": 111,
      "ê": 112,
      "ë": 113,
      "í": 114,
      "î": 115,
      "ï": 116,
      "ò": 117,
      "ó": 118,
      "ô": 119,
      "ö": 120,
      "ù": 121,
      "ú": 122,
      "û": 123,
      "ü": 124,
      "ę": 125,
      "ł": 126,
      "γ": 127,
      "​": 128,
      "–": 129,
      "—": 130,
      "‘": 131,
      "’": 132,
      "“": 133,
      "”": 134,
      "…": 135,
      "he": 136,
      "the": 137,
      "in": 138,
      "an": 139,
      "re": 140,
      "ou": 141,
      "ed": 142,
      "on": 143,
      "er": 144,
      "th": 145,
      "and": 146,
      "at": 147,
      "to": 148,
      "as": 149,
      "ing": 150,
      "ar": 151,
      "is": 152,
      "en": 153,
      "or": 154,
      "ll": 155,
      "of": 156,
      "st": 157,
      "le": 158,
      "it": 159,
      "ha": 160,
      "ow": 161,
      "id": 162,
      "me": 163,
      "se": 164,
      "be": 165,
      "ld": 166,
      "ro": 167,
      "gh": 168,
      "ve": 169,
      "you": 170,
      "was": 171,
      "his": 172,
      "wi": 173,
      "sa": 174,
      "hi": 175,
      "ly": 176,
      "es": 177,
      "ac": 178,
      "no": 179,
      "we": 180,
      "The": 181,
      "al": 182,
      "ir": 183,
      "ut": 184,
      "ad": 185,
      "that": 186,
      "ght": 187,
      "oo": 188,
      "all": 189,
      "li": 190,
      "ri": 191,
      "nd": 192,
      "had": 193,
      "ver": 194,
      "her": 195,
      "ay": 196,
      "for": 197,
      "with": 198,
      "ch": 199,
      "ag": 200,
      "said": 201,
      "ry": 202,
      "ke": 203,
      "ne": 204,
      "one": 205,
      "not": 206,
      "ould": 207,
      "ce": 208,
      "ur": 209,
      "him": 210,
      "red": 211,
      "so": 212,
      "ent": 213,
      "ho": 214,
      "out": 215,
      "ter": 216,
      "ther": 217,
      "co": 218,
      "un": 219,
      "mo": 220,
      "am": 221,
      "fe": 222,
      "ard": 223,
      ".”": 224,
      "up": 225,
      "il": 226,
      "ain": 227,
      "He": 228,
      "et": 229,
      "do": 230,
      "de": 231,
      "they": 232,
      "pe": 233,
      "now": 234,
      "go": 235,
      "but": 236,
      "ab": 237,
      "hat": 238,
      "rom": 239,
      "us": 240,
      "ck": 241,
      "bl": 242,
      "ack": 243,
      "are": 244,
      "have": 245,
      "ord": 246,
      "ti": 247,
      "lo": 248,
      "she": 249,
      "from": 250,
      "were": 251,
      "them": 252,
      "ast": 253,
      "sh": 254,
      "arry": 255,
      "ong": 256,
      "own": 257,
      "ight": 258,
      "ra": 259,
      "ind": 260,
      "ss": 261,
      "Harry": 262,
      "te": 263,
      "our": 264,
      "ound": 265,
      "ook": 266,
      "ill": 267,
      "man": 268,
      "whe": 269,
      "ca": 270,
      "ge": 271,
      "my": 272,
      "fo": 273,
      "pp": 274,
      "if": 275,
      "way": 276,
      "ood": 277,
      "ted": 278,
      "ough": 279,
      "ers": 280,
      "um": 281,
      "ak": 282,
      "qu": 283,
      "hed": 284,
      "thing": 285,
      "ust": 286,
      "ion": 287,
      "ven": 288,
      "ide": 289,
      "bo": 290,
      "would": 291,
      "will": 292,
      "too": 293,
      "their": 294,
      "..": 295,
      "po": 296,
      "see": 297,
      "lf": 298,
      "look": 299,
      "your": 300,
      "ant": 301,
      "by": 302,
      "It": 303,
      "And": 304,
      "ep": 305,
      "could": 306,
      ",”": 307,
      "end": 308,
      "ace": 309,
      "some": 310,
      "there": 311,
      "You": 312,
      "el": 313,
      "who": 314,
      "We": 315,
      "did": 316,
      "su": 317,
      "pl": 318,
      "wo": 319,
      "gre": 320,
      "urn": 321,
      "back": 322,
      "la": 323,
      "know": 324,
      "ic": 325,
      "like": 326,
      "any": 327,
      "this": 328,
      "But": 329,
      ",\"": 330,
      ".’": 331,
      "what": 332,
      "into": 333,
      "been": 334,
      "mp": 335,
      "ous": 336,
      "ey": 337,
      "gr": 338,
      "tr": 339,
      "ever": 340,
      "other": 341,
      "con": 342,
      "fore": 343,
      "down": 344,
      "hand": 345,
      "ought": 346,
      "und": 347,
      "whi": 348,
      "more": 349,
      "again": 350,
      "ark": 351,
      "ess": 352,
      "tle": 353,
      "ake": 354,
      "king": 355,
      "ts": 356,
      "can": 357,
      "br": 358,
      "time": 359,
      "She": 360,
      "ul": 361,
      "when": 362,
      "ate": 363,
      "off": 364,
      "long": 365,
      "orn": 366,
      "sp": 367,
      "?”": 368,
      "mi": 369,
      "over": 370,
      "turn": 371,
      "men": 372,
      "ang": 373,
      "word": 374,
      "head": 375,
      "ves": 376,
      "They": 377,
      "No": 378,
      "led": 379,
      ",’": 380,
      "thr": 381,
      "med": 382,
      "ist": 383,
      "than": 384,
      "side": 385,
      "fi": 386,
      "ath": 387,
      "ex": 388,
      "op": 389,
      "about": 390,
      "come": 391,
      "af": 392,
      "ked": 393,
      ".\"": 394,
      "ree": 395,
      "here": 396,
      "ment": 397,
      "?\"": 398,
      "art": 399,
      "self": 400,
      "ear": 401,
      "om": 402,
      "ink": 403,
      "ward": 404,
      "ice": 405,
      "ade": 406,
      "ull": 407,
      "sc": 408,
      "ved": 409,
      "ga": 410,
      "old": 411,
      "came": 412,
      "ite": 413,
      "then": 414,
      "its": 415,
      "ting": 416,
      "vo": 417,
      "si": 418,
      "clo": 419,
      "sha": 420,
      "ble": 421,
      "oun": 422,
      "war": 423,
      "Her": 424,
      "night": 425,
      "dd": 426,
      "day": 427,
      "before": 428,
      "eyes": 429,
      "even": 430,
      "wor": 431,
      "low": 432,
      "well": 433,
      "only": 434,
      "na": 435,
      "ass": 436,
      "ue": 437,
      "fa": 438,
      "com": 439,
      "wat": 440,
      "ap": 441,
      "say": 442,
      "ick": 443,
      "still": 444,
      "right": 445,
      "di": 446,
      "str": 447,
      "lit": 448,
      "light": 449,
      "bro": 450,
      "cr": 451,
      "thought": 452,
      "where": 453,
      "has": 454,
      "che": 455,
      "new": 456,
      "Ron": 457,
      "looked": 458,
      "ort": 459,
      "lt": 460,
      "able": 461,
      "get": 462,
      "What": 463,
      "There": 464,
      "pre": 465,
      "ft": 466,
      "ine": 467,
      "per": 468,
      "away": 469,
      "ond": 470,
      "less": 471,
      "gi": 472,
      "ber": 473,
      "how": 474,
      "through": 475,
      "Lord": 476,
      "mu": 477,
      "ish": 478,
      "very": 479,
      "ady": 480,
      "hor": 481,
      "should": 482,
      "ren": 483,
      "spe": 484,
      "pped": 485,
      "under": 486,
      "tain": 487,
      "sm": 488,
      "ling": 489,
      "use": 490,
      "rag": 491,
      "face": 492,
      "pr": 493,
      "arm": 494,
      "ally": 495,
      "!\"": 496,
      "ps": 497,
      "So": 498,
      "est": 499,
      "rid": 500,
      "which": 501,
      "made": 502,
      "cl": 503,
      "ure": 504,
      "pro": 505,
      "never": 506,
      "ons": 507,
      "great": 508,
      "mione": 509,
      "Hermione": 510,
      "turned": 511,
      "though": 512,
      "ched": 513,
      "wh": 514,
      "got": 515,
      "just": 516,
      "bled": 517,
      "don": 518,
      "dark": 519,
      "ened": 520,
      "?’": 521,
      "sto": 522,
      "after": 523,
      "bet": 524,
      "ving": 525,
      "cle": 526,
      "ran": 527,
      "Ser": 528,
      "must": 529,
      "im": 530,
      "little": 531,
      "gg": 532,
      "ried": 533,
      "went": 534,
      "sil": 535,
      "saw": 536,
      "ty": 537,
      "ach": 538,
      "think": 539,
      ".'": 540,
      "bed": 541,
      "That": 542,
      "ans": 543,
      "last": 544,
      "black": 545,
      "around": 546,
      "let": 547,
      "les": 548,
      "ste": 549,
      "fir": 550,
      "tre": 551,
      "call": 552,
      "gl": 553,
      "If": 554,
      "good": 555,
      "ation": 556,
      "ser": 557,
      "bre": 558,
      "sword": 559,
      "wa": 560,
      "dre": 561,
      "want": 562,
      "ore": 563,
      "most": 564,
      "every": 565,
      "Ro": 566,
      "hind": 567,
      "llow": 568,
      "air": 569,
      "might": 570,
      "ance": 571,
      "In": 572,
      "gu": 573,
      "ped": 574,
      "ared": 575,
      "two": 576,
      "told": 577,
      "dis": 578,
      "!’": 579,
      "ross": 580,
      "need": 581,
      "nor": 582,
      "...": 583,
      "age": 584,
      "St": 585,
      "ses": 586,
      "sed": 587,
      "mon": 588,
      "ff": 589,
      "heard": 590,
      "lord": 591,
      ",'": 592,
      "sk": 593,
      "ity": 594,
      "himself": 595,
      "ann": 596,
      "much": 597,
      "shi": 598,
      "Fro": 599,
      "took": 600,
      "ise": 601,
      "tell": 602,
      "umbled": 603,
      "bb": 604,
      "stand": 605,
      "hen": 606,
      "Ty": 607,
      "behind": 608,
      "ct": 609,
      "left": 610,
      "door": 611,
      "lea": 612,
      "mer": 613,
      "seemed": 614,
      "ught": 615,
      "row": 616,
      "Then": 617,
      "pt": 618,
      "upon": 619,
      "His": 620,
      "ru": 621,
      "blood": 622,
      "Frodo": 623,
      "first": 624,
      "unt": 625,
      "once": 626,
      "ated": 627,
      "wall": 628,
      "cre": 629,
      "may": 630,
      "ig": 631,
      "wind": 632,
      "ud": 633,
      "alt": 634,
      "Th": 635,
      "cher": 636,
      "many": 637,
      "land": 638,
      "fl": 639,
      "hair": 640,
      "take": 641,
      "Do": 642,
      "Sam": 643,
      "chi": 644,
      "ene": 645,
      "voice": 646,
      "Ger": 647,
      "ten": 648,
      "ings": 649,
      "hel": 650,
      "inn": 651,
      "knew": 652,
      "ful": 653,
      "going": 654,
      "Be": 655,
      "beg": 656,
      "far": 657,
      "iri": 658,
      "tood": 659,
      "asked": 660,
      "year": 661,
      "ose": 662,
      "When": 663,
      "vi": 664,
      "fell": 665,
      "ins": 666,
      "pass": 667,
      "ys": 668,
      "ple": 669,
      "full": 670,
      "ars": 671,
      "fire": 672,
      "Geralt": 673,
      "make": 674,
      "mem": 675,
      "ta": 676,
      "father": 677,
      "outh": 678,
      "ister": 679,
      "ence": 680,
      "hear": 681,
      "rest": 682,
      "wood": 683,
      "For": 684,
      "tor": 685,
      "ince": 686,
      "found": 687,
      "My": 688,
      "while": 689,
      "gir": 690,
      "ness": 691,
      "Dumbled": 692,
      "Dumbledore": 693,
      "aster": 694,
      "water": 695,
      "que": 696,
      "des": 697,
      "dden": 698,
      "ool": 699,
      "ron": 700,
      "uck": 701,
      "find": 702,
      "hard": 703,
      "looking": 704,
      "set": 705,
      "lie": 706,
      "girl": 707,
      "sle": 708,
      "ung": 709,
      "stood": 710,
      "oud": 711,
      "wit": 712,
      "ks": 713,
      "Pr": 714,
      "Jon": 715,
      "alf": 716,
      "aking": 717,
      "qui": 718,
      "half": 719,
      "hands": 720,
      "cause": 721,
      "put": 722,
      "something": 723,
      "those": 724,
      "cour": 725,
      "ma": 726,
      "ase": 727,
      "ised": 728,
      "gold": 729,
      "ci": 730,
      "moment": 731,
      "ye": 732,
      "int": 733,
      "yet": 734,
      "run": 735,
      "tal": 736,
      "Ho": 737,
      "jo": 738,
      "shall": 739,
      "keep": 740,
      "fall": 741,
      "room": 742,
      "seen": 743,
      "Mr": 744,
      "feet": 745,
      "sing": 746,
      "ows": 747,
      "happ": 748,
      "ev": 749,
      "against": 750,
      "comp": 751,
      "three": 752,
      "sent": 753,
      "aw": 754,
      "iz": 755,
      "dead": 756,
      "idd": 757,
      "toward": 758,
      "ople": 759,
      "sur": 760,
      "rion": 761,
      "enough": 762,
      "name": 763,
      "lves": 764,
      "As": 765,
      "gave": 766,
      "sl": 767,
      "ouse": 768,
      "tion": 769,
      "white": 770,
      "wal": 771,
      "brother": 772,
      "try": 773,
      "another": 774,
      "coun": 775,
      "ced": 776,
      "King": 777,
      "Go": 778,
      "On": 779,
      "sit": 780,
      "eld": 781,
      "mar": 782,
      "iled": 783,
      "This": 784,
      "rem": 785,
      "aring": 786,
      "hy": 787,
      "pa": 788,
      "ways": 789,
      "nothing": 790,
      "em": 791,
      "won": 792,
      "felt": 793,
      "kill": 794,
      "pi": 795,
      "spo": 796,
      "didn": 797,
      "leg": 798,
      "dy": 799,
      "people": 800,
      "place": 801,
      "sudden": 802,
      "raw": 803,
      "sound": 804,
      "fing": 805,
      "few": 806,
      "ching": 807,
      "small": 808,
      "cur": 809,
      "ered": 810,
      "boy": 811,
      "Tyrion": 812,
      "Gre": 813,
      "ds": 814,
      "ken": 815,
      "ug": 816,
      "lay": 817,
      "give": 818,
      "cast": 819,
      "mand": 820,
      "ready": 821,
      "cha": 822,
      "app": 823,
      "called": 824,
      "swe": 825,
      "bit": 826,
      "horse": 827,
      "stone": 828,
      "ily": 829,
      "fri": 830,
      "Well": 831,
      "How": 832,
      "used": 833,
      "ween": 834,
      "until": 835,
      "stre": 836,
      "ished": 837,
      "ng": 838,
      "ned": 839,
      "wr": 840,
      "ering": 841,
      "Co": 842,
      "mat": 843,
      "without": 844,
      "Bl": 845,
      "wait": 846,
      "drag": 847,
      "ms": 848,
      "across": 849,
      "cold": 850,
      "hold": 851,
      "inter": 852,
      "sat": 853,
      "open": 854,
      "between": 855,
      "feel": 856,
      "table": 857,
      "tered": 858,
      "friend": 859,
      "fin": 860,
      "ive": 861,
      "ley": 862,
      "child": 863,
      "Your": 864,
      "Gand": 865,
      "Gandalf": 866,
      "does": 867,
      "ef": 868,
      "ower": 869,
      "these": 870,
      "wand": 871,
      "fer": 872,
      "cer": 873,
      "ring": 874,
      "ning": 875,
      "soon": 876,
      "high": 877,
      "ies": 878,
      "such": 879,
      "deep": 880,
      "shad": 881,
      "help": 882,
      "sho": 883,
      "gone": 884,
      "--": 885,
      "ged": 886,
      "anted": 887,
      "Some": 888,
      "ountain": 889,
      "years": 890,
      "bu": 891,
      "son": 892,
      "things": 893,
      "Or": 894,
      "All": 895,
      "ster": 896,
      "ones": 897,
      "follow": 898,
      "remem": 899,
      "ary": 900,
      "sup": 901,
      "bow": 902,
      "began": 903,
      "done": 904,
      "par": 905,
      "fac": 906,
      "ious": 907,
      "words": 908,
      "fle": 909,
      "oot": 910,
      "!”": 911,
      "guard": 912,
      "mis": 913,
      "ately": 914,
      "car": 915,
      "ith": 916,
      "mean": 917,
      "better": 918,
      "lls": 919,
      "ground": 920,
      "Not": 921,
      "sun": 922,
      "At": 923,
      "burn": 924,
      "Po": 925,
      "bat": 926,
      "road": 927,
      "ofess": 928,
      "read": 929,
      "ank": 930,
      "ange": 931,
      "whis": 932,
      "sure": 933,
      "knight": 934,
      "sig": 935,
      "wer": 936,
      "!'": 937,
      "pull": 938,
      "Ciri": 939,
      "cloak": 940,
      "Yes": 941,
      "part": 942,
      "along": 943,
      "Hag": 944,
      "real": 945,
      "flo": 946,
      "ris": 947,
      "ained": 948,
      "imp": 949,
      "fear": 950,
      "ions": 951,
      "ove": 952,
      "because": 953,
      "ches": 954,
      "days": 955,
      "slow": 956,
      "De": 957,
      "quick": 958,
      "arrow": 959,
      "hur": 960,
      "cho": 961,
      "lim": 962,
      "woman": 963,
      "att": 964,
      "tly": 965,
      "near": 966,
      "shout": 967,
      "heart": 968,
      "green": 969,
      "enne": 970,
      "lar": 971,
      "eneath": 972,
      "round": 973,
      "cked": 974,
      "ofessor": 975,
      "step": 976,
      "both": 977,
      "appe": 978,
      "dri": 979,
      "mouth": 980,
      "anger": 981,
      "tra": 982,
      "suddenly": 983,
      "Gr": 984,
      "hu": 985,
      "Professor": 986,
      "Hagrid": 987,
      "ai": 988,
      "why": 989,
      "always": 990,
      "same": 991,
      "ask": 992,
      "ither": 993,
      "cla": 994,
      "da": 995,
      "ls": 996,
      "passed": 997,
      "agic": 998,
      "Now": 999,
      "sor": 1000,
      "ze": 1001,
      "witcher": 1002,
      "?'": 1003,
      "amed": 1004,
      "dr": 1005,
      "lled": 1006,
      "vis": 1007,
      "coming": 1008,
      "Mer": 1009,
      "world": 1010,
      "hope": 1011,
      "sn": 1012,
      "undred": 1013,
      "body": 1014,
      "cted": 1015,
      "To": 1016,
      "reac": 1017,
      "each": 1018,
      "Why": 1019,
      "nex": 1020,
      "res": 1021,
      "lion": 1022,
      "arms": 1023,
      "leave": 1024,
      "cut": 1025,
      "almost": 1026,
      "cont": 1027,
      "haps": 1028,
      "Se": 1029,
      "beneath": 1030,
      "aken": 1031,
      "dou": 1032,
      "An": 1033,
      "times": 1034,
      "care": 1035,
      "hundred": 1036,
      "above": 1037,
      "Ri": 1038,
      "Le": 1039,
      "cor": 1040,
      "young": 1041,
      "sen": 1042,
      "Re": 1043,
      "being": 1044,
      "One": 1045,
      "belie": 1046,
      "ined": 1047,
      "anything": 1048,
      "fight": 1049,
      "Sna": 1050,
      "ash": 1051,
      "gri": 1052,
      "wanted": 1053,
      "hea": 1054,
      "trees": 1055,
      "queen": 1056,
      "fully": 1057,
      "gether": 1058,
      "Snape": 1059,
      "ating": 1060,
      "Ma": 1061,
      "close": 1062,
      "win": 1063,
      "grey": 1064,
      "beside": 1065,
      "Lady": 1066,
      "house": 1067,
      "also": 1068,
      "mind": 1069,
      "fort": 1070,
      "Pi": 1071,
      "mes": 1072,
      "Let": 1073,
      "Ar": 1074,
      "Who": 1075,
      "Oh": 1076,
      "sleep": 1077,
      "pri": 1078,
      "others": 1079,
      "bey": 1080,
      "among": 1081,
      "ery": 1082,
      "together": 1083,
      "ently": 1084,
      "Weas": 1085,
      "vered": 1086,
      "next": 1087,
      "already": 1088,
      "cond": 1089,
      "Da": 1090,
      "command": 1091,
      "since": 1092,
      "ening": 1093,
      "Ary": 1094,
      "star": 1095,
      "igh": 1096,
      "dif": 1097,
      "brought": 1098,
      "foot": 1099,
      "walls": 1100,
      "lost": 1101,
      "cross": 1102,
      "os": 1103,
      "life": 1104,
      "Don": 1105,
      "list": 1106,
      "ester": 1107,
      "zard": 1108,
      "battle": 1109,
      "ald": 1110,
      "ater": 1111,
      "Black": 1112,
      "ush": 1113,
      "fron": 1114,
      "ces": 1115,
      "thin": 1116,
      "work": 1117,
      "bar": 1118,
      "den": 1119,
      "sof": 1120,
      "uff": 1121,
      "kne": 1122,
      "wild": 1123,
      "towards": 1124,
      "castle": 1125,
      "lly": 1126,
      "ago": 1127,
      "quiet": 1128,
      "cap": 1129,
      "course": 1130,
      "Mor": 1131,
      "iling": 1132,
      "speak": 1133,
      "Arya": 1134,
      "dered": 1135,
      "tri": 1136,
      "else": 1137,
      "floor": 1138,
      "four": 1139,
      "poin": 1140,
      "dwar": 1141,
      "alone": 1142,
      "ssed": 1143,
      "front": 1144,
      "Mar": 1145,
      "strong": 1146,
      "taken": 1147,
      "ah": 1148,
      "mother": 1149,
      "inside": 1150,
      "Weasley": 1151,
      "rey": 1152,
      "ughter": 1153,
      "ushed": 1154,
      "large": 1155,
      "Jai": 1156,
      "kind": 1157,
      "Jaime": 1158,
      "river": 1159,
      "death": 1160,
      "hobb": 1161,
      "pping": 1162,
      "sme": 1163,
      "understand": 1164,
      "pain": 1165,
      "top": 1166,
      "arp": 1167,
      "Un": 1168,
      "cy": 1169,
      "Arag": 1170,
      "scre": 1171,
      "fingers": 1172,
      "ats": 1173,
      "ugh": 1174,
      "ket": 1175,
      "fla": 1176,
      "ump": 1177,
      "silver": 1178,
      "moved": 1179,
      "rode": 1180,
      "owed": 1181,
      "fast": 1182,
      "wond": 1183,
      "ire": 1184,
      "wizard": 1185,
      "beyond": 1186,
      "cent": 1187,
      "true": 1188,
      "ugg": 1189,
      "doub": 1190,
      "certain": 1191,
      "ger": 1192,
      "morn": 1193,
      "dream": 1194,
      "raised": 1195,
      "dist": 1196,
      "tried": 1197,
      "Qu": 1198,
      "tru": 1199,
      "clear": 1200,
      "Aragorn": 1201,
      "hall": 1202,
      "grow": 1203,
      "pleas": 1204,
      "love": 1205,
      "past": 1206,
      "ory": 1207,
      "stra": 1208,
      "emp": 1209,
      "sw": 1210,
      "held": 1211,
      "eye": 1212,
      "bad": 1213,
      "best": 1214,
      "Dand": 1215,
      "Bran": 1216,
      "min": 1217,
      "Even": 1218,
      "north": 1219,
      "cannot": 1220,
      "matter": 1221,
      "hour": 1222,
      "smi": 1223,
      "died": 1224,
      "pulled": 1225,
      "master": 1226,
      "Mal": 1227,
      "tall": 1228,
      "bus": 1229,
      "With": 1230,
      "really": 1231,
      "morning": 1232,
      "dro": 1233,
      "tic": 1234,
      "horses": 1235,
      "Is": 1236,
      "Per": 1237,
      "sli": 1238,
      "loud": 1239,
      "quest": 1240,
      "bir": 1241,
      "magic": 1242,
      "pur": 1243,
      "ship": 1244,
      "mut": 1245,
      "wed": 1246,
      "atch": 1247,
      "fill": 1248,
      "spoke": 1249,
      "ants": 1250,
      "remember": 1251,
      "ended": 1252,
      "tter": 1253,
      "move": 1254,
      "wine": 1255,
      "Lann": 1256,
      "ob": 1257,
      "vy": 1258,
      "home": 1259,
      "sea": 1260,
      "forward": 1261,
      "walked": 1262,
      "Cer": 1263,
      "power": 1264,
      "play": 1265,
      "draw": 1266,
      "slowly": 1267,
      "San": 1268,
      "amp": 1269,
      "trying": 1270,
      "Dany": 1271,
      "Men": 1272,
      "thre": 1273,
      "ppin": 1274,
      "Sansa": 1275,
      "Mo": 1276,
      "brid": 1277,
      "ia": 1278,
      "ction": 1279,
      "Pippin": 1280,
      "mountain": 1281,
      "return": 1282,
      "selves": 1283,
      "reached": 1284,
      "caught": 1285,
      "fur": 1286,
      "rose": 1287,
      "Min": 1288,
      "cried": 1289,
      "cri": 1290,
      "rep": 1291,
      "bur": 1292,
      "swi": 1293,
      "mur": 1294,
      "Malfo": 1295,
      "second": 1296,
      "ously": 1297,
      "wish": 1298,
      "pale": 1299,
      "free": 1300,
      "gods": 1301,
      "ized": 1302,
      "lear": 1303,
      "ek": 1304,
      "known": 1305,
      "ature": 1306,
      "least": 1307,
      "deed": 1308,
      "gth": 1309,
      "tow": 1310,
      "plain": 1311,
      "rock": 1312,
      "steps": 1313,
      "ave": 1314,
      "Bo": 1315,
      "thro": 1316,
      "ton": 1317,
      "Lannister": 1318,
      "ather": 1319,
      "ents": 1320,
      "clim": 1321,
      "sister": 1322,
      "neck": 1323,
      "sight": 1324,
      "Malfoy": 1325,
      "add": 1326,
      "oom": 1327,
      "Stark": 1328,
      "Where": 1329,
      "beard": 1330,
      "lk": 1331,
      "ors": 1332,
      "short": 1333,
      "expe": 1334,
      "quite": 1335,
      "stay": 1336,
      "bring": 1337,
      "sky": 1338,
      "cry": 1339,
      "ible": 1340,
      "je": 1341,
      "ashed": 1342,
      "temp": 1343,
      "talk": 1344,
      "tom": 1345,
      "tou": 1346,
      "believe": 1347,
      "El": 1348,
      "stri": 1349,
      "ney": 1350,
      "Me": 1351,
      "thir": 1352,
      "lying": 1353,
      "herself": 1354,
      "ider": 1355,
      "bert": 1356,
      "given": 1357,
      "gar": 1358,
      "sign": 1359,
      "-\"": 1360,
      "ably": 1361,
      "shadow": 1362,
      "raid": 1363,
      "cess": 1364,
      "ilbo": 1365,
      "Bilbo": 1366,
      "van": 1367,
      "opened": 1368,
      "ni": 1369,
      "doubt": 1370,
      "Vold": 1371,
      "covered": 1372,
      "quickly": 1373,
      "cup": 1374,
      "either": 1375,
      "laug": 1376,
      "Voldem": 1377,
      "lady": 1378,
      "Merry": 1379,
      "laughed": 1380,
      "Grace": 1381,
      "lead": 1382,
      "appeared": 1383,
      "form": 1384,
      "legs": 1385,
      "Come": 1386,
      "big": 1387,
      "pered": 1388,
      "darkness": 1389,
      "fair": 1390,
      "yn": 1391,
      "silent": 1392,
      "bridge": 1393,
      "eas": 1394,
      "standing": 1395,
      "col": 1396,
      "Voldemort": 1397,
      "stair": 1398,
      "safe": 1399,
      "grew": 1400,
      "broken": 1401,
      "mist": 1402,
      "fre": 1403,
      "trou": 1404,
      "va": 1405,
      "fter": 1406,
      "ied": 1407,
      "children": 1408,
      "snow": 1409,
      "happened": 1410,
      "Potter": 1411,
      "eth": 1412,
      "hon": 1413,
      "squ": 1414,
      "val": 1415,
      "flow": 1416,
      "ping": 1417,
      "answer": 1418,
      "wide": 1419,
      "sei": 1420,
      "shouted": 1421,
      "Cersei": 1422,
      "thick": 1423,
      "cell": 1424,
      "host": 1425,
      "strange": 1426,
      "drew": 1427,
      "dragon": 1428,
      "born": 1429,
      "ided": 1430,
      "fam": 1431,
      "hung": 1432,
      "feren": 1433,
      "elion": 1434,
      "…’": 1435,
      "wolf": 1436,
      "hal": 1437,
      "onto": 1438,
      "Al": 1439,
      "die": 1440,
      "crow": 1441,
      "aut": 1442,
      "forest": 1443,
      "iron": 1444,
      "stopped": 1445,
      "ress": 1446,
      "ousand": 1447,
      "uri": 1448,
      "akes": 1449,
      "athe": 1450,
      "fool": 1451,
      "sla": 1452,
      "longer": 1453,
      "prom": 1454,
      "followed": 1455,
      "gard": 1456,
      "ates": 1457,
      "mit": 1458,
      "serv": 1459,
      "smiled": 1460,
      "Bar": 1461,
      "tree": 1462,
      "Yenne": 1463,
      "watch": 1464,
      "lands": 1465,
      "Yennefer": 1466,
      "smile": 1467,
      "pers": 1468,
      "dire": 1469,
      "ol": 1470,
      "wis": 1471,
      "doing": 1472,
      "dec": 1473,
      "annis": 1474,
      "Stannis": 1475,
      "Dandelion": 1476,
      "ell": 1477,
      "folk": 1478,
      "breath": 1479,
      "someone": 1480,
      "scar": 1481,
      "stead": 1482,
      "Nor": 1483,
      "bling": 1484,
      "Siri": 1485,
      "swords": 1486,
      "suppo": 1487,
      "Sirius": 1488,
      "sweet": 1489,
      "city": 1490,
      "iddle": 1491,
      "After": 1492,
      "Cr": 1493,
      "bright": 1494,
      "silence": 1495,
      "wered": 1496,
      "sum": 1497,
      "wasn": 1498,
      "kept": 1499,
      "tong": 1500,
      "Cately": 1501,
      "heavy": 1502,
      "Catelyn": 1503,
      "path": 1504,
      "aked": 1505,
      "break": 1506,
      "aned": 1507,
      "book": 1508,
      "ult": 1509,
      "der": 1510,
      "south": 1511,
      "teeth": 1512,
      "send": 1513,
      "killed": 1514,
      "zen": 1515,
      "­­": 1516,
      "oose": 1517,
      "Robb": 1518,
      "wonder": 1519,
      "lin": 1520,
      "friends": 1521,
      "sharp": 1522,
      "iss": 1523,
      "thousand": 1524,
      "smo": 1525,
      "plac": 1526,
      "blue": 1527,
      "rave": 1528,
      "ane": 1529,
      "Robert": 1530,
      "Wit": 1531,
      "aren": 1532,
      "whole": 1533,
      "ild": 1534,
      "law": 1535,
      "Great": 1536,
      "meet": 1537,
      "aming": 1538,
      "cal": 1539,
      "Tom": 1540,
      "fted": 1541,
      "yes": 1542,
      "Hog": 1543,
      "answered": 1544,
      "song": 1545,
      "returned": 1546,
      "everything": 1547,
      "whispered": 1548,
      "Joff": 1549,
      "alley": 1550,
      "ench": 1551,
      "rang": 1552,
      "orm": 1553,
      "laugh": 1554,
      "closed": 1555,
      "field": 1556,
      "golden": 1557,
      "earth": 1558,
      "bered": 1559,
      "perhaps": 1560,
      "secre": 1561,
      "...\"": 1562,
      "later": 1563,
      "nose": 1564,
      "rather": 1565,
      "Old": 1566,
      "ils": 1567,
      "gest": 1568,
      "act": 1569,
      "shoulder": 1570,
      "band": 1571,
      "empty": 1572,
      "ears": 1573,
      "ices": 1574,
      "dwarf": 1575,
      "seem": 1576,
      "window": 1577,
      "cus": 1578,
      "idden": 1579,
      "show": 1580,
      "ere": 1581,
      "als": 1582,
      "ian": 1583,
      "filled": 1584,
      "hes": 1585,
      "Are": 1586,
      "wore": 1587,
      "till": 1588,
      "themselves": 1589,
      "throat": 1590,
      "ason": 1591,
      "surpr": 1592,
      "straight": 1593,
      "zed": 1594,
      "ride": 1595,
      "warm": 1596,
      "skin": 1597,
      "differen": 1598,
      "Dark": 1599,
      "Only": 1600,
      "watched": 1601,
      "spl": 1602,
      "bot": 1603,
      "Witcher": 1604,
      "Did": 1605,
      "Har": 1606,
      "stro": 1607,
      "Winter": 1608,
      "truth": 1609,
      "indeed": 1610,
      "waiting": 1611,
      "east": 1612,
      "acked": 1613,
      "pes": 1614,
      "Ned": 1615,
      "Yet": 1616,
      "danger": 1617,
      "none": 1618,
      "start": 1619,
      "pret": 1620,
      "River": 1621,
      "Wall": 1622,
      "wound": 1623,
      "outside": 1624,
      "contin": 1625,
      "met": 1626,
      "hill": 1627,
      "sitting": 1628,
      "Lo": 1629,
      "roo": 1630,
      "west": 1631,
      "ille": 1632,
      "stren": 1633,
      "appro": 1634,
      "rain": 1635,
      "afraid": 1636,
      "prote": 1637,
      "ax": 1638,
      "mber": 1639,
      "au": 1640,
      "hobbits": 1641,
      "below": 1642,
      "ror": 1643,
      "iding": 1644,
      "moon": 1645,
      "started": 1646,
      "joy": 1647,
      "bs": 1648,
      "gate": 1649,
      "assa": 1650,
      "Just": 1651,
      "May": 1652,
      "chest": 1653,
      "eat": 1654,
      "lot": 1655,
      "port": 1656,
      "llum": 1657,
      "knows": 1658,
      "wise": 1659,
      "By": 1660,
      "chang": 1661,
      "chair": 1662,
      "terri": 1663,
      "inny": 1664,
      "food": 1665,
      "making": 1666,
      "ages": 1667,
      "talking": 1668,
      "couldn": 1669,
      "pie": 1670,
      "wrong": 1671,
      "lad": 1672,
      "itch": 1673,
      "stop": 1674,
      "Fred": 1675,
      "ison": 1676,
      "wel": 1677,
      "Shi": 1678,
      "gotten": 1679,
      "har": 1680,
      "point": 1681,
      "esca": 1682,
      "poss": 1683,
      "cing": 1684,
      "ters": 1685,
      "six": 1686,
      "tering": 1687,
      "press": 1688,
      "orge": 1689,
      "evil": 1690,
      "beaut": 1691,
      "Every": 1692,
      "rel": 1693,
      "iness": 1694,
      "lies": 1695,
      "rup": 1696,
      "daughter": 1697,
      "vent": 1698,
      "ging": 1699,
      "ides": 1700,
      "corn": 1701,
      "dog": 1702,
      "tongue": 1703,
      "live": 1704,
      "En": 1705,
      "lips": 1706,
      "finger": 1707,
      "please": 1708,
      "aged": 1709,
      "owned": 1710,
      "strength": 1711,
      "rum": 1712,
      "saying": 1713,
      "ale": 1714,
      "bri": 1715,
      "yourself": 1716,
      "Mrs": 1717,
      "remained": 1718,
      "horn": 1719,
      "anyone": 1720,
      "anced": 1721,
      "cir": 1722,
      "uring": 1723,
      "getting": 1724,
      "ener": 1725,
      "chance": 1726,
      "soft": 1727,
      "usu": 1728,
      "ured": 1729,
      "wife": 1730,
      "Red": 1731,
      "moun": 1732,
      "leap": 1733,
      "save": 1734,
      "became": 1735,
      "broke": 1736,
      "edge": 1737,
      "conf": 1738,
      "remain": 1739,
      "ns": 1740,
      "wards": 1741,
      "Winterfell": 1742,
      "Gollum": 1743,
      "hun": 1744,
      "vos": 1745,
      "Far": 1746,
      "late": 1747,
      "ny": 1748,
      "ner": 1749,
      "warts": 1750,
      "Will": 1751,
      "meant": 1752,
      "Joffrey": 1753,
      "ier": 1754,
      "tight": 1755,
      "running": 1756,
      "steel": 1757,
      "icked": 1758,
      "Good": 1759,
      "lightly": 1760,
      "bare": 1761,
      "ges": 1762,
      "bes": 1763,
      "def": 1764,
      "ens": 1765,
      "unk": 1766,
      "Here": 1767,
      "hit": 1768,
      "huge": 1769,
      "taking": 1770,
      "wouldn": 1771,
      "case": 1772,
      "fish": 1773,
      "pic": 1774,
      "Hogwarts": 1775,
      "women": 1776,
      "trust": 1777,
      "dded": 1778,
      "pat": 1779,
      "stick": 1780,
      "bear": 1781,
      "ments": 1782,
      "Maester": 1783,
      "grass": 1784,
      "cloud": 1785,
      "Bor": 1786,
      "crowd": 1787,
      "elf": 1788,
      "Dor": 1789,
      "From": 1790,
      "line": 1791,
      "Ye": 1792,
      "hang": 1793,
      "sol": 1794,
      "shook": 1795,
      "inning": 1796,
      "bor": 1797,
      "dor": 1798,
      "muttered": 1799,
      "guess": 1800,
      "lling": 1801,
      "llen": 1802,
      "ited": 1803,
      "ilf": 1804,
      "however": 1805,
      "gro": 1806,
      "ourney": 1807,
      "heads": 1808,
      "within": 1809,
      "ony": 1810,
      "hurt": 1811,
      "pay": 1812,
      "repe": 1813,
      "narrow": 1814,
      "aside": 1815,
      "Gon": 1816,
      "fallen": 1817,
      "Nilf": 1818,
      "Bri": 1819,
      "dry": 1820,
      "Nilfga": 1821,
      "coll": 1822,
      "Nilfgaard": 1823,
      "remembered": 1824,
      "Grey": 1825,
      "mountains": 1826,
      "ations": 1827,
      "sts": 1828,
      "iously": 1829,
      "ining": 1830,
      "blade": 1831,
      "udge": 1832,
      "kes": 1833,
      "las": 1834,
      "fro": 1835,
      "says": 1836,
      "question": 1837,
      "....": 1838,
      "Of": 1839,
      "myself": 1840,
      "cat": 1841,
      "vel": 1842,
      "vers": 1843,
      "comes": 1844,
      "gged": 1845,
      "shield": 1846,
      "inte": 1847,
      "ued": 1848,
      "Ge": 1849,
      "Nev": 1850,
      "ending": 1851,
      "whose": 1852,
      "threw": 1853,
      "Py": 1854,
      "Lup": 1855,
      "five": 1856,
      "bers": 1857,
      "Lupin": 1858,
      "Perhaps": 1859,
      "Mc": 1860,
      "Str": 1861,
      "present": 1862,
      "Ring": 1863,
      "brothers": 1864,
      "stream": 1865,
      "hot": 1866,
      "guards": 1867,
      "fr": 1868,
      "len": 1869,
      "reach": 1870,
      "pointed": 1871,
      "ards": 1872,
      "feeling": 1873,
      "Elves": 1874,
      "gn": 1875,
      "moving": 1876,
      "tions": 1877,
      "sorce": 1878,
      "bloody": 1879,
      "Gim": 1880,
      "stones": 1881,
      "Master": 1882,
      "walk": 1883,
      "Pet": 1884,
      "doors": 1885,
      "iful": 1886,
      "ahead": 1887,
      "mid": 1888,
      "tower": 1889,
      "Neville": 1890,
      "ph": 1891,
      "staring": 1892,
      "agg": 1893,
      "quietly": 1894,
      "sons": 1895,
      "iny": 1896,
      "arri": 1897,
      "lied": 1898,
      "lords": 1899,
      "trouble": 1900,
      "aste": 1901,
      "whether": 1902,
      "Gimli": 1903,
      "mark": 1904,
      "watching": 1905,
      "thinking": 1906,
      "mine": 1907,
      "often": 1908,
      "cept": 1909,
      "num": 1910,
      "company": 1911,
      "Snow": 1912,
      "Look": 1913,
      "tory": 1914,
      "chool": 1915,
      "George": 1916,
      "char": 1917,
      "cru": 1918,
      "creature": 1919,
      "finally": 1920,
      "captain": 1921,
      "House": 1922,
      "carry": 1923,
      "tro": 1924,
      "zz": 1925,
      "thered": 1926,
      "burned": 1927,
      "Ginny": 1928,
      "ute": 1929,
      "drink": 1930,
      "cking": 1931,
      "cks": 1932,
      "umped": 1933,
      "mly": 1934,
      "sort": 1935,
      "interest": 1936,
      "Theon": 1937,
      "hir": 1938,
      "teen": 1939,
      "different": 1940,
      "hidden": 1941,
      "sadd": 1942,
      "simp": 1943,
      "forth": 1944,
      "Tower": 1945,
      "lifted": 1946,
      "Death": 1947,
      "reg": 1948,
      "blow": 1949,
      "laid": 1950,
      "maid": 1951,
      "shadows": 1952,
      "isn": 1953,
      "High": 1954,
      "seven": 1955,
      "worth": 1956,
      "Mountain": 1957,
      "aded": 1958,
      "brown": 1959,
      "iced": 1960,
      "ries": 1961,
      "antly": 1962,
      "Kings": 1963,
      "cs": 1964,
      "hills": 1965,
      "Hall": 1966,
      "iff": 1967,
      "ular": 1968,
      "phe": 1969,
      "sir": 1970,
      "oul": 1971,
      "forgotten": 1972,
      "swift": 1973,
      "Lu": 1974,
      "wondered": 1975,
      "emer": 1976,
      "ram": 1977,
      "hide": 1978,
      "aled": 1979,
      "glad": 1980,
      "mad": 1981,
      "pair": 1982,
      "Br": 1983,
      "kno": 1984,
      "school": 1985,
      "turning": 1986,
      "knights": 1987,
      "order": 1988,
      "raven": 1989,
      "leaves": 1990,
      "shut": 1991,
      "Prince": 1992,
      "fu": 1993,
      "wra": 1994,
      "stared": 1995,
      "holding": 1996,
      "McGon": 1997,
      "hood": 1998,
      "agall": 1999,
      "faces": 2000,
      "possible": 2001,
      "McGonagall": 2002,
      "ired": 2003,
      "vill": 2004,
      "ittle": 2005,
      "ding": 2006,
      "ib": 2007,
      "smoke": 2008,
      "Sa": 2009,
      "Tell": 2010,
      "peace": 2011,
      "compan": 2012,
      "loved": 2013,
      "hart": 2014,
      "doesn": 2015,
      "Land": 2016,
      "Brienne": 2017,
      "Di": 2018,
      "maybe": 2019,
      "fic": 2020,
      "ets": 2021,
      "sold": 2022,
      "Mad": 2023,
      "shoulders": 2024,
      "sus": 2025,
      "aru": 2026,
      "ships": 2027,
      "stars": 2028,
      "pray": 2029,
      "woods": 2030,
      "smell": 2031,
      "Pe": 2032,
      "fright": 2033,
      "stairs": 2034,
      "secret": 2035,
      "sque": 2036,
      "sever": 2037,
      "oc": 2038,
      "Um": 2039,
      "ub": 2040,
      "voices": 2041,
      "deal": 2042,
      "ues": 2043,
      "stud": 2044,
      "fat": 2045,
      "—”": 2046,
      "crown": 2047,
      "fit": 2048,
      "haven": 2049,
      "become": 2050,
      "por": 2051,
      "rer": 2052,
      "dragons": 2053,
      "Have": 2054,
      "kni": 2055,
      "stup": 2056,
      "cas": 2057,
      "knees": 2058,
      "fain": 2059,
      "golas": 2060,
      "Three": 2061,
      "changed": 2062,
      "bann": 2063,
      "human": 2064,
      "sub": 2065,
      "Wh": 2066,
      "slo": 2067,
      "common": 2068,
      "count": 2069,
      "stret": 2070,
      "several": 2071,
      "Tywin": 2072,
      "Legolas": 2073,
      "yal": 2074,
      "alive": 2075,
      "twi": 2076,
      "Gry": 2077,
      "fif": 2078,
      "wet": 2079,
      "change": 2080,
      "Davos": 2081,
      "amir": 2082,
      "seems": 2083,
      "Gryff": 2084,
      "journey": 2085,
      "oned": 2086,
      "Gryffind": 2087,
      "nodded": 2088,
      "climbed": 2089,
      "bag": 2090,
      "wing": 2091,
      "cover": 2092,
      "inking": 2093,
      "dear": 2094,
      "falling": 2095,
      "awn": 2096,
      "further": 2097,
      "sna": 2098,
      "une": 2099,
      "fect": 2100,
      "zing": 2101,
      "worse": 2102,
      "news": 2103,
      "stor": 2104,
      "third": 2105,
      "bound": 2106,
      "sear": 2107,
      "asts": 2108,
      "town": 2109,
      "non": 2110,
      "anks": 2111,
      "beat": 2112,
      "fig": 2113,
      "spear": 2114,
      "leather": 2115,
      "stupid": 2116,
      "remind": 2117,
      "io": 2118,
      "kings": 2119,
      "everyone": 2120,
      "tail": 2121,
      "continued": 2122,
      "Shire": 2123,
      "**": 2124,
      "Ver": 2125,
      "whom": 2126,
      "mus": 2127,
      "ew": 2128,
      "rank": 2129,
      "White": 2130,
      "Val": 2131,
      "gall": 2132,
      "reason": 2133,
      "oody": 2134,
      "stepped": 2135,
      "wenty": 2136,
      "corner": 2137,
      "Ly": 2138,
      "Two": 2139,
      "uncle": 2140,
      "blind": 2141,
      "comple": 2142,
      "Sly": 2143,
      "having": 2144,
      "fighting": 2145,
      "reed": 2146,
      "Sm": 2147,
      "tive": 2148,
      "burning": 2149,
      "repeated": 2150,
      "evening": 2151,
      "attack": 2152,
      "Sep": 2153,
      "serve": 2154,
      "fact": 2155,
      "living": 2156,
      "beautiful": 2157,
      "cli": 2158,
      "Tar": 2159,
      "pushed": 2160,
      "thor": 2161,
      "fine": 2162,
      "grown": 2163,
      "yellow": 2164,
      "Sh": 2165,
      "Their": 2166,
      "oney": 2167,
      "gue": 2168,
      "entered": 2169,
      "closer": 2170,
      "Little": 2171,
      "burst": 2172,
      "slightly": 2173,
      "lic": 2174,
      "dozen": 2175,
      "forget": 2176,
      "ike": 2177,
      "bent": 2178,
      "noticed": 2179,
      "abbed": 2180,
      "Umbridge": 2181,
      "tors": 2182,
      "honor": 2183,
      "saddle": 2184,
      "Seven": 2185,
      "eks": 2186,
      "rat": 2187,
      "bran": 2188,
      "girls": 2189,
      "learned": 2190,
      "mir": 2191,
      "trem": 2192,
      "softly": 2193,
      "rolled": 2194,
      "boys": 2195,
      "poor": 2196,
      "person": 2197,
      "gle": 2198,
      "eri": 2199,
      "Ex": 2200,
      "Su": 2201,
      "rist": 2202,
      "robes": 2203,
      "prince": 2204,
      "Ke": 2205,
      "Var": 2206,
      "lings": 2207,
      "Ae": 2208,
      "arer": 2209,
      "mil": 2210,
      "exc": 2211,
      "sick": 2212,
      "sca": 2213,
      "clothe": 2214,
      "Can": 2215,
      "ame": 2216,
      "tent": 2217,
      "bank": 2218,
      "echo": 2219,
      "gent": 2220,
      "tun": 2221,
      "seat": 2222,
      "court": 2223,
      "sorry": 2224,
      "ures": 2225,
      "vanished": 2226,
      "eag": 2227,
      "needed": 2228,
      "ushing": 2229,
      "ili": 2230,
      "noise": 2231,
      "leaving": 2232,
      "Very": 2233,
      "du": 2234,
      "vic": 2235,
      "orrow": 2236,
      "istry": 2237,
      "Hand": 2238,
      "import": 2239,
      "diffic": 2240,
      "bast": 2241,
      "gon": 2242,
      "ying": 2243,
      "deser": 2244,
      "uron": 2245,
      "tears": 2246,
      "neither": 2247,
      "Uncle": 2248,
      "Ministry": 2249,
      "aven": 2250,
      "Mord": 2251,
      "Ren": 2252,
      "shri": 2253,
      "prin": 2254,
      "letter": 2255,
      "sense": 2256,
      "bably": 2257,
      "during": 2258,
      "ret": 2259,
      "wear": 2260,
      "imag": 2261,
      "Because": 2262,
      "Gryffindor": 2263,
      "pen": 2264,
      "grand": 2265,
      "glass": 2266,
      "loudly": 2267,
      "Faramir": 2268,
      "Sha": 2269,
      "writ": 2270,
      "climb": 2271,
      "touch": 2272,
      "mas": 2273,
      "iders": 2274,
      "chamber": 2275,
      "added": 2276,
      "throw": 2277,
      "axe": 2278,
      "gor": 2279,
      "harm": 2280,
      "Night": 2281,
      "camp": 2282,
      "stuff": 2283,
      "angry": 2284,
      "glanced": 2285,
      "crossed": 2286,
      "Mil": 2287,
      "force": 2288,
      "ball": 2289,
      "luck": 2290,
      "roof": 2291,
      "mont": 2292,
      "gates": 2293,
      "tw": 2294,
      "rising": 2295,
      "supposed": 2296,
      "Com": 2297,
      "Half": 2298,
      "idea": 2299,
      "stern": 2300,
      "cket": 2301,
      "ilt": 2302,
      "bowed": 2303,
      "Yeah": 2304,
      "medi": 2305,
      "flames": 2306,
      "Ca": 2307,
      "spread": 2308,
      "waited": 2309,
      "means": 2310,
      "ming": 2311,
      "…”": 2312,
      "instead": 2313,
      "fered": 2314,
      "using": 2315,
      "bottom": 2316,
      "named": 2317,
      "orders": 2318,
      "slipped": 2319,
      "yours": 2320,
      "Once": 2321,
      "realized": 2322,
      "listening": 2323,
      "usual": 2324,
      "served": 2325,
      "crack": 2326,
      "gif": 2327,
      "ased": 2328,
      "limp": 2329,
      "ility": 2330,
      "memory": 2331,
      "North": 2332,
      "inst": 2333,
      "escape": 2334,
      "valley": 2335,
      "ondor": 2336,
      "Myr": 2337,
      "spot": 2338,
      "kin": 2339,
      "hobbit": 2340,
      "riding": 2341,
      "twenty": 2342,
      "ati": 2343,
      "stir": 2344,
      "dev": 2345,
      "maester": 2346,
      "yelled": 2347,
      "sighed": 2348,
      "aning": 2349,
      "cand": 2350,
      "acher": 2351,
      "concer": 2352,
      "wants": 2353,
      "ashing": 2354,
      "clut": 2355,
      "story": 2356,
      "walking": 2357,
      "Gri": 2358,
      "Saru": 2359,
      "lease": 2360,
      "sad": 2361,
      "acc": 2362,
      "els": 2363,
      "Saruman": 2364,
      "pal": 2365,
      "weak": 2366,
      "carried": 2367,
      "terrible": 2368,
      "Que": 2369,
      "dam": 2370,
      "weap": 2371,
      "omir": 2372,
      "growing": 2373,
      "dare": 2374,
      "ingly": 2375,
      "mies": 2376,
      "gas": 2377,
      "kit": 2378,
      "wag": 2379,
      "ths": 2380,
      "shaking": 2381,
      "rac": 2382,
      "leep": 2383,
      "finished": 2384,
      "pleased": 2385,
      "Boromir": 2386,
      "clothes": 2387,
      "rell": 2388,
      "dom": 2389,
      "quire": 2390,
      "TH": 2391,
      "Tho": 2392,
      "opp": 2393,
      "spect": 2394,
      "appear": 2395,
      "Gondor": 2396,
      "Watch": 2397,
      "oured": 2398,
      "strugg": 2399,
      "flat": 2400,
      "Cha": 2401,
      "Bal": 2402,
      "ached": 2403,
      "liked": 2404,
      "ric": 2405,
      "build": 2406,
      "Orcs": 2407,
      "Maybe": 2408,
      "fun": 2409,
      "Whi": 2410,
      "fled": 2411,
      "wolves": 2412,
      "Before": 2413,
      "shot": 2414,
      "anci": 2415,
      "ention": 2416,
      "sy": 2417,
      "inc": 2418,
      "choice": 2419,
      "dangerous": 2420,
      "sell": 2421,
      "join": 2422,
      "flew": 2423,
      "learn": 2424,
      "bones": 2425,
      "feast": 2426,
      "Magic": 2427,
      "wearing": 2428,
      "promised": 2429,
      "bas": 2430,
      "telling": 2431,
      "knife": 2432,
      "Drag": 2433,
      "boo": 2434,
      "jumped": 2435,
      "looks": 2436,
      "screamed": 2437,
      "bby": 2438,
      "flesh": 2439,
      "Renly": 2440,
      "gain": 2441,
      "ually": 2442,
      "places": 2443,
      "pool": 2444,
      "priest": 2445,
      "easy": 2446,
      "today": 2447,
      "lived": 2448,
      "bbed": 2449,
      "tar": 2450,
      "fold": 2451,
      "test": 2452,
      "elves": 2453,
      "West": 2454,
      "eping": 2455,
      "Nothing": 2456,
      "lessly": 2457,
      "dress": 2458,
      "hardly": 2459,
      "names": 2460,
      "decided": 2461,
      "complete": 2462,
      "ref": 2463,
      "plan": 2464,
      "touched": 2465,
      "Long": 2466,
      "probably": 2467,
      "tale": 2468,
      "yard": 2469,
      "wooden": 2470,
      "cloaks": 2471,
      "mail": 2472,
      "listen": 2473,
      "thy": 2474,
      "hours": 2475,
      "dread": 2476,
      "wings": 2477,
      "xed": 2478,
      "reck": 2479,
      "exam": 2480,
      "sive": 2481,
      "reco": 2482,
      "agger": 2483,
      "suppose": 2484,
      "Er": 2485,
      "ooth": 2486,
      "business": 2487,
      "Landing": 2488,
      "eve": 2489,
      "ouch": 2490,
      "windows": 2491,
      "Mel": 2492,
      "Mugg": 2493,
      "sel": 2494,
      "belly": 2495,
      "miss": 2496,
      "wisted": 2497,
      "glow": 2498,
      "lake": 2499,
      "apart": 2500,
      "dwarves": 2501,
      "These": 2502,
      "Jor": 2503,
      "snor": 2504,
      "itself": 2505,
      "corrid": 2506,
      "Mormont": 2507,
      "Milva": 2508,
      "loo": 2509,
      "asses": 2510,
      "hadn": 2511,
      "dropped": 2512,
      "Take": 2513,
      "ele": 2514,
      "office": 2515,
      "sand": 2516,
      "bell": 2517,
      "fied": 2518,
      "Dro": 2519,
      "gs": 2520,
      "twisted": 2521,
      "spell": 2522,
      "class": 2523,
      "chain": 2524,
      "whisper": 2525,
      "Keep": 2526,
      "mare": 2527,
      "pit": 2528,
      "managed": 2529,
      "shape": 2530,
      "dawn": 2531,
      "heal": 2532,
      "realm": 2533,
      "craw": 2534,
      "isted": 2535,
      "ition": 2536,
      "Vernon": 2537,
      "catch": 2538,
      "fought": 2539,
      "passa": 2540,
      "ense": 2541,
      "tired": 2542,
      "Bro": 2543,
      "stu": 2544,
      "haired": 2545,
      "hole": 2546,
      "giving": 2547,
      "tray": 2548,
      "--\"": 2549,
      "hurry": 2550,
      "mediately": 2551,
      "han": 2552,
      "nice": 2553,
      "riders": 2554,
      "Comp": 2555,
      "Shad": 2556,
      "plo": 2557,
      "tled": 2558,
      "quar": 2559,
      "expect": 2560,
      "smiling": 2561,
      "armor": 2562,
      "expected": 2563,
      "mal": 2564,
      "woke": 2565,
      "struck": 2566,
      "proud": 2567,
      "important": 2568,
      "rough": 2569,
      "rust": 2570,
      "ouses": 2571,
      "family": 2572,
      "Edd": 2573,
      "cab": 2574,
      "lan": 2575,
      "ends": 2576,
      "threat": 2577,
      "fresh": 2578,
      "East": 2579,
      "Sl": 2580,
      "Tris": 2581,
      "shining": 2582,
      "nearly": 2583,
      "bastard": 2584,
      "Hor": 2585,
      "Moody": 2586,
      "avo": 2587,
      "ident": 2588,
      "pose": 2589,
      "cious": 2590,
      "single": 2591,
      "happy": 2592,
      "Any": 2593,
      "scream": 2594,
      "Father": 2595,
      "grave": 2596,
      "showed": 2597,
      "books": 2598,
      "Em": 2599,
      "inted": 2600,
      "oup": 2601,
      "erce": 2602,
      "laughter": 2603,
      "grim": 2604,
      "cei": 2605,
      "corp": 2606,
      "Get": 2607,
      "sug": 2608,
      "ler": 2609,
      "army": 2610,
      "broad": 2611,
      "aff": 2612,
      "surround": 2613,
      "suggest": 2614,
      "ech": 2615,
      "parch": 2616,
      "bird": 2617,
      "pretty": 2618,
      "storm": 2619,
      "ER": 2620,
      "eed": 2621,
      "allowed": 2622,
      "replied": 2623,
      "Thor": 2624,
      "pack": 2625,
      "atur": 2626,
      "demand": 2627,
      "az": 2628,
      "blo": 2629,
      "omer": 2630,
      "Other": 2631,
      "spir": 2632,
      "helm": 2633,
      "bitter": 2634,
      "hurried": 2635,
      "Fir": 2636,
      "adv": 2637,
      "pressed": 2638,
      "kitche": 2639,
      "yed": 2640,
      "aters": 2641,
      "inned": 2642,
      "passing": 2643,
      "joined": 2644,
      "interrup": 2645,
      "express": 2646,
      "arrows": 2647,
      "claim": 2648,
      "tonight": 2649,
      "Those": 2650,
      "leaned": 2651,
      "middle": 2652,
      "horri": 2653,
      "ign": 2654,
      "chief": 2655,
      "village": 2656,
      "Slyther": 2657,
      "cous": 2658,
      "taste": 2659,
      "ities": 2660,
      "seized": 2661,
      "unless": 2662,
      "spit": 2663,
      "nel": 2664,
      "whatever": 2665,
      "recogn": 2666,
      "yr": 2667,
      "Dobby": 2668,
      "Con": 2669,
      "Wald": 2670,
      "yle": 2671,
      "agreed": 2672,
      "spring": 2673,
      "mounted": 2674,
      "Sauron": 2675,
      "asleep": 2676,
      "ours": 2677,
      "fav": 2678,
      "sounded": 2679,
      "Strider": 2680,
      "ancient": 2681,
      "Jorah": 2682,
      "Dud": 2683,
      "Eld": 2684,
      "cil": 2685,
      "dir": 2686,
      "dun": 2687,
      "det": 2688,
      "gra": 2689,
      "except": 2690,
      "clean": 2691,
      "bread": 2692,
      "Mordor": 2693,
      "Gate": 2694,
      "Would": 2695,
      "gathered": 2696,
      "Fudge": 2697,
      "reve": 2698,
      "unders": 2699,
      "country": 2700,
      "Iron": 2701,
      "sail": 2702,
      "fires": 2703,
      "pun": 2704,
      "happen": 2705,
      "surprised": 2706,
      "Ste": 2707,
      "vin": 2708,
      "boat": 2709,
      "ully": 2710,
      "claw": 2711,
      "parchment": 2712,
      "board": 2713,
      "immediately": 2714,
      "gging": 2715,
      "circ": 2716,
      "hus": 2717,
      "hesit": 2718,
      "garden": 2719,
      "dest": 2720,
      "destro": 2721,
      "First": 2722,
      "Bag": 2723,
      "flying": 2724,
      "swall": 2725,
      "cts": 2726,
      "kis": 2727,
      "throne": 2728,
      "mitted": 2729,
      "Queen": 2730,
      "lives": 2731,
      "lose": 2732,
      "shru": 2733,
      "seeing": 2734,
      "sometimes": 2735,
      "Pro": 2736,
      "rot": 2737,
      "tales": 2738,
      "distance": 2739,
      "weight": 2740,
      "Hodor": 2741,
      "laughing": 2742,
      "frightened": 2743,
      "stretched": 2744,
      "erly": 2745,
      "trac": 2746,
      "Dur": 2747,
      "dust": 2748,
      "forced": 2749,
      "Ah": 2750,
      "brave": 2751,
      "witch": 2752,
      "service": 2753,
      "anx": 2754,
      "noble": 2755,
      "wizards": 2756,
      "oden": 2757,
      "rond": 2758,
      "erys": 2759,
      "Though": 2760,
      "Elrond": 2761,
      "Lor": 2762,
      "kets": 2763,
      "older": 2764,
      "breast": 2765,
      "commanded": 2766,
      "clearly": 2767,
      "Bra": 2768,
      "Out": 2769,
      "picked": 2770,
      "vol": 2771,
      "urious": 2772,
      "cep": 2773,
      "gobl": 2774,
      "trave": 2775,
      "dreams": 2776,
      "towers": 2777,
      "End": 2778,
      "Mother": 2779,
      "attered": 2780,
      "armed": 2781,
      "stiff": 2782,
      "pointing": 2783,
      "Bel": 2784,
      "eight": 2785,
      "thrust": 2786,
      "singing": 2787,
      "sooner": 2788,
      "arrived": 2789,
      "meat": 2790,
      "sept": 2791,
      "aware": 2792,
      "drawn": 2793,
      "snapped": 2794,
      "Please": 2795,
      "gently": 2796,
      "noon": 2797,
      "bore": 2798,
      "roared": 2799,
      "utes": 2800,
      "early": 2801,
      "Tre": 2802,
      "ummer": 2803,
      "likely": 2804,
      "spr": 2805,
      "circle": 2806,
      "Triss": 2807,
      "surprise": 2808,
      "City": 2809,
      "cou": 2810,
      "ising": 2811,
      "attemp": 2812,
      "Worm": 2813,
      "posit": 2814,
      "bbing": 2815,
      "view": 2816,
      "summer": 2817,
      "leag": 2818,
      "ham": 2819,
      "dressed": 2820,
      "Dudley": 2821,
      "Fe": 2822,
      "prep": 2823,
      "speed": 2824,
      "helped": 2825,
      "py": 2826,
      "inner": 2827,
      "rance": 2828,
      "enemy": 2829,
      "magical": 2830,
      "Bolt": 2831,
      "branches": 2832,
      "Shadow": 2833,
      "drun": 2834,
      "imed": 2835,
      "gentle": 2836,
      "Never": 2837,
      "desper": 2838,
      "ize": 2839,
      "idditch": 2840,
      "built": 2841,
      "distant": 2842,
      "reminded": 2843,
      "Was": 2844,
      "oh": 2845,
      "ances": 2846,
      "fierce": 2847,
      "Quidditch": 2848,
      "actly": 2849,
      "husband": 2850,
      "makes": 2851,
      "hell": 2852,
      "birds": 2853,
      "More": 2854,
      "Sil": 2855,
      "anyway": 2856,
      "miles": 2857,
      "Sea": 2858,
      "hanging": 2859,
      "Varys": 2860,
      "Eye": 2861,
      "thi": 2862,
      "owl": 2863,
      "shouting": 2864,
      "sprang": 2865,
      "thank": 2866,
      "understood": 2867,
      "dagger": 2868,
      "slid": 2869,
      "Slugh": 2870,
      "ancing": 2871,
      "belt": 2872,
      "handed": 2873,
      "proper": 2874,
      "monster": 2875,
      "Reg": 2876,
      "Ed": 2877,
      "bly": 2878,
      "pill": 2879,
      "arse": 2880,
      "broom": 2881,
      "dying": 2882,
      "following": 2883,
      "knee": 2884,
      "truly": 2885,
      "placed": 2886,
      "piece": 2887,
      "Ang": 2888,
      "Bill": 2889,
      "offered": 2890,
      "enter": 2891,
      "Tommen": 2892,
      "game": 2893,
      "speaking": 2894,
      "needs": 2895,
      "leading": 2896,
      "snorted": 2897,
      "iers": 2898,
      "Slughorn": 2899,
      "Ch": 2900,
      "odd": 2901,
      "poison": 2902,
      "grabbed": 2903,
      "Rohan": 2904,
      "survi": 2905,
      "faced": 2906,
      "Percy": 2907,
      "sorcerer": 2908,
      "Spe": 2909,
      "flame": 2910,
      "length": 2911,
      "Many": 2912,
      "Our": 2913,
      "main": 2914,
      "arewell": 2915,
      "enemies": 2916,
      "Vis": 2917,
      "mention": 2918,
      "giant": 2919,
      "Something": 2920,
      "wedding": 2921,
      "Imp": 2922,
      "Ske": 2923,
      "lli": 2924,
      "somehow": 2925,
      "ka": 2926,
      "tiny": 2927,
      "var": 2928,
      "heir": 2929,
      "ads": 2930,
      "rise": 2931,
      "uch": 2932,
      "hig": 2933,
      "umn": 2934,
      "cheek": 2935,
      "paid": 2936,
      "See": 2937,
      "ristan": 2938,
      "passage": 2939,
      "fal": 2940,
      "belong": 2941,
      "carefully": 2942,
      "Gal": 2943,
      "Pen": 2944,
      "gather": 2945,
      "waters": 2946,
      "dut": 2947,
      "stable": 2948,
      "illy": 2949,
      "dies": 2950,
      "prac": 2951,
      "ridge": 2952,
      "Bolton": 2953,
      "fly": 2954,
      "ists": 2955,
      "somewhere": 2956,
      "number": 2957,
      "gift": 2958,
      "Still": 2959,
      "Tree": 2960,
      "Und": 2961,
      "ades": 2962,
      "speci": 2963,
      "faint": 2964,
      "twice": 2965,
      "bone": 2966,
      "hoo": 2967,
      "udd": 2968,
      "fellow": 2969,
      "cons": 2970,
      "egg": 2971,
      "gho": 2972,
      "vering": 2973,
      "key": 2974,
      "thern": 2975,
      "Barristan": 2976,
      "clouds": 2977,
      "wished": 2978,
      "winter": 2979,
      "ids": 2980,
      "unted": 2981,
      "suff": 2982,
      "swung": 2983,
      "hiding": 2984,
      "betray": 2985,
      "desire": 2986,
      "visible": 2987,
      "birth": 2988,
      "Riverrun": 2989,
      "Dragon": 2990,
      "Am": 2991,
      "formed": 2992,
      "fli": 2993,
      "warned": 2994,
      "stru": 2995,
      "aching": 2996,
      "goes": 2997,
      "asty": 2998,
      "ical": 2999,
      "Company": 3000,
      "cro": 3001,
      "eves": 3002,
      "abb": 3003,
      "...’": 3004,
      "Thank": 3005,
      "simply": 3006,
      "Sudden": 3007,
      "Sun": 3008,
      "ile": 3009,
      "train": 3010,
      "direction": 3011,
      "houses": 3012,
      "weary": 3013,
      "pink": 3014,
      "una": 3015,
      "comfor": 3016,
      "rule": 3017,
      "younger": 3018,
      "hungry": 3019,
      "athed": 3020,
      "welcome": 3021,
      "aly": 3022,
      "mag": 3023,
      "amongst": 3024,
      "certainly": 3025,
      "ceived": 3026,
      "Bron": 3027,
      "Frey": 3028,
      "yeh": 3029,
      "leapt": 3030,
      "ded": 3031,
      "plained": 3032,
      "Suddenly": 3033,
      "jer": 3034,
      "rian": 3035,
      "tied": 3036,
      "thoughts": 3037,
      "peril": 3038,
      "march": 3039,
      "pulling": 3040,
      "minutes": 3041,
      "relie": 3042,
      "smooth": 3043,
      "Tyrell": 3044,
      "visit": 3045,
      "Isen": 3046,
      "cting": 3047,
      "ture": 3048,
      "incl": 3049,
      "inform": 3050,
      "mere": 3051,
      "spat": 3052,
      "ield": 3053,
      "hollow": 3054,
      "tern": 3055,
      "prison": 3056,
      "servants": 3057,
      "cool": 3058,
      "ki": 3059,
      "suc": 3060,
      "messa": 3061,
      "Riders": 3062,
      "cook": 3063,
      "naked": 3064,
      "staff": 3065,
      "dim": 3066,
      "difficult": 3067,
      "boots": 3068,
      "wen": 3069,
      "Wester": 3070,
      "slept": 3071,
      "questions": 3072,
      "Fin": 3073,
      "Fore": 3074,
      "THE": 3075,
      "interrupted": 3076,
      "wake": 3077,
      "—’": 3078,
      "ises": 3079,
      "hili": 3080,
      "eyed": 3081,
      "ounced": 3082,
      "played": 3083,
      "banner": 3084,
      "Mag": 3085,
      "mud": 3086,
      "trick": 3087,
      "ON": 3088,
      "pin": 3089,
      "deli": 3090,
      "rocks": 3091,
      "ject": 3092,
      "swiftly": 3093,
      "students": 3094,
      "Ind": 3095,
      "del": 3096,
      "usk": 3097,
      "silk": 3098,
      "corridor": 3099,
      "None": 3100,
      "stoo": 3101,
      "aced": 3102,
      "agree": 3103,
      "god": 3104,
      "Wood": 3105,
      "pick": 3106,
      "sne": 3107,
      "pol": 3108,
      "plate": 3109,
      "spent": 3110,
      "sounds": 3111,
      "listened": 3112,
      "Meere": 3113,
      "suspic": 3114,
      "counsel": 3115,
      "spoken": 3116,
      "swear": 3117,
      "rio": 3118,
      "ceiling": 3119,
      "hoped": 3120,
      "lowered": 3121,
      "courage": 3122,
      "match": 3123,
      "shore": 3124,
      "heavi": 3125,
      "Arry": 3126,
      "pleasant": 3127,
      "rily": 3128,
      "motion": 3129,
      "ledge": 3130,
      "surely": 3131,
      "defend": 3132,
      "wrapped": 3133,
      "kitchen": 3134,
      "stal": 3135,
      "entrance": 3136,
      "coat": 3137,
      "beginning": 3138,
      "cliff": 3139,
      "expression": 3140,
      "dwell": 3141,
      "rec": 3142,
      "thra": 3143,
      "worry": 3144,
      "aper": 3145,
      "steep": 3146,
      "Stone": 3147,
      "fields": 3148,
      "escaped": 3149,
      "ese": 3150,
      "resp": 3151,
      "arch": 3152,
      "gallop": 3153,
      "Cap": 3154,
      "fist": 3155,
      "pet": 3156,
      "entire": 3157,
      "mighty": 3158,
      "barely": 3159,
      "Dwar": 3160,
      "mach": 3161,
      "tur": 3162,
      "beast": 3163,
      "wash": 3164,
      "attention": 3165,
      "Most": 3166,
      "Brand": 3167,
      "stag": 3168,
      "aces": 3169,
      "pper": 3170,
      "calling": 3171,
      "promise": 3172,
      "spears": 3173,
      "soldiers": 3174,
      "pan": 3175,
      "hissed": 3176,
      "doms": 3177,
      "nerv": 3178,
      "Chi": 3179,
      "Jo": 3180,
      "sides": 3181,
      "tt": 3182,
      "refle": 3183,
      "cursed": 3184,
      "wondering": 3185,
      "dogs": 3186,
      "Ber": 3187,
      "Know": 3188,
      "poet": 3189,
      "torch": 3190,
      "opening": 3191,
      "purple": 3192,
      "Madam": 3193,
      "Cint": 3194,
      "Hound": 3195,
      "glimp": 3196,
      "suit": 3197,
      "cheeks": 3198,
      "slain": 3199,
      "claimed": 3200,
      "loose": 3201,
      "puff": 3202,
      "utter": 3203,
      "hearts": 3204,
      "ugly": 3205,
      "swept": 3206,
      "drawing": 3207,
      "Cahir": 3208,
      "completely": 3209,
      "gener": 3210,
      "thrown": 3211,
      "Dothra": 3212,
      "cruel": 3213,
      "Fire": 3214,
      "Gu": 3215,
      "ime": 3216,
      "saved": 3217,
      "feared": 3218,
      "strang": 3219,
      "crept": 3220,
      "carrying": 3221,
      "Eaters": 3222,
      "sters": 3223,
      "lower": 3224,
      "Ced": 3225,
      "wy": 3226,
      "allow": 3227,
      "desc": 3228,
      "cra": 3229,
      "task": 3230,
      "thed": 3231,
      "blan": 3232,
      "scent": 3233,
      "Cintra": 3234,
      "kicked": 3235,
      "mel": 3236,
      "playing": 3237,
      "Eddard": 3238,
      "Bon": 3239,
      "exactly": 3240,
      "keeping": 3241,
      "double": 3242,
      "cow": 3243,
      "comfort": 3244,
      "Walder": 3245,
      "Ha": 3246,
      "athing": 3247,
      "bark": 3248,
      "shone": 3249,
      "blew": 3250,
      "lights": 3251,
      "snake": 3252,
      "Chap": 3253,
      "Asha": 3254,
      "hr": 3255,
      "dell": 3256,
      "ordin": 3257,
      "torm": 3258,
      "Slytherin": 3259,
      "Give": 3260,
      "fas": 3261,
      "ilion": 3262,
      "Aemon": 3263,
      "Indeed": 3264,
      "bal": 3265,
      "thunder": 3266,
      "ays": 3267,
      "term": 3268,
      "geon": 3269,
      "offer": 3270,
      "fifty": 3271,
      "Like": 3272,
      "Luna": 3273,
      "ient": 3274,
      "terror": 3275,
      "pot": 3276,
      "clad": 3277,
      "sharply": 3278,
      "Muggle": 3279,
      "drank": 3280,
      "atter": 3281,
      "team": 3282,
      "track": 3283,
      "disappeared": 3284,
      "Does": 3285,
      "appo": 3286,
      "approached": 3287,
      "Petyr": 3288,
      "Captain": 3289,
      "Clo": 3290,
      "IN": 3291,
      "hum": 3292,
      "asure": 3293,
      "Someone": 3294,
      "pleasure": 3295,
      "Again": 3296,
      "choose": 3297,
      "ilge": 3298,
      "ically": 3299,
      "angu": 3300,
      "risk": 3301,
      "Vilge": 3302,
      "aling": 3303,
      "map": 3304,
      "ading": 3305,
      "fortz": 3306,
      "Mountains": 3307,
      "figure": 3308,
      "Vilgefortz": 3309,
      "Ano": 3310,
      "fting": 3311,
      "tid": 3312,
      "pocket": 3313,
      "sang": 3314,
      "lyn": 3315,
      "asted": 3316,
      "ount": 3317,
      "merch": 3318,
      "ruin": 3319,
      "easily": 3320,
      "wounded": 3321,
      "Lysa": 3322,
      "Another": 3323,
      "rich": 3324,
      "prefer": 3325,
      "slam": 3326,
      "parted": 3327,
      "Ene": 3328,
      "money": 3329,
      "lip": 3330,
      "rider": 3331,
      "Littlefinger": 3332,
      "Command": 3333,
      "Storm": 3334,
      "dared": 3335,
      "jaw": 3336,
      "ishing": 3337,
      "Behind": 3338,
      "guests": 3339,
      "Ab": 3340,
      "natur": 3341,
      "pity": 3342,
      "trunk": 3343,
      "rent": 3344,
      "companions": 3345,
      "Bronn": 3346,
      "Rha": 3347,
      "sour": 3348,
      "grin": 3349,
      "ucked": 3350,
      "Minas": 3351,
      "mistake": 3352,
      "aston": 3353,
      "teacher": 3354,
      "umbling": 3355,
      "carved": 3356,
      "Dandilion": 3357,
      "Aye": 3358,
      "faded": 3359,
      "tone": 3360,
      "era": 3361,
      "rim": 3362,
      "delight": 3363,
      "Crouch": 3364,
      "Drogo": 3365,
      "mess": 3366,
      "Green": 3367,
      "screaming": 3368,
      "***": 3369,
      "milk": 3370,
      "Mance": 3371,
      "South": 3372,
      "Tur": 3373,
      "bra": 3374,
      "ctions": 3375,
      "salt": 3376,
      "weather": 3377,
      "riage": 3378,
      "feather": 3379,
      "explo": 3380,
      "Sn": 3381,
      "wid": 3382,
      "inv": 3383,
      "royal": 3384,
      "box": 3385,
      "waved": 3386,
      "agol": 3387,
      "Harren": 3388,
      "Dorn": 3389,
      "race": 3390,
      "orc": 3391,
      "week": 3392,
      "nearer": 3393,
      "skull": 3394,
      "chers": 3395,
      "reacher": 3396,
      "Yunk": 3397,
      "bath": 3398,
      "pected": 3399,
      "forehead": 3400,
      "tless": 3401,
      "explain": 3402,
      "curse": 3403,
      "square": 3404,
      "drunk": 3405,
      "Meereen": 3406,
      "stuck": 3407,
      "notice": 3408,
      "knowing": 3409,
      "brow": 3410,
      "vious": 3411,
      "Blood": 3412,
      "songs": 3413,
      "simple": 3414,
      "music": 3415,
      "Dornish": 3416,
      "Fil": 3417,
      "wn": 3418,
      "rope": 3419,
      "post": 3420,
      "grief": 3421,
      "crying": 3422,
      "­­\"": 3423,
      "Up": 3424,
      "bree": 3425,
      "enorm": 3426,
      "haz": 3427,
      "ific": 3428,
      "hearing": 3429,
      "ticular": 3430,
      "slaves": 3431,
      "Cedric": 3432,
      "Fle": 3433,
      "HA": 3434,
      "sav": 3435,
      "clam": 3436,
      "Daener": 3437,
      "Enemy": 3438,
      "Daenerys": 3439,
      "Mand": 3440,
      "torn": 3441,
      "Hobb": 3442,
      "knocked": 3443,
      "Ghost": 3444,
      "illa": 3445,
      "greater": 3446,
      "emerged": 3447,
      "weapons": 3448,
      "Forest": 3449,
      "pow": 3450,
      "Head": 3451,
      "bottle": 3452,
      "protect": 3453,
      "sorceress": 3454,
      "Bagg": 3455,
      "Cast": 3456,
      "Had": 3457,
      "Pri": 3458,
      "dra": 3459,
      "stall": 3460,
      "headed": 3461,
      "Soon": 3462,
      "dragged": 3463,
      "Morgo": 3464,
      "Cal": 3465,
      "nine": 3466,
      "sence": 3467,
      "rol": 3468,
      "espe": 3469,
      "wheel": 3470,
      "cracked": 3471,
      "glance": 3472,
      "Moon": 3473,
      "flowers": 3474,
      "Isengard": 3475,
      "Wo": 3476,
      "although": 3477,
      "faith": 3478,
      "surface": 3479,
      "layer": 3480,
      "usually": 3481,
      "guessed": 3482,
      "Horn": 3483,
      "Kreacher": 3484,
      "Summer": 3485,
      "ba": 3486,
      "ians": 3487,
      "kiss": 3488,
      "raise": 3489,
      "stomach": 3490,
      "halted": 3491,
      "Dothraki": 3492,
      "Cor": 3493,
      "ience": 3494,
      "sal": 3495,
      "aband": 3496,
      "seek": 3497,
      "missed": 3498,
      "wildlings": 3499,
      "Morgoth": 3500,
      "Right": 3501,
      "fate": 3502,
      "glit": 3503,
      "sway": 3504,
      "note": 3505,
      "hate": 3506,
      "owning": 3507,
      "mure": 3508,
      "marble": 3509,
      "snar": 3510,
      "purpose": 3511,
      "Lannisters": 3512,
      "welve": 3513,
      "Gold": 3514,
      "Vic": 3515,
      "igg": 3516,
      "swore": 3517,
      "asking": 3518,
      "gaery": 3519,
      "size": 3520,
      "Margaery": 3521,
      "kissed": 3522,
      "shrugged": 3523,
      "Dursle": 3524,
      "gust": 3525,
      "height": 3526,
      "anim": 3527,
      "enjoy": 3528,
      "treat": 3529,
      "council": 3530,
      "meeting": 3531,
      "imagine": 3532,
      "Under": 3533,
      "Bonhart": 3534,
      "glo": 3535,
      "nights": 3536,
      "begin": 3537,
      "member": 3538,
      "evan": 3539,
      "believed": 3540,
      "Nilfgaardian": 3541,
      "princess": 3542,
      "higher": 3543,
      "oak": 3544,
      "worst": 3545,
      "price": 3546,
      "Middle": 3547,
      "worn": 3548,
      "chin": 3549,
      "precious": 3550,
      "roads": 3551,
      "stronger": 3552,
      "mort": 3553,
      "sse": 3554,
      "sem": 3555,
      "tily": 3556,
      "Greyjoy": 3557,
      "leagues": 3558,
      "Pl": 3559,
      "Sor": 3560,
      "Wind": 3561,
      "dep": 3562,
      "decla": 3563,
      "insisted": 3564,
      "summon": 3565,
      "breakfast": 3566,
      "Commander": 3567,
      "especi": 3568,
      "declared": 3569,
      "Elf": 3570,
      "Sir": 3571,
      "ael": 3572,
      "bald": 3573,
      "convers": 3574,
      "lightning": 3575,
      "sweat": 3576,
      "knelt": 3577,
      "creatures": 3578,
      "trembling": 3579,
      "candle": 3580,
      "enormous": 3581,
      "AN": 3582,
      "Light": 3583,
      "lts": 3584,
      "tos": 3585,
      "Hel": 3586,
      "exper": 3587,
      "worked": 3588,
      "failed": 3589,
      "job": 3590,
      "echoed": 3591,
      "Treebeard": 3592,
      "Nim": 3593,
      "gy": 3594,
      "kay": 3595,
      "greet": 3596,
      "rage": 3597,
      "everywhere": 3598,
      "Rock": 3599,
      "written": 3600,
      "reckon": 3601,
      "lst": 3602,
      "vid": 3603,
      "ordered": 3604,
      "nobody": 3605,
      "amps": 3606,
      "desk": 3607,
      "busy": 3608,
      "Valar": 3609,
      "fts": 3610,
      "foul": 3611,
      "pound": 3612,
      "vet": 3613,
      "illed": 3614,
      "ender": 3615,
      "Petun": 3616,
      "Edmure": 3617,
      "Cleg": 3618,
      "OU": 3619,
      "bble": 3620,
      "ial": 3621,
      "vast": 3622,
      "unic": 3623,
      "ama": 3624,
      "loyal": 3625,
      "gras": 3626,
      "gaze": 3627,
      "pier": 3628,
      "street": 3629,
      "murder": 3630,
      "brief": 3631,
      "Kingsguard": 3632,
      "favor": 3633,
      "position": 3634,
      "Cho": 3635,
      "Miss": 3636,
      "jen": 3637,
      "eding": 3638,
      "thus": 3639,
      "spark": 3640,
      "rooms": 3641,
      "trai": 3642,
      "tomorrow": 3643,
      "Barathe": 3644,
      "cousin": 3645,
      "fil": 3646,
      "ix": 3647,
      "washed": 3648,
      "angrily": 3649,
      "cloth": 3650,
      "discus": 3651,
      "champ": 3652,
      "ibility": 3653,
      "search": 3654,
      "Balon": 3655,
      "especially": 3656,
      "Petunia": 3657,
      "Clegane": 3658,
      "Ja": 3659,
      "inno": 3660,
      "mured": 3661,
      "afternoon": 3662,
      "Riddle": 3663,
      "rels": 3664,
      "ague": 3665,
      "hundreds": 3666,
      "murmured": 3667,
      "surrounded": 3668,
      "Aunt": 3669,
      "anno": 3670,
      "coin": 3671,
      "ext": 3672,
      "Gregor": 3673,
      "growled": 3674,
      "tunnel": 3675,
      "tu": 3676,
      "err": 3677,
      "waste": 3678,
      "unch": 3679,
      "ppa": 3680,
      "prophe": 3681,
      "ctly": 3682,
      "taught": 3683,
      "marched": 3684,
      "celle": 3685,
      "frozen": 3686,
      "Pycelle": 3687,
      "clutching": 3688,
      "horrible": 3689,
      "Baratheon": 3690,
      "Four": 3691,
      "Wiz": 3692,
      "ldor": 3693,
      "usion": 3694,
      "careful": 3695,
      "matters": 3696,
      "calmly": 3697,
      "roots": 3698,
      "Regis": 3699,
      "Dene": 3700,
      "pard": 3701,
      "beer": 3702,
      "sie": 3703,
      "cleared": 3704,
      "ggy": 3705,
      "freed": 3706,
      "Denethor": 3707,
      "Hill": 3708,
      "paren": 3709,
      "vir": 3710,
      "hilt": 3711,
      "perfect": 3712,
      "speech": 3713,
      "Kingdoms": 3714,
      "effort": 3715,
      "powerful": 3716,
      "color": 3717,
      "honour": 3718,
      "actually": 3719,
      "pieces": 3720,
      "Chapter": 3721,
      "Harrenhal": 3722,
      "lur": 3723,
      "squire": 3724,
      "arth": 3725,
      "serving": 3726,
      "lines": 3727,
      "arently": 3728,
      "lab": 3729,
      "mered": 3730,
      "mering": 3731,
      "vision": 3732,
      "temple": 3733,
      "Rhae": 3734,
      "Mark": 3735,
      "Ton": 3736,
      "recall": 3737,
      "asy": 3738,
      "ampi": 3739,
      "gloom": 3740,
      "Minister": 3741,
      "Which": 3742,
      "cabin": 3743,
      "Cloak": 3744,
      "Fo": 3745,
      "lor": 3746,
      "uin": 3747,
      "ldom": 3748,
      "roll": 3749,
      "net": 3750,
      "bold": 3751,
      "buy": 3752,
      "particular": 3753,
      "points": 3754,
      "comfortable": 3755,
      "Mir": 3756,
      "Nar": 3757,
      "Phili": 3758,
      "Ram": 3759,
      "defe": 3760,
      "Lock": 3761,
      "strode": 3762,
      "gazed": 3763,
      "cheer": 3764,
      "shir": 3765,
      "flung": 3766,
      "begun": 3767,
      "putting": 3768,
      "attacked": 3769,
      "gasped": 3770,
      "ordinary": 3771,
      "doom": 3772,
      "tice": 3773,
      "curtain": 3774,
      "Melis": 3775,
      "heavily": 3776,
      "Cur": 3777,
      "twelve": 3778,
      "andre": 3779,
      "andor": 3780,
      "aby": 3781,
      "chosen": 3782,
      "swir": 3783,
      "swallowed": 3784,
      "prepared": 3785,
      "consider": 3786,
      "information": 3787,
      "Arryn": 3788,
      "Melisandre": 3789,
      "rate": 3790,
      "posse": 3791,
      "group": 3792,
      "mentors": 3793,
      "lesson": 3794,
      "prove": 3795,
      "banners": 3796,
      "demanded": 3797,
      "Wy": 3798,
      "aid": 3799,
      "bows": 3800,
      "tang": 3801,
      "wiped": 3802,
      "amid": 3803,
      "squee": 3804,
      "Pre": 3805,
      "dance": 3806,
      "jud": 3807,
      "ual": 3808,
      "seldom": 3809,
      "arest": 3810,
      "sheep": 3811,
      "ourn": 3812,
      "chains": 3813,
      "drik": 3814,
      "Rience": 3815,
      "direwolf": 3816,
      "Dorne": 3817,
      "een": 3818,
      "leaning": 3819,
      "bolt": 3820,
      "knowledge": 3821,
      "Noldor": 3822,
      "Road": 3823,
      "Rodrik": 3824,
      "Bell": 3825,
      "queer": 3826,
      "hyr": 3827,
      "dahr": 3828,
      "drove": 3829,
      "frowned": 3830,
      "Philippa": 3831,
      "Man": 3832,
      "necess": 3833,
      "cave": 3834,
      "spun": 3835,
      "share": 3836,
      "flag": 3837,
      "uriously": 3838,
      "dwe": 3839,
      "hid": 3840,
      "jest": 3841,
      "sank": 3842,
      "eng": 3843,
      "ety": 3844,
      "grace": 3845,
      "tidings": 3846,
      "Filch": 3847,
      "EN": 3848,
      "Hiz": 3849,
      "Wor": 3850,
      "kick": 3851,
      "pig": 3852,
      "wool": 3853,
      "warning": 3854,
      "proved": 3855,
      "flash": 3856,
      "keeper": 3857,
      "stayed": 3858,
      "hunting": 3859,
      "dwelt": 3860,
      "Dr": 3861,
      "Sever": 3862,
      "Too": 3863,
      "vampi": 3864,
      "offic": 3865,
      "isting": 3866,
      "Leave": 3867,
      "portra": 3868,
      "remains": 3869,
      "Septon": 3870,
      "Others": 3871,
      "Hizdahr": 3872,
      "Ben": 3873,
      "bite": 3874,
      "fan": 3875,
      "gary": 3876,
      "heat": 3877,
      "troubled": 3878,
      "Targary": 3879,
      "throwing": 3880,
      "dreadful": 3881,
      "yield": 3882,
      "ament": 3883,
      "whilst": 3884,
      "ively": 3885,
      "scarce": 3886,
      "enchant": 3887,
      "Westeros": 3888,
      "Buck": 3889,
      "eling": 3890,
      "crows": 3891,
      "viol": 3892,
      "split": 3893,
      "Small": 3894,
      "ude": 3895,
      "issu": 3896,
      "unuch": 3897,
      "deb": 3898,
      "trans": 3899,
      "Instead": 3900,
      "scared": 3901,
      "duty": 3902,
      "stony": 3903,
      "vern": 3904,
      "bla": 3905,
      "shame": 3906,
      "clever": 3907,
      "uding": 3908,
      "landed": 3909,
      "buried": 3910,
      "fortun": 3911,
      "sion": 3912,
      "eds": 3913,
      "teach": 3914,
      "ishment": 3915,
      "proble": 3916,
      "supper": 3917,
      "eunuch": 3918,
      "flight": 3919,
      "fru": 3920,
      "kins": 3921,
      "stat": 3922,
      "rien": 3923,
      "onest": 3924,
      "caut": 3925,
      "warri": 3926,
      "deeper": 3927,
      "party": 3928,
      "drowned": 3929,
      "strike": 3930,
      "wisdom": 3931,
      "colle": 3932,
      "Emhyr": 3933,
      "message": 3934,
      "Bael": 3935,
      "Fre": 3936,
      "removed": 3937,
      "bellow": 3938,
      "broo": 3939,
      "stories": 3940,
      "smelled": 3941,
      "Luwin": 3942,
      "funny": 3943,
      "conversation": 3944,
      "Bear": 3945,
      "heels": 3946,
      "leaf": 3947,
      "Hey": 3948,
      "weren": 3949,
      "gazing": 3950,
      "parts": 3951,
      "sleeping": 3952,
      "tarion": 3953,
      "Thorin": 3954,
      "false": 3955,
      "Victarion": 3956,
      "parents": 3957,
      "lack": 3958,
      "spur": 3959,
      "streets": 3960,
      "iliar": 3961,
      "Jar": 3962,
      "Knight": 3963,
      "Rick": 3964,
      "holes": 3965,
      "unning": 3966,
      "thanks": 3967,
      "fixed": 3968,
      "mercy": 3969,
      "flashed": 3970,
      "paused": 3971,
      "impress": 3972,
      "kindly": 3973,
      "Fang": 3974,
      "OR": 3975,
      "roar": 3976,
      "brand": 3977,
      "smaller": 3978,
      "larger": 3979,
      "trail": 3980,
      "Reek": 3981,
      "cries": 3982,
      "famous": 3983,
      "tip": 3984,
      "elven": 3985,
      "spells": 3986,
      "breaking": 3987,
      "dreamed": 3988,
      "rubbed": 3989,
      "igno": 3990,
      "rested": 3991,
      "happening": 3992,
      "pile": 3993,
      "tically": 3994,
      "couple": 3995,
      "fra": 3996,
      "jump": 3997,
      "paper": 3998,
      "zn": 3999,
      "locked": 4000,
      "breathing": 4001,
      "settled": 4002,
      "grounds": 4003,
      "confess": 4004,
      "corpse": 4005,
      "kn": 4006,
      "mor": 4007,
      "metal": 4008,
      "bodies": 4009,
      "osite": 4010,
      "calm": 4011,
      "dusk": 4012,
      "oath": 4013,
      "wench": 4014,
      "quill": 4015,
      "thirty": 4016,
      "familiar": 4017,
      "hooves": 4018,
      "vate": 4019,
      "seated": 4020,
      "weir": 4021,
      "shel": 4022,
      "whore": 4023,
      "whir": 4024,
      "letters": 4025,
      "torches": 4026,
      "louder": 4027,
      "suggested": 4028,
      "AR": 4029,
      "Krum": 4030,
      "respect": 4031,
      "eror": 4032,
      "inging": 4033,
      "lem": 4034,
      "Ents": 4035,
      "hesitated": 4036,
      "Loras": 4037,
      "unable": 4038,
      "fet": 4039,
      "thinks": 4040,
      "sunlight": 4041,
      "Dij": 4042,
      "Baggins": 4043,
      "Bet": 4044,
      "Bree": 4045,
      "cart": 4046,
      "kstra": 4047,
      "pour": 4048,
      "rolling": 4049,
      "sack": 4050,
      "itely": 4051,
      "works": 4052,
      "horror": 4053,
      "sniff": 4054,
      "accord": 4055,
      "gan": 4056,
      "rul": 4057,
      "isk": 4058,
      "depart": 4059,
      "conce": 4060,
      "ughters": 4061,
      "Gods": 4062,
      "closely": 4063,
      "interested": 4064,
      "opposite": 4065,
      "Dijkstra": 4066,
      "Hald": 4067,
      "ander": 4068,
      "willing": 4069,
      "Quent": 4070,
      "sworn": 4071,
      "laws": 4072,
      "horns": 4073,
      "Elder": 4074,
      "Ramsay": 4075,
      "Im": 4076,
      "poured": 4077,
      "tted": 4078,
      "vest": 4079,
      "chose": 4080,
      "skir": 4081,
      "drop": 4082,
      "Crab": 4083,
      "tightly": 4084,
      "fury": 4085,
      "wagon": 4086,
      "refused": 4087,
      "fond": 4088,
      "ker": 4089,
      "nasty": 4090,
      "plans": 4091,
      "grinned": 4092,
      "spare": 4093,
      "daughters": 4094,
      "Trelaw": 4095,
      "Lockhart": 4096,
      "idence": 4097,
      "forgive": 4098,
      "anting": 4099,
      "shouldn": 4100,
      "slope": 4101,
      "fashi": 4102,
      "Os": 4103,
      "dull": 4104,
      "ee": 4105,
      "uct": 4106,
      "ashes": 4107,
      "aloud": 4108,
      "shit": 4109,
      "grit": 4110,
      "treme": 4111,
      "coldly": 4112,
      "corre": 4113,
      "pursu": 4114,
      "gathering": 4115,
      "shirt": 4116,
      "Could": 4117,
      "Down": 4118,
      "Ray": 4119,
      "Sk": 4120,
      "bang": 4121,
      "mm": 4122,
      "mbers": 4123,
      "wri": 4124,
      "admitted": 4125,
      "forb": 4126,
      "vendell": 4127,
      "posed": 4128,
      "endry": 4129,
      "ragged": 4130,
      "viously": 4131,
      "sleeve": 4132,
      "falls": 4133,
      "Rivendell": 4134,
      "Meera": 4135,
      "Drac": 4136,
      "Tr": 4137,
      "Vol": 4138,
      "haste": 4139,
      "shat": 4140,
      "wyn": 4141,
      "stumbled": 4142,
      "beak": 4143,
      "lock": 4144,
      "working": 4145,
      "steal": 4146,
      "chill": 4147,
      "irith": 4148,
      "Deep": 4149,
      "weapon": 4150,
      "Fleur": 4151,
      "Trelawney": 4152,
      "Gendry": 4153,
      "Kevan": 4154,
      "Valy": 4155,
      "eating": 4156,
      "galley": 4157,
      "hero": 4158,
      "reward": 4159,
      "oooo": 4160,
      "foes": 4161,
      "scram": 4162,
      "Thr": 4163,
      "Grand": 4164,
      "mount": 4165,
      "marked": 4166,
      "Aegon": 4167,
      "climbing": 4168,
      "Castle": 4169,
      "Wa": 4170,
      "bay": 4171,
      "bel": 4172,
      "waist": 4173,
      "harder": 4174,
      "marriage": 4175,
      "curled": 4176,
      "Galad": 4177,
      "slammed": 4178,
      "Tonks": 4179,
      "nut": 4180,
      "anor": 4181,
      "regre": 4182,
      "island": 4183,
      "nearest": 4184,
      "gered": 4185,
      "suf": 4186,
      "explained": 4187,
      "omin": 4188,
      "scrat": 4189,
      "treated": 4190,
      "asterly": 4191,
      "sending": 4192,
      "hoping": 4193,
      "killing": 4194,
      "finish": 4195,
      "meaning": 4196,
      "Without": 4197,
      "movement": 4198,
      "beauty": 4199,
      "Car": 4200,
      "extreme": 4201,
      "clen": 4202,
      "announced": 4203,
      "missing": 4204,
      "Dead": 4205,
      "deeds": 4206,
      "victory": 4207,
      "mission": 4208,
      "Dun": 4209,
      "uld": 4210,
      "tore": 4211,
      "ario": 4212,
      "brows": 4213,
      "rows": 4214,
      "distur": 4215,
      "murdered": 4216,
      "Tirith": 4217,
      "Zo": 4218,
      "fed": 4219,
      "gul": 4220,
      "attle": 4221,
      "ita": 4222,
      "boats": 4223,
      "eaten": 4224,
      "shrie": 4225,
      "destroyed": 4226,
      "desperate": 4227,
      "vampire": 4228,
      "cage": 4229,
      "rushed": 4230,
      "xes": 4231,
      "itad": 4232,
      "However": 4233,
      "impati": 4234,
      "drinking": 4235,
      "Both": 4236,
      "People": 4237,
      "ban": 4238,
      "hunt": 4239,
      "marry": 4240,
      "oft": 4241,
      "sidered": 4242,
      "scra": 4243,
      "despair": 4244,
      "satis": 4245,
      "trap": 4246,
      "starting": 4247,
      "....\"": 4248,
      "stirred": 4249,
      "Ey": 4250,
      "gen": 4251,
      "sou": 4252,
      "wro": 4253,
      "halls": 4254,
      "fee": 4255,
      "deck": 4256,
      "impossible": 4257,
      "astern": 4258,
      "minute": 4259,
      "special": 4260,
      "Targaryen": 4261,
      "Draco": 4262,
      "),": 4263,
      "considered": 4264,
      "range": 4265,
      "singer": 4266,
      "fleet": 4267,
      "lucky": 4268,
      "mortal": 4269,
      "itadel": 4270,
      "buck": 4271,
      "eter": 4272,
      "glim": 4273,
      "takes": 4274,
      "atri": 4275,
      "meal": 4276,
      "Hot": 4277,
      "instant": 4278,
      "Horcru": 4279,
      "pardon": 4280,
      "List": 4281,
      "bin": 4282,
      "inch": 4283,
      "neigh": 4284,
      "space": 4285,
      "Goyle": 4286,
      "drum": 4287,
      "Fing": 4288,
      "bench": 4289,
      "received": 4290,
      "enn": 4291,
      "sty": 4292,
      "likes": 4293,
      "ceive": 4294,
      "Its": 4295,
      "fail": 4296,
      "waving": 4297,
      "deeply": 4298,
      "bowl": 4299,
      "flee": 4300,
      "Everyone": 4301,
      "excited": 4302,
      "Bagman": 4303,
      "Yunkai": 4304,
      "Crabbe": 4305,
      "Hed": 4306,
      "Par": 4307,
      "Raven": 4308,
      "Sel": 4309,
      "Tor": 4310,
      "aunt": 4311,
      "oars": 4312,
      "pup": 4313,
      "tossed": 4314,
      "chuck": 4315,
      "sult": 4316,
      "silently": 4317,
      "firmly": 4318,
      "Sometimes": 4319,
      "footsteps": 4320,
      "badly": 4321,
      "occas": 4322,
      "goblins": 4323,
      "Gar": 4324,
      "Gilly": 4325,
      "rings": 4326,
      "ripp": 4327,
      "raising": 4328,
      "grate": 4329,
      "glasses": 4330,
      "unged": 4331,
      "write": 4332,
      "easier": 4333,
      "subject": 4334,
      "Casterly": 4335,
      "mill": 4336,
      "mood": 4337,
      "theless": 4338,
      "accept": 4339,
      "lift": 4340,
      "hated": 4341,
      "tea": 4342,
      "capt": 4343,
      "renched": 4344,
      "control": 4345,
      "rook": 4346,
      "struggled": 4347,
      "relief": 4348,
      "About": 4349,
      "App": 4350,
      "Vale": 4351,
      "heed": 4352,
      "thigh": 4353,
      "venge": 4354,
      "brain": 4355,
      "ridden": 4356,
      "Thé": 4357,
      "foolish": 4358,
      "midst": 4359,
      "difficul": 4360,
      "natural": 4361,
      "Rhaegar": 4362,
      "dancing": 4363,
      "amped": 4364,
      "stranger": 4365,
      "awake": 4366,
      "custo": 4367,
      "maiden": 4368,
      "ibly": 4369,
      "ghost": 4370,
      "Quentyn": 4371,
      "Cle": 4372,
      "curious": 4373,
      "mers": 4374,
      "pu": 4375,
      "til": 4376,
      "tta": 4377,
      "vig": 4378,
      "rear": 4379,
      "rele": 4380,
      "ara": 4381,
      "rie": 4382,
      "apor": 4383,
      "presence": 4384,
      "talked": 4385,
      "flowed": 4386,
      "honest": 4387,
      "obey": 4388,
      "za": 4389,
      "wig": 4390,
      "blur": 4391,
      "conds": 4392,
      "pride": 4393,
      "gloo": 4394,
      "wave": 4395,
      "Thus": 4396,
      "shock": 4397,
      "Time": 4398,
      "vain": 4399,
      "assu": 4400,
      "hers": 4401,
      "fog": 4402,
      "ltan": 4403,
      "smashed": 4404,
      "reading": 4405,
      "slip": 4406,
      "staircase": 4407,
      "ravens": 4408,
      "building": 4409,
      "Prophe": 4410,
      "flick": 4411,
      "unicorn": 4412,
      "Zoltan": 4413,
      "Théoden": 4414,
      "Emp": 4415,
      "lid": 4416,
      "sco": 4417,
      "advent": 4418,
      "lier": 4419,
      "shapes": 4420,
      "hasn": 4421,
      "normal": 4422,
      "slave": 4423,
      "leaped": 4424,
      "crowded": 4425,
      "Dursleys": 4426,
      "Bey": 4427,
      "Dam": 4428,
      "lum": 4429,
      "tho": 4430,
      "ford": 4431,
      "qual": 4432,
      "potion": 4433,
      "backward": 4434,
      "picture": 4435,
      "writing": 4436,
      "spotted": 4437,
      "Listen": 4438,
      "Beyond": 4439,
      "Vi": 4440,
      "gown": 4441,
      "honey": 4442,
      "slight": 4443,
      "Éomer": 4444,
      "orange": 4445,
      "hale": 4446,
      "robe": 4447,
      "weeks": 4448,
      "western": 4449,
      "bye": 4450,
      "lap": 4451,
      "spy": 4452,
      "comm": 4453,
      "monsters": 4454,
      "desp": 4455,
      "miser": 4456,
      "avoid": 4457,
      "Mon": 4458,
      "Over": 4459,
      "eastern": 4460,
      "morrow": 4461,
      "regard": 4462,
      "blame": 4463,
      "ties": 4464,
      "howling": 4465,
      "final": 4466,
      "crossbow": 4467,
      "frowning": 4468,
      "slopes": 4469,
      "corpses": 4470,
      "Calan": 4471,
      "damp": 4472,
      "tes": 4473,
      "level": 4474,
      "riel": 4475,
      "inkled": 4476,
      "visibility": 4477,
      "Maid": 4478,
      "signs": 4479,
      "scarlet": 4480,
      "solute": 4481,
      "collap": 4482,
      "crawled": 4483,
      "dirty": 4484,
      "anxious": 4485,
      "extremely": 4486,
      "Calanthe": 4487,
      "Has": 4488,
      "Sy": 4489,
      "Swe": 4490,
      "ien": 4491,
      "tit": 4492,
      "atop": 4493,
      "asons": 4494,
      "stained": 4495,
      "owyn": 4496,
      "beasts": 4497,
      "ayed": 4498,
      "consc": 4499,
      "treacher": 4500,
      "breasts": 4501,
      "erial": 4502,
      "Du": 4503,
      "Hold": 4504,
      "Neither": 4505,
      "borders": 4506,
      "judge": 4507,
      "pace": 4508,
      "amb": 4509,
      "confir": 4510,
      "convin": 4511,
      "whip": 4512,
      "mile": 4513,
      "grip": 4514,
      "wildling": 4515,
      "blowing": 4516,
      "Brother": 4517,
      "attempt": 4518,
      "fruit": 4519,
      "khal": 4520,
      "shaped": 4521,
      "renn": 4522,
      "setting": 4523,
      "happily": 4524,
      "wandering": 4525,
      "sisters": 4526,
      "rit": 4527,
      "ines": 4528,
      "enger": 4529,
      "wick": 4530,
      "cock": 4531,
      "backed": 4532,
      "fice": 4533,
      "serious": 4534,
      "northern": 4535,
      "apparently": 4536,
      "eastward": 4537,
      "searching": 4538,
      "Yo": 4539,
      "bought": 4540,
      "uttered": 4541,
      "cost": 4542,
      "disappo": 4543,
      "cip": 4544,
      "shoved": 4545,
      "solid": 4546,
      "Griff": 4547,
      "merely": 4548,
      "innocent": 4549,
      "Illy": 4550,
      "Ka": 4551,
      "colo": 4552,
      "indic": 4553,
      "umble": 4554,
      "somebody": 4555,
      "grad": 4556,
      "extra": 4557,
      "slay": 4558,
      "tables": 4559,
      "driven": 4560,
      "thousands": 4561,
      "Che": 4562,
      "Dis": 4563,
      "Fal": 4564,
      "pitch": 4565,
      "sought": 4566,
      "tling": 4567,
      "ldur": 4568,
      "ceed": 4569,
      "Dean": 4570,
      "captains": 4571,
      "worthy": 4572,
      "Tarly": 4573,
      "goblin": 4574,
      "Jojen": 4575,
      "ctive": 4576,
      "soul": 4577,
      "ury": 4578,
      "rend": 4579,
      "straw": 4580,
      "account": 4581,
      "tran": 4582,
      "male": 4583,
      "squir": 4584,
      "decide": 4585,
      "terrified": 4586,
      "Hedwig": 4587,
      "Illyrio": 4588,
      "fut": 4589,
      "faster": 4590,
      "langu": 4591,
      "pon": 4592,
      "state": 4593,
      "therefore": 4594,
      "fault": 4595,
      "string": 4596,
      "monstr": 4597,
      "counted": 4598,
      "deny": 4599,
      "painted": 4600,
      "practice": 4601,
      "clenched": 4602,
      "Ast": 4603,
      "Sure": 4604,
      "due": 4605,
      "lined": 4606,
      "bearing": 4607,
      "history": 4608,
      "ache": 4609,
      "urged": 4610,
      "myster": 4611,
      "Young": 4612,
      "waves": 4613,
      "deadly": 4614,
      "Order": 4615,
      "suppor": 4616,
      "repor": 4617,
      "flowing": 4618,
      "candles": 4619,
      "termined": 4620,
      "Gor": 4621,
      "Trid": 4622,
      "TER": 4623,
      "Tully": 4624,
      "rri": 4625,
      "keen": 4626,
      "feed": 4627,
      "peas": 4628,
      "pear": 4629,
      "abrup": 4630,
      "blades": 4631,
      "handsome": 4632,
      "clum": 4633,
      "legend": 4634,
      "crossing": 4635,
      "secrets": 4636,
      "soldier": 4637,
      "ristmas": 4638,
      "courtes": 4639,
      "Feanor": 4640,
      "portrait": 4641,
      "Throne": 4642,
      "occasion": 4643,
      "Az": 4644,
      "aur": 4645,
      "bul": 4646,
      "farewell": 4647,
      "lone": 4648,
      "unks": 4649,
      "tear": 4650,
      "umb": 4651,
      "inky": 4652,
      "gets": 4653,
      "skill": 4654,
      "stands": 4655,
      "protection": 4656,
      "ladies": 4657,
      "Christmas": 4658,
      "Dragonstone": 4659,
      "success": 4660,
      "War": 4661,
      "winding": 4662,
      "God": 4663,
      "Aerys": 4664,
      "Arian": 4665,
      "Bes": 4666,
      "Mum": 4667,
      "Slow": 4668,
      "apo": 4669,
      "oil": 4670,
      "pho": 4671,
      "shim": 4672,
      "inting": 4673,
      "resc": 4674,
      "thri": 4675,
      "halt": 4676,
      "ros": 4677,
      "shanks": 4678,
      "prof": 4679,
      "ruins": 4680,
      "finding": 4681,
      "slew": 4682,
      "apple": 4683,
      "bringing": 4684,
      "folded": 4685,
      "stubb": 4686,
      "Viserys": 4687,
      "Farewell": 4688,
      "Shall": 4689,
      "iant": 4690,
      "pul": 4691,
      "bother": 4692,
      "otherwise": 4693,
      "cheese": 4694,
      "snat": 4695,
      "returning": 4696,
      "ormund": 4697,
      "continue": 4698,
      "deserted": 4699,
      "clutched": 4700,
      "Wait": 4701,
      "Li": 4702,
      "instru": 4703,
      "attering": 4704,
      "seconds": 4705,
      "peered": 4706,
      "nearby": 4707,
      "Rivi": 4708,
      "Pie": 4709,
      "servant": 4710,
      "gleaming": 4711,
      "necessary": 4712,
      "Kar": 4713,
      "Squ": 4714,
      "Tormund": 4715,
      "page": 4716,
      "ator": 4717,
      "hospit": 4718,
      "upper": 4719,
      "determined": 4720,
      "whenever": 4721,
      "contr": 4722,
      "bron": 4723,
      "clock": 4724,
      "Moria": 4725,
      "cella": 4726,
      "cellent": 4727,
      "Redan": 4728,
      "Such": 4729,
      "tunic": 4730,
      "Myrcella": 4731,
      "hurrying": 4732,
      "Dwarves": 4733,
      "igger": 4734,
      "atrix": 4735,
      "Prophet": 4736,
      "Grenn": 4737,
      "Stop": 4738,
      "eh": 4739,
      "esc": 4740,
      "alle": 4741,
      "ripped": 4742,
      "plann": 4743,
      "sideways": 4744,
      "scattered": 4745,
      "div": 4746,
      "happens": 4747,
      "chambers": 4748,
      "content": 4749,
      "center": 4750,
      "concerned": 4751,
      "While": 4752,
      "merchant": 4753,
      "Bellatrix": 4754,
      "Alay": 4755,
      "kil": 4756,
      "lace": 4757,
      "swo": 4758,
      "wives": 4759,
      "admit": 4760,
      "forty": 4761,
      "bride": 4762,
      "berg": 4763,
      "useful": 4764,
      "colour": 4765,
      "charge": 4766,
      "problem": 4767,
      "znak": 4768,
      "Astapor": 4769,
      "Trident": 4770,
      "Pat": 4771,
      "bend": 4772,
      "banks": 4773,
      "ctor": 4774,
      "rog": 4775,
      "icy": 4776,
      "voy": 4777,
      "Therefore": 4778,
      "glory": 4779,
      "memor": 4780,
      "wrought": 4781,
      "paths": 4782,
      "snarled": 4783,
      "Galadriel": 4784,
      "bronze": 4785,
      "Def": 4786,
      "Hur": 4787,
      "Jan": 4788,
      "Ow": 4789,
      "rous": 4790,
      "ffled": 4791,
      "bushes": 4792,
      "burden": 4793,
      "decis": 4794,
      "collar": 4795,
      "descended": 4796,
      "Volant": 4797,
      "Cat": 4798,
      "aves": 4799,
      "fuck": 4800,
      "llied": 4801,
      "Butter": 4802,
      "spi": 4803,
      "worried": 4804,
      "howled": 4805,
      "store": 4806,
      "reply": 4807,
      "column": 4808,
      "stroke": 4809,
      "approaching": 4810,
      "mirror": 4811,
      "loomed": 4812,
      "Against": 4813,
      "Might": 4814,
      "Nan": 4815,
      "dar": 4816,
      "gut": 4817,
      "ky": 4818,
      "ination": 4819,
      "shed": 4820,
      "ourselves": 4821,
      "slashed": 4822,
      "ringing": 4823,
      "commander": 4824,
      "Craster": 4825,
      "stubborn": 4826,
      "danced": 4827,
      "mound": 4828,
      "zy": 4829,
      "asing": 4830,
      "goble": 4831,
      "lover": 4832,
      "elbow": 4833,
      "turns": 4834,
      "warn": 4835,
      "giants": 4836,
      "quired": 4837,
      "counter": 4838,
      "hudd": 4839,
      "esterday": 4840,
      "fourth": 4841,
      "Quick": 4842,
      "muttering": 4843,
      "recognized": 4844,
      "Wormtail": 4845,
      "Fl": 4846,
      "Sp": 4847,
      "flies": 4848,
      "issa": 4849,
      "llo": 4850,
      "kingdom": 4851,
      "shallow": 4852,
      "treasure": 4853,
      "lordship": 4854,
      "moments": 4855,
      "friendship": 4856,
      "support": 4857,
      "commands": 4858,
      "report": 4859,
      "shields": 4860,
      "difficulty": 4861,
      "pure": 4862,
      "habit": 4863,
      "blin": 4864,
      "uded": 4865,
      "obje": 4866,
      "groaned": 4867,
      "Should": 4868,
      "Brokil": 4869,
      "siege": 4870,
      "Mi": 4871,
      "Wild": 4872,
      "pushing": 4873,
      "rier": 4874,
      "forgot": 4875,
      "ssi": 4876,
      "anywhere": 4877,
      "months": 4878,
      "ooming": 4879,
      "splend": 4880,
      "humans": 4881,
      "betrayed": 4882,
      "Jarre": 4883,
      "regret": 4884,
      "Brokilon": 4885,
      "Ass": 4886,
      "rod": 4887,
      "agged": 4888,
      "outs": 4889,
      "sullied": 4890,
      "pled": 4891,
      "discovered": 4892,
      "wrath": 4893,
      "dungeon": 4894,
      "deta": 4895,
      "traitor": 4896,
      "bellowed": 4897,
      "Water": 4898,
      "lamp": 4899,
      "ratt": 4900,
      "reins": 4901,
      "beam": 4902,
      "peering": 4903,
      "hedge": 4904,
      "sigh": 4905,
      "ortun": 4906,
      "Arth": 4907,
      "strangely": 4908,
      "fools": 4909,
      "struggling": 4910,
      "particularly": 4911,
      "dang": 4912,
      "gal": 4913,
      "nature": 4914,
      "ative": 4915,
      "trade": 4916,
      "clas": 4917,
      "answ": 4918,
      "Prin": 4919,
      "slender": 4920,
      "wrist": 4921,
      "fortune": 4922,
      "fifteen": 4923,
      "Finally": 4924,
      "Rickon": 4925,
      "Eyrie": 4926,
      "Arthur": 4927,
      "Isi": 4928,
      "Make": 4929,
      "dinner": 4930,
      "frag": 4931,
      "okay": 4932,
      "yards": 4933,
      "thorn": 4934,
      "lia": 4935,
      "butter": 4936,
      "rap": 4937,
      "bru": 4938,
      "gigg": 4939,
      "Invisibility": 4940,
      "Thing": 4941,
      "facing": 4942,
      "showing": 4943,
      "audi": 4944,
      "velvet": 4945,
      "savage": 4946,
      "hospital": 4947,
      "Isildur": 4948,
      "nt": 4949,
      "packed": 4950,
      "youth": 4951,
      "pest": 4952,
      "foe": 4953,
      "aks": 4954,
      "trump": 4955,
      "forever": 4956,
      "atest": 4957,
      "Remember": 4958,
      "arpen": 4959,
      "axes": 4960,
      "destiny": 4961,
      "reflected": 4962,
      "scarcely": 4963,
      "Each": 4964,
      "OF": 4965,
      "bbled": 4966,
      "cu": 4967,
      "fis": 4968,
      "pred": 4969,
      "rush": 4970,
      "eron": 4971,
      "toes": 4972,
      "idly": 4973,
      "sau": 4974,
      "amus": 4975,
      "blank": 4976,
      "grinning": 4977,
      "scri": 4978,
      "keeps": 4979,
      "uries": 4980,
      "Strong": 4981,
      "madness": 4982,
      "eager": 4983,
      "James": 4984,
      "Jey": 4985,
      "Ko": 4986,
      "Ygrit": 4987,
      "Yarpen": 4988,
      "tele": 4989,
      "angs": 4990,
      "prov": 4991,
      "disgust": 4992,
      "Beren": 4993,
      "atures": 4994,
      "westward": 4995,
      "Pyke": 4996,
      "eagerly": 4997,
      "devil": 4998,
      "eggs": 4999,
      "Jeyne": 5000,
      "Ygritte": 5001,
      "bigger": 5002,
      "rab": 5003,
      "sake": 5004,
      "enty": 5005,
      "ppers": 5006,
      "complain": 5007,
      "resting": 5008,
      "quires": 5009,
      "travel": 5010,
      "appearance": 5011,
      "Beric": 5012,
      "sniffed": 5013,
      "Cir": 5014,
      "Des": 5015,
      "Khal": 5016,
      "Thir": 5017,
      "baby": 5018,
      "furious": 5019,
      "twit": 5020,
      "manner": 5021,
      "umed": 5022,
      "gress": 5023,
      "artment": 5024,
      "wands": 5025,
      "Daario": 5026,
      "Albus": 5027,
      "Oldtown": 5028,
      "warmth": 5029,
      "respon": 5030,
      "possess": 5031,
      "future": 5032,
      "Gl": 5033,
      "Lance": 5034,
      "cise": 5035,
      "inor": 5036,
      "invisible": 5037,
      "bells": 5038,
      "somewhat": 5039,
      "cutting": 5040,
      "Everything": 5041,
      "knock": 5042,
      "pounding": 5043,
      "ignored": 5044,
      "fashion": 5045,
      "Rivia": 5046,
      "Bre": 5047,
      "Hu": 5048,
      "Mis": 5049,
      "Temer": 5050,
      "dried": 5051,
      "fountain": 5052,
      "frey": 5053,
      "gum": 5054,
      "tugg": 5055,
      "vish": 5056,
      "inj": 5057,
      "thread": 5058,
      "beating": 5059,
      "uni": 5060,
      "ified": 5061,
      "brushed": 5062,
      "shake": 5063,
      "strain": 5064,
      "prevent": 5065,
      "justice": 5066,
      "Seamus": 5067,
      "marks": 5068,
      "hideous": 5069,
      "whispering": 5070,
      "nervously": 5071,
      "abandoned": 5072,
      "errand": 5073,
      "Wizard": 5074,
      "escort": 5075,
      "Fat": 5076,
      "Nine": 5077,
      "Whe": 5078,
      "bid": 5079,
      "kab": 5080,
      "lted": 5081,
      "nes": 5082,
      "rare": 5083,
      "ouched": 5084,
      "kered": 5085,
      "dementors": 5086,
      "tie": 5087,
      "ongue": 5088,
      "longsword": 5089,
      "halfway": 5090,
      "friendly": 5091,
      "wandered": 5092,
      "Arts": 5093,
      "Unsullied": 5094,
      "crystal": 5095,
      "borne": 5096,
      "wrote": 5097,
      "Azkab": 5098,
      "Azkaban": 5099,
      "ressed": 5100,
      "nest": 5101,
      "ords": 5102,
      "manage": 5103,
      "flood": 5104,
      "awk": 5105,
      "signed": 5106,
      "wildly": 5107,
      "taller": 5108,
      "Septa": 5109,
      "crawling": 5110,
      "destroy": 5111,
      "Skellen": 5112,
      "according": 5113,
      "rhy": 5114,
      "spite": 5115,
      "shared": 5116,
      "ddy": 5117,
      "dding": 5118,
      "prow": 5119,
      "skins": 5120,
      "merry": 5121,
      "drive": 5122,
      "occup": 5123,
      "figures": 5124,
      "prophecy": 5125,
      "released": 5126,
      "Coun": 5127,
      "Citadel": 5128,
      "Eater": 5129,
      "Roose": 5130,
      "cred": 5131,
      "harp": 5132,
      "iet": 5133,
      "rushing": 5134,
      "stare": 5135,
      "libr": 5136,
      "herald": 5137,
      "delay": 5138,
      "plat": 5139,
      "greatest": 5140,
      "grat": 5141,
      "spider": 5142,
      "crash": 5143,
      "hastily": 5144,
      "produ": 5145,
      "stolen": 5146,
      "shores": 5147,
      "swim": 5148,
      "nie": 5149,
      "persu": 5150,
      "chairs": 5151,
      "Dori": 5152,
      "Shae": 5153,
      "pools": 5154,
      "refuse": 5155,
      "nervous": 5156,
      "Alayne": 5157,
      "Owl": 5158,
      "Last": 5159,
      "bund": 5160,
      "cough": 5161,
      "zer": 5162,
      "cken": 5163,
      "const": 5164,
      "Whatever": 5165,
      "onder": 5166,
      "proof": 5167,
      "wanting": 5168,
      "hearth": 5169,
      "challen": 5170,
      "mson": 5171,
      "autumn": 5172,
      "confused": 5173,
      "reaching": 5174,
      "stuffed": 5175,
      "damn": 5176,
      "claws": 5177,
      "suffer": 5178,
      "swollen": 5179,
      "Kark": 5180,
      "aa": 5181,
      "patch": 5182,
      "velo": 5183,
      "mock": 5184,
      "loss": 5185,
      "boar": 5186,
      "ulous": 5187,
      "exist": 5188,
      "beds": 5189,
      "marching": 5190,
      "floating": 5191,
      "nexpected": 5192,
      "gesture": 5193,
      "Magical": 5194,
      "Snitch": 5195,
      "Bry": 5196,
      "ST": 5197,
      "Ta": 5198,
      "croo": 5199,
      "dad": 5200,
      "ease": 5201,
      "hook": 5202,
      "ske": 5203,
      "achi": 5204,
      "som": 5205,
      "shivering": 5206,
      "pause": 5207,
      "wounds": 5208,
      "moonlight": 5209,
      "Muggles": 5210,
      "staggered": 5211,
      "craft": 5212,
      "summoned": 5213,
      "fetch": 5214,
      "Sweet": 5215,
      "abruptly": 5216,
      "Slowly": 5217,
      "base": 5218,
      "cure": 5219,
      "dish": 5220,
      "ias": 5221,
      "ot": 5222,
      "ras": 5223,
      "alike": 5224,
      "ayne": 5225,
      "plunged": 5226,
      "backs": 5227,
      "descri": 5228,
      "mists": 5229,
      "zzled": 5230,
      "Freys": 5231,
      "lemn": 5232,
      "convinced": 5233,
      "Yoren": 5234,
      "Must": 5235,
      "Put": 5236,
      "cunning": 5237,
      "farm": 5238,
      "sses": 5239,
      "yaw": 5240,
      "stark": 5241,
      "separ": 5242,
      "moss": 5243,
      "nowhere": 5244,
      "gray": 5245,
      "shaft": 5246,
      "uffle": 5247,
      "crimson": 5248,
      "adder": 5249,
      "flower": 5250,
      "reluct": 5251,
      "Enough": 5252,
      "Highgarden": 5253,
      "covering": 5254,
      "twisting": 5255,
      "crooked": 5256,
      "Dad": 5257,
      "Fa": 5258,
      "Free": 5259,
      "Six": 5260,
      "jac": 5261,
      "knot": 5262,
      "arily": 5263,
      "weep": 5264,
      "decor": 5265,
      "tier": 5266,
      "log": 5267,
      "cauld": 5268,
      "crowned": 5269,
      "bedchamber": 5270,
      "ignor": 5271,
      "remembering": 5272,
      "Slynt": 5273,
      "jerked": 5274,
      "glimpse": 5275,
      "breeches": 5276,
      "Golden": 5277,
      "perfectly": 5278,
      "Thingol": 5279,
      "Add": 5280,
      "RE": 5281,
      "furiously": 5282,
      "yesterday": 5283,
      "becoming": 5284,
      "acing": 5285,
      "weed": 5286,
      "overhead": 5287,
      "seriously": 5288,
      "ruined": 5289,
      "landing": 5290,
      "choked": 5291,
      "steadily": 5292,
      "dormi": 5293,
      "companion": 5294,
      "guest": 5295,
      "massive": 5296,
      "accident": 5297,
      "advice": 5298,
      "travell": 5299,
      "powers": 5300,
      "Hard": 5301,
      "Kill": 5302,
      "Lys": 5303,
      "Next": 5304,
      "Rita": 5305,
      "Took": 5306,
      "dle": 5307,
      "ences": 5308,
      "lions": 5309,
      "solemn": 5310,
      "goat": 5311,
      "whores": 5312,
      "trad": 5313,
      "onds": 5314,
      "glist": 5315,
      "tense": 5316,
      "eyebrows": 5317,
      "godswood": 5318,
      "grandfather": 5319,
      "concern": 5320,
      "swallow": 5321,
      "anxiously": 5322,
      "Brandy": 5323,
      "collapsed": 5324,
      "Princess": 5325,
      "Mund": 5326,
      "coo": 5327,
      "pir": 5328,
      "pine": 5329,
      "yer": 5330,
      "fever": 5331,
      "departed": 5332,
      "check": 5333,
      "resist": 5334,
      "Reznak": 5335,
      "triump": 5336,
      "sticks": 5337,
      "Kingslayer": 5338,
      "occur": 5339,
      "trembled": 5340,
      "stables": 5341,
      "blanket": 5342,
      "feathers": 5343,
      "shattered": 5344,
      "awkward": 5345,
      ").": 5346,
      "pony": 5347,
      "rights": 5348,
      "married": 5349,
      "limbs": 5350,
      "private": 5351,
      "difference": 5352,
      "revealed": 5353,
      "shrieked": 5354,
      "Beneath": 5355,
      "mons": 5356,
      "éagol": 5357,
      "thic": 5358,
      "stump": 5359,
      "seal": 5360,
      "weal": 5361,
      "cott": 5362,
      "geons": 5363,
      "handle": 5364,
      "Second": 5365,
      "lovely": 5366,
      "approach": 5367,
      "ghosts": 5368,
      "Back": 5369,
      "Qy": 5370,
      "Vy": 5371,
      "dan": 5372,
      "vague": 5373,
      "sted": 5374,
      "haw": 5375,
      "heading": 5376,
      "fiery": 5377,
      "shade": 5378,
      "jewe": 5379,
      "cups": 5380,
      "trusted": 5381,
      "interesting": 5382,
      "faintly": 5383,
      "incred": 5384,
      "strangers": 5385,
      "library": 5386,
      "Qyburn": 5387,
      "cul": 5388,
      "dug": 5389,
      "lers": 5390,
      "nigh": 5391,
      "soup": 5392,
      "incre": 5393,
      "tops": 5394,
      "sailed": 5395,
      "acon": 5396,
      "copper": 5397,
      "unned": 5398,
      "shown": 5399,
      "aker": 5400,
      "lessons": 5401,
      "situ": 5402,
      "magician": 5403,
      "tempt": 5404,
      "Elven": 5405,
      "Brown": 5406,
      "branch": 5407,
      "thien": 5408,
      "prisoners": 5409,
      "glimpsed": 5410,
      "Five": 5411,
      "bind": 5412,
      "bull": 5413,
      "fant": 5414,
      "ju": 5415,
      "mass": 5416,
      "rats": 5417,
      "unexpected": 5418,
      "rew": 5419,
      "archers": 5420,
      "fears": 5421,
      "upward": 5422,
      "folly": 5423,
      "naught": 5424,
      "breathe": 5425,
      "everybody": 5426,
      "guil": 5427,
      "castles": 5428,
      "mistaken": 5429,
      "changing": 5430,
      "Luci": 5431,
      "conscious": 5432,
      "huddled": 5433,
      "NO": 5434,
      "Winky": 5435,
      "tend": 5436,
      "aroff": 5437,
      "lets": 5438,
      "weeping": 5439,
      "hoarse": 5440,
      "ettle": 5441,
      "blown": 5442,
      "plenty": 5443,
      "anymore": 5444,
      "yeah": 5445,
      "murmur": 5446,
      "Elend": 5447,
      "Peeves": 5448,
      "gleamed": 5449,
      "stallion": 5450,
      "animal": 5451,
      "champion": 5452,
      "colored": 5453,
      "Karkaroff": 5454,
      "LE": 5455,
      "tin": 5456,
      "wret": 5457,
      "refu": 5458,
      "mead": 5459,
      "nois": 5460,
      "shud": 5461,
      "tem": 5462,
      "concent": 5463,
      "thanc": 5464,
      "itement": 5465,
      "bleeding": 5466,
      "treason": 5467,
      "events": 5468,
      "guarded": 5469,
      "mouths": 5470,
      "captive": 5471,
      "leader": 5472,
      "various": 5473,
      "solutely": 5474,
      "Lancel": 5475,
      "shuddered": 5476,
      "Del": 5477,
      "Pom": 5478,
      "Sit": 5479,
      "Since": 5480,
      "lu": 5481,
      "swell": 5482,
      "tumbled": 5483,
      "wins": 5484,
      "—'": 5485,
      "lean": 5486,
      "outer": 5487,
      "seeking": 5488,
      "endless": 5489,
      "conne": 5490,
      "contain": 5491,
      "scene": 5492,
      "sible": 5493,
      "market": 5494,
      "obviously": 5495,
      "Harbor": 5496,
      "harsh": 5497,
      "studied": 5498,
      "Anyway": 5499,
      "Curse": 5500,
      "Bur": 5501,
      "Crook": 5502,
      "Fring": 5503,
      "Turn": 5504,
      "bars": 5505,
      "tide": 5506,
      "inches": 5507,
      "acle": 5508,
      "adi": 5509,
      "moaned": 5510,
      "shr": 5511,
      "shine": 5512,
      "sullen": 5513,
      "brush": 5514,
      "exha": 5515,
      "closing": 5516,
      "steady": 5517,
      "shop": 5518,
      "Orthanc": 5519,
      "whistle": 5520,
      "Meri": 5521,
      "Until": 5522,
      "pressing": 5523,
      "midnight": 5524,
      "Valinor": 5525,
      "wagons": 5526,
      "sellswords": 5527,
      "Braa": 5528,
      "language": 5529,
      "Fringilla": 5530,
      "Bow": 5531,
      "Big": 5532,
      "Crow": 5533,
      "Dread": 5534,
      "Ry": 5535,
      "Row": 5536,
      "ei": 5537,
      "nar": 5538,
      "wrenched": 5539,
      "reasons": 5540,
      "sails": 5541,
      "abo": 5542,
      "prey": 5543,
      "creeping": 5544,
      "izing": 5545,
      "Marsh": 5546,
      "brightly": 5547,
      "custom": 5548,
      "troop": 5549,
      "beaten": 5550,
      "excuse": 5551,
      "Outside": 5552,
      "babe": 5553,
      "glittering": 5554,
      "grateful": 5555,
      "Elendil": 5556,
      "Crookshanks": 5557,
      "Spr": 5558,
      "hast": 5559,
      "ox": 5560,
      "enna": 5561,
      "owls": 5562,
      "roaring": 5563,
      "sheer": 5564,
      "grant": 5565,
      "grunted": 5566,
      "scor": 5567,
      "precise": 5568,
      "courty": 5569,
      "witchers": 5570,
      "barr": 5571,
      "Pomfrey": 5572,
      "ghed": 5573,
      "iting": 5574,
      "seas": 5575,
      "oomed": 5576,
      "usted": 5577,
      "bored": 5578,
      "clearing": 5579,
      "rubb": 5580,
      "helping": 5581,
      "capable": 5582,
      "Starks": 5583,
      "Alas": 5584,
      "Nilfgaardians": 5585,
      "palace": 5586,
      "Eldar": 5587,
      "Penny": 5588,
      "triumph": 5589,
      "Cele": 5590,
      "Qhor": 5591,
      "Scri": 5592,
      "Sandor": 5593,
      "Tra": 5594,
      "eved": 5595,
      "fangs": 5596,
      "vas": 5597,
      "whim": 5598,
      "argu": 5599,
      "iser": 5600,
      "esi": 5601,
      "acles": 5602,
      "irrit": 5603,
      "defin": 5604,
      "lore": 5605,
      "backwards": 5606,
      "spinning": 5607,
      "breathed": 5608,
      "Through": 5609,
      "obvious": 5610,
      "startled": 5611,
      "Sméagol": 5612,
      "echoing": 5613,
      "including": 5614,
      "Dwarf": 5615,
      "Turin": 5616,
      "haleesi": 5617,
      "ponies": 5618,
      "Num": 5619,
      "Ter": 5620,
      "foo": 5621,
      "hem": 5622,
      "meas": 5623,
      "unpleasant": 5624,
      "trace": 5625,
      "wary": 5626,
      "stole": 5627,
      "dreaming": 5628,
      "safely": 5629,
      "Ent": 5630,
      "excitement": 5631,
      "dirt": 5632,
      "utterly": 5633,
      "filthy": 5634,
      "enchantress": 5635,
      "Arianne": 5636,
      "Karstark": 5637,
      "Ac": 5638,
      "Mun": 5639,
      "dru": 5640,
      "cele": 5641,
      "tiv": 5642,
      "caused": 5643,
      "Anduin": 5644,
      "spend": 5645,
      "crew": 5646,
      "flu": 5647,
      "Bereg": 5648,
      "farther": 5649,
      "Poor": 5650,
      "realize": 5651,
      "driving": 5652,
      "dripping": 5653,
      "Mae": 5654,
      "expecting": 5655,
      "Hogsme": 5656,
      "Common": 5657,
      "sorcerers": 5658,
      "birthday": 5659,
      "Wolf": 5660,
      "pouring": 5661,
      "Valyrian": 5662,
      "Fol": 5663,
      "Run": 5664,
      "bould": 5665,
      "gin": 5666,
      "smu": 5667,
      "tourney": 5668,
      "heel": 5669,
      "invol": 5670,
      "anti": 5671,
      "anked": 5672,
      "toss": 5673,
      "chor": 5674,
      "tives": 5675,
      "handful": 5676,
      "simil": 5677,
      "stron": 5678,
      "wherever": 5679,
      "steward": 5680,
      "month": 5681,
      "Thaned": 5682,
      "intro": 5683,
      "sorrow": 5684,
      "root": 5685,
      "leaping": 5686,
      "Digg": 5687,
      "memories": 5688,
      "Janos": 5689,
      "Hogsmeade": 5690,
      "Thanedd": 5691,
      "Bring": 5692,
      "CHA": 5693,
      "Scab": 5694,
      "Tri": 5695,
      "ffi": 5696,
      "nific": 5697,
      "ware": 5698,
      "upstairs": 5699,
      "losing": 5700,
      "Thanks": 5701,
      "tongues": 5702,
      "Loth": 5703,
      "balls": 5704,
      "ception": 5705,
      "respond": 5706,
      "Help": 5707,
      "favorite": 5708,
      "shelter": 5709,
      "scrambled": 5710,
      "assured": 5711,
      "blinked": 5712,
      "Bom": 5713,
      "Kettle": 5714,
      "OO": 5715,
      "Tel": 5716,
      "rin": 5717,
      "vul": 5718,
      "heap": 5719,
      "sevent": 5720,
      "beck": 5721,
      "lian": 5722,
      "terms": 5723,
      "shor": 5724,
      "afar": 5725,
      "linging": 5726,
      "Dol": 5727,
      "joke": 5728,
      "supp": 5729,
      "Pyp": 5730,
      "prayed": 5731,
      "desperately": 5732,
      "swirling": 5733,
      "Severus": 5734,
      "Surely": 5735,
      "snatched": 5736,
      "goblet": 5737,
      "travellers": 5738,
      "Braavos": 5739,
      "Scrim": 5740,
      "Abo": 5741,
      "Aeron": 5742,
      "Cre": 5743,
      "Tongue": 5744,
      "boot": 5745,
      "lung": 5746,
      "tents": 5747,
      "zo": 5748,
      "recalled": 5749,
      "asha": 5750,
      "wicked": 5751,
      "wept": 5752,
      "lix": 5753,
      "geour": 5754,
      "shal": 5755,
      "gives": 5756,
      "curses": 5757,
      "pretend": 5758,
      "assault": 5759,
      "delighted": 5760,
      "Rayder": 5761,
      "Selmy": 5762,
      "introdu": 5763,
      "Battle": 5764,
      "Huffle": 5765,
      "Ith": 5766,
      "Ilyn": 5767,
      "Say": 5768,
      "paw": 5769,
      "asks": 5770,
      "stout": 5771,
      "sels": 5772,
      "pole": 5773,
      "clothing": 5774,
      "heaven": 5775,
      "plainly": 5776,
      "remaining": 5777,
      "suspected": 5778,
      "knives": 5779,
      "survive": 5780,
      "tangled": 5781,
      "cauldron": 5782,
      "Beregond": 5783,
      "Hufflepuff": 5784,
      "Gy": 5785,
      "Ghis": 5786,
      "YOU": 5787,
      "jar": 5788,
      "vine": 5789,
      "wits": 5790,
      "ême": 5791,
      "rely": 5792,
      "aro": 5793,
      "wield": 5794,
      "accep": 5795,
      "irs": 5796,
      "liar": 5797,
      "delic": 5798,
      "shudd": 5799,
      "Were": 5800,
      "crushed": 5801,
      "sunset": 5802,
      "floated": 5803,
      "filling": 5804,
      "wonderful": 5805,
      "aruga": 5806,
      "imagined": 5807,
      "sellsword": 5808,
      "score": 5809,
      "Defense": 5810,
      "Council": 5811,
      "similar": 5812,
      "AT": 5813,
      "bits": 5814,
      "ckets": 5815,
      "hound": 5816,
      "kor": 5817,
      "nur": 5818,
      "charm": 5819,
      "eled": 5820,
      "prefect": 5821,
      "berry": 5822,
      "shifted": 5823,
      "vigrad": 5824,
      "appre": 5825,
      "drick": 5826,
      "fourteen": 5827,
      "maids": 5828,
      "oulême": 5829,
      "Melkor": 5830,
      "quarters": 5831,
      "surrounding": 5832,
      "dungeons": 5833,
      "tracted": 5834,
      "Belwas": 5835,
      "Angoulême": 5836,
      "sembled": 5837,
      "statue": 5838,
      "impression": 5839,
      "guilty": 5840,
      "ie": 5841,
      "nons": 5842,
      "pits": 5843,
      "passes": 5844,
      "stench": 5845,
      "ribs": 5846,
      "nden": 5847,
      "holid": 5848,
      "concl": 5849,
      "medall": 5850,
      "scabb": 5851,
      "clung": 5852,
      "afterward": 5853,
      "dismay": 5854,
      "rub": 5855,
      "rules": 5856,
      "event": 5857,
      "trial": 5858,
      "fastened": 5859,
      "safety": 5860,
      "pretending": 5861,
      "knocking": 5862,
      "gleam": 5863,
      "hammer": 5864,
      "fiercely": 5865,
      "Manderly": 5866,
      "jesty": 5867,
      "warrior": 5868,
      "Better": 5869,
      "Butterbur": 5870,
      "Brynden": 5871,
      "Lucius": 5872,
      "celebr": 5873,
      "Bru": 5874,
      "Find": 5875,
      "Tall": 5876,
      "Ur": 5877,
      "iment": 5878,
      "lust": 5879,
      "nin": 5880,
      "seats": 5881,
      "begg": 5882,
      "rying": 5883,
      "soaked": 5884,
      "ains": 5885,
      "ics": 5886,
      "anybody": 5887,
      "affair": 5888,
      "fax": 5889,
      "afterwards": 5890,
      "calls": 5891,
      "glancing": 5892,
      "ungus": 5893,
      "dragging": 5894,
      "smells": 5895,
      "masters": 5896,
      "obli": 5897,
      "straightened": 5898,
      "charged": 5899,
      "kingsroad": 5900,
      "quarter": 5901,
      "Child": 5902,
      "teachers": 5903,
      "curtains": 5904,
      "confirmed": 5905,
      "courtesy": 5906,
      "Volantis": 5907,
      "Scrimgeour": 5908,
      "Irri": 5909,
      "aim": 5910,
      "gla": 5911,
      "piled": 5912,
      "begged": 5913,
      "bearer": 5914,
      "alarm": 5915,
      "neath": 5916,
      "nels": 5917,
      "copy": 5918,
      "cared": 5919,
      "endure": 5920,
      "trunks": 5921,
      "Novigrad": 5922,
      "horiz": 5923,
      "silvery": 5924,
      "ational": 5925,
      "Stay": 5926,
      "Granger": 5927,
      "Although": 5928,
      "troll": 5929,
      "gifts": 5930,
      "sadly": 5931,
      "Shadowfax": 5932,
      "abbing": 5933,
      "panic": 5934,
      "squeezed": 5935,
      "Horcrux": 5936,
      "courtyard": 5937,
      "Kettleblack": 5938,
      "Love": 5939,
      "PTER": 5940,
      "Ten": 5941,
      "mask": 5942,
      "vil": 5943,
      "waking": 5944,
      "require": 5945,
      "ism": 5946,
      "orcs": 5947,
      "itude": 5948,
      "hip": 5949,
      "nephe": 5950,
      "loves": 5951,
      "sheath": 5952,
      "yourselves": 5953,
      "sped": 5954,
      "wax": 5955,
      "Stand": 5956,
      "igned": 5957,
      "settle": 5958,
      "sounding": 5959,
      "effect": 5960,
      "Podrick": 5961,
      "smith": 5962,
      "cripp": 5963,
      "valry": 5964,
      "corridors": 5965,
      "bitterly": 5966,
      "reveal": 5967,
      "defeat": 5968,
      "suffered": 5969,
      "impatiently": 5970,
      "Ravenclaw": 5971,
      "CHAPTER": 5972,
      "Above": 5973,
      "nephew": 5974,
      "RI": 5975,
      "tories": 5976,
      "argum": 5977,
      "admir": 5978,
      "earlier": 5979,
      "Lords": 5980,
      "shivered": 5981,
      "wrinkled": 5982,
      "sorts": 5983,
      "visited": 5984,
      "phan": 5985,
      "phook": 5986,
      "eagle": 5987,
      "Griphook": 5988,
      "blocked": 5989,
      "properly": 5990,
      "entirely": 5991,
      "Nimue": 5992,
      "skirts": 5993,
      "Falka": 5994,
      "Kovir": 5995,
      "refuge": 5996,
      "Foltest": 5997,
      "Nenne": 5998,
      "Naz": 5999,
      "bough": 6000,
      "card": 6001,
      "gang": 6002,
      "slit": 6003,
      "wiping": 6004,
      "deaf": 6005,
      "boiled": 6006,
      "complained": 6007,
      "litter": 6008,
      "immen": 6009,
      "serp": 6010,
      "idding": 6011,
      "current": 6012,
      "Blackwater": 6013,
      "aux": 6014,
      "author": 6015,
      "brick": 6016,
      "gladly": 6017,
      "threatening": 6018,
      "cousins": 6019,
      "picking": 6020,
      "motionless": 6021,
      "wheeled": 6022,
      "Baelor": 6023,
      "chuckled": 6024,
      "despite": 6025,
      "lonely": 6026,
      "horizon": 6027,
      "Nenneke": 6028,
      "Ad": 6029,
      "Doom": 6030,
      "Him": 6031,
      "lance": 6032,
      "ored": 6033,
      "hil": 6034,
      "advan": 6035,
      "chase": 6036,
      "trained": 6037,
      "brus": 6038,
      "tells": 6039,
      "doorway": 6040,
      "spoon": 6041,
      "horsemen": 6042,
      "rivers": 6043,
      "Shut": 6044,
      "mentioned": 6045,
      "stooped": 6046,
      "Hobbit": 6047,
      "gloves": 6048,
      "gloomy": 6049,
      "Mistle": 6050,
      "Dick": 6051,
      "Euron": 6052,
      "Flit": 6053,
      "Isa": 6054,
      "Lem": 6055,
      "Laven": 6056,
      "Ober": 6057,
      "sin": 6058,
      "lla": 6059,
      "ropes": 6060,
      "acks": 6061,
      "Nobody": 6062,
      "opin": 6063,
      "useless": 6064,
      "members": 6065,
      "holds": 6066,
      "Alliser": 6067,
      "Potions": 6068,
      "rison": 6069,
      "squat": 6070,
      "directly": 6071,
      "twins": 6072,
      "block": 6073,
      "Doriath": 6074,
      "juice": 6075,
      "Qhorin": 6076,
      "Lavender": 6077,
      "Oberyn": 6078,
      "Cup": 6079,
      "Dep": 6080,
      "Ne": 6081,
      "Ny": 6082,
      "Way": 6083,
      "bust": 6084,
      "boun": 6085,
      "bbling": 6086,
      "remo": 6087,
      "onion": 6088,
      "idently": 6089,
      "hissing": 6090,
      "uttering": 6091,
      "lingered": 6092,
      "profess": 6093,
      "Inside": 6094,
      "guide": 6095,
      "merc": 6096,
      "innkeeper": 6097,
      "witness": 6098,
      "Bloody": 6099,
      "burnt": 6100,
      "quicker": 6101,
      "dric": 6102,
      "cellar": 6103,
      "slapped": 6104,
      "catching": 6105,
      "fifth": 6106,
      "bags": 6107,
      "deliver": 6108,
      "depths": 6109,
      "greeted": 6110,
      "Isaac": 6111,
      "Char": 6112,
      "Charm": 6113,
      "Ride": 6114,
      "Yaruga": 6115,
      "lane": 6116,
      "phi": 6117,
      "pudd": 6118,
      "anda": 6119,
      "ena": 6120,
      "idio": 6121,
      "acy": 6122,
      "urs": 6123,
      "decl": 6124,
      "whel": 6125,
      "scow": 6126,
      "comment": 6127,
      "crashed": 6128,
      "bedroom": 6129,
      "steam": 6130,
      "winds": 6131,
      "remark": 6132,
      "Meryn": 6133,
      "Daily": 6134,
      "wilder": 6135,
      "northward": 6136,
      "Grim": 6137,
      "coughed": 6138,
      "ING": 6139,
      "discuss": 6140,
      "scratched": 6141,
      "disturb": 6142,
      "Redania": 6143,
      "jacket": 6144,
      "Flitwick": 6145,
      "Fair": 6146,
      "chim": 6147,
      "notion": 6148,
      "butcher": 6149,
      "blast": 6150,
      "rubbing": 6151,
      "ighed": 6152,
      "Secre": 6153,
      "lads": 6154,
      "laden": 6155,
      "sixteen": 6156,
      "fitting": 6157,
      "basin": 6158,
      "prisoner": 6159,
      "galloped": 6160,
      "wyne": 6161,
      "barked": 6162,
      "Hobbits": 6163,
      "freedom": 6164,
      "zerg": 6165,
      "Mundungus": 6166,
      "Den": 6167,
      "Dri": 6168,
      "Flow": 6169,
      "hut": 6170,
      "lute": 6171,
      "rant": 6172,
      "aris": 6173,
      "roast": 6174,
      "aches": 6175,
      "nod": 6176,
      "licked": 6177,
      "ria": 6178,
      "abs": 6179,
      "blond": 6180,
      "spilled": 6181,
      "gap": 6182,
      "shaggy": 6183,
      "wars": 6184,
      "counting": 6185,
      "observed": 6186,
      "rocky": 6187,
      "lina": 6188,
      "opportun": 6189,
      "circling": 6190,
      "ruled": 6191,
      "Bit": 6192,
      "Care": 6193,
      "Dain": 6194,
      "lunch": 6195,
      "mou": 6196,
      "pub": 6197,
      "ini": 6198,
      "oub": 6199,
      "ency": 6200,
      "station": 6201,
      "measure": 6202,
      "hopes": 6203,
      "defi": 6204,
      "hatred": 6205,
      "local": 6206,
      "brings": 6207,
      "spiders": 6208,
      "muffled": 6209,
      "stock": 6210,
      "shouts": 6211,
      "battles": 6212,
      "Unless": 6213,
      "Redwyne": 6214,
      "muscle": 6215,
      "screams": 6216,
      "thief": 6217,
      "pillars": 6218,
      "swayed": 6219,
      "weirwood": 6220,
      "decision": 6221,
      "situation": 6222,
      "Diggory": 6223,
      "Ester": 6224,
      "Sons": 6225,
      "aver": 6226,
      "kid": 6227,
      "vati": 6228,
      "remove": 6229,
      "required": 6230,
      "seed": 6231,
      "nostri": 6232,
      "outlaws": 6233,
      "coins": 6234,
      "umin": 6235,
      "plump": 6236,
      "inkling": 6237,
      "torment": 6238,
      "halfling": 6239,
      "drown": 6240,
      "osity": 6241,
      "Luthien": 6242,
      "lantern": 6243,
      "Horse": 6244,
      "spirit": 6245,
      "Skeeter": 6246,
      "belonged": 6247,
      "doublet": 6248,
      "Sorry": 6249,
      "grasp": 6250,
      "Fangorn": 6251,
      "Parvati": 6252,
      "Emperor": 6253,
      "Scabbers": 6254,
      "scabbard": 6255,
      "Osm": 6256,
      "bard": 6257,
      "vows": 6258,
      "dod": 6259,
      "brist": 6260,
      "nightmare": 6261,
      "striding": 6262,
      "flushed": 6263,
      "fathers": 6264,
      "isters": 6265,
      "Forgive": 6266,
      "smelling": 6267,
      "bearded": 6268,
      "forests": 6269,
      "fulf": 6270,
      "villages": 6271,
      "health": 6272,
      "grimaced": 6273,
      "Brandon": 6274,
      "blankets": 6275,
      "astonished": 6276,
      "World": 6277,
      "transp": 6278,
      "apolo": 6279,
      "ashamed": 6280,
      "immense": 6281,
      "Osmund": 6282,
      "Bay": 6283,
      "Rats": 6284,
      "Wise": 6285,
      "intell": 6286,
      "thou": 6287,
      "stink": 6288,
      "stabbed": 6289,
      "sacri": 6290,
      "accompan": 6291,
      "fork": 6292,
      "loc": 6293,
      "spies": 6294,
      "exe": 6295,
      "lesser": 6296,
      "clang": 6297,
      "goods": 6298,
      "ruffi": 6299,
      "embr": 6300,
      "cuts": 6301,
      "prick": 6302,
      "shortly": 6303,
      "temper": 6304,
      "cushi": 6305,
      "protected": 6306,
      "froze": 6307,
      "Dragons": 6308,
      "favour": 6309,
      "gentlemen": 6310,
      "faithful": 6311,
      "whirled": 6312,
      "Cl": 6313,
      "Cour": 6314,
      "Ever": 6315,
      "Later": 6316,
      "Pave": 6317,
      "av": 6318,
      "furn": 6319,
      "gga": 6320,
      "iest": 6321,
      "iently": 6322,
      "twin": 6323,
      "uncomfortable": 6324,
      "exchanged": 6325,
      "blackened": 6326,
      "mostly": 6327,
      "dismounted": 6328,
      "dais": 6329,
      "Ange": 6330,
      "grimly": 6331,
      "dropping": 6332,
      "thirteen": 6333,
      "suffic": 6334,
      "training": 6335,
      "jaws": 6336,
      "flagon": 6337,
      "concealed": 6338,
      "neighb": 6339,
      "Damn": 6340,
      "smugg": 6341,
      "Aur": 6342,
      "Mist": 6343,
      "Nay": 6344,
      "bending": 6345,
      "dring": 6346,
      "sinking": 6347,
      "token": 6348,
      "archer": 6349,
      "leys": 6350,
      "legged": 6351,
      "shoo": 6352,
      "mane": 6353,
      "quis": 6354,
      "pop": 6355,
      "scree": 6356,
      "skinny": 6357,
      "vile": 6358,
      "evidence": 6359,
      "impro": 6360,
      "household": 6361,
      "swinging": 6362,
      "glowing": 6363,
      "Wormtongue": 6364,
      "croaked": 6365,
      "abandon": 6366,
      "piercing": 6367,
      "annoyed": 6368,
      "Ce": 6369,
      "New": 6370,
      "Need": 6371,
      "flic": 6372,
      "gno": 6373,
      "órien": 6374,
      "“.": 6375,
      "healed": 6376,
      "itation": 6377,
      "sees": 6378,
      "hiss": 6379,
      "blows": 6380,
      "tooth": 6381,
      "greed": 6382,
      "spraw": 6383,
      "sweeping": 6384,
      "attend": 6385,
      "vaul": 6386,
      "besides": 6387,
      "Boros": 6388,
      "searched": 6389,
      "struggle": 6390,
      "Eastwatch": 6391,
      "spirits": 6392,
      "advant": 6393,
      "poisoned": 6394,
      "Speak": 6395,
      "merchants": 6396,
      "Buckbeak": 6397,
      "captured": 6398,
      "miserable": 6399,
      "jewels": 6400,
      "medallion": 6401,
      "opinion": 6402,
      "Pavetta": 6403,
      "Ald": 6404,
      "Cross": 6405,
      "Kel": 6406,
      "Khaleesi": 6407,
      "Lily": 6408,
      "dashed": 6409,
      "kwood": 6410,
      "ule": 6411,
      "rebell": 6412,
      "alty": 6413,
      "former": 6414,
      "ceased": 6415,
      "hore": 6416,
      "tearing": 6417,
      "excellent": 6418,
      "strained": 6419,
      "tress": 6420,
      "resses": 6421,
      "Quir": 6422,
      "staying": 6423,
      "hunger": 6424,
      "Almost": 6425,
      "trot": 6426,
      "prayer": 6427,
      "eriand": 6428,
      "sively": 6429,
      "Beleriand": 6430,
      "polished": 6431,
      "astonishment": 6432,
      "breeze": 6433,
      "pierced": 6434,
      "True": 6435,
      "splendid": 6436,
      "dormitory": 6437,
      "wealth": 6438,
      "Gam": 6439,
      "Oc": 6440,
      "cin": 6441,
      "fists": 6442,
      "mush": 6443,
      "panted": 6444,
      "silly": 6445,
      "tasted": 6446,
      "armies": 6447,
      "keys": 6448,
      "unts": 6449,
      "unched": 6450,
      "shy": 6451,
      "caves": 6452,
      "scr": 6453,
      "underneath": 6454,
      "greatly": 6455,
      "stew": 6456,
      "yelling": 6457,
      "pavi": 6458,
      "shocked": 6459,
      "griev": 6460,
      "fortnight": 6461,
      "kettle": 6462,
      "rumour": 6463,
      "Doran": 6464,
      "repeat": 6465,
      "proudly": 6466,
      "Slytherins": 6467,
      "perilous": 6468,
      "sparks": 6469,
      "adventure": 6470,
      "audience": 6471,
      "Cirilla": 6472,
      "Flowers": 6473,
      "Bridge": 6474,
      "Haven": 6475,
      "Jhi": 6476,
      "OW": 6477,
      "Pandor": 6478,
      "braid": 6479,
      "duck": 6480,
      "hint": 6481,
      "jet": 6482,
      "kers": 6483,
      "mum": 6484,
      "piss": 6485,
      "paces": 6486,
      "lded": 6487,
      "lifting": 6488,
      "amuse": 6489,
      "etr": 6490,
      "brisk": 6491,
      "Think": 6492,
      "drifting": 6493,
      "Morgul": 6494,
      "painful": 6495,
      "stroked": 6496,
      "possibly": 6497,
      "narrowed": 6498,
      "suspiciously": 6499,
      "animals": 6500,
      "ournament": 6501,
      "Several": 6502,
      "fancy": 6503,
      "fortunately": 6504,
      "warriors": 6505,
      "profession": 6506,
      "nostrils": 6507,
      "flickered": 6508,
      "Quirrell": 6509,
      "Jhiqui": 6510,
      "Pandora": 6511,
      "Mace": 6512,
      "Ores": 6513,
      "Sall": 6514,
      "Wand": 6515,
      "fading": 6516,
      "ja": 6517,
      "andir": 6518,
      "ghold": 6519,
      "forces": 6520,
      "agon": 6521,
      "sogot": 6522,
      "hoof": 6523,
      "arden": 6524,
      "decent": 6525,
      "armour": 6526,
      "process": 6527,
      "darker": 6528,
      "rances": 6529,
      "cream": 6530,
      "intent": 6531,
      "drifted": 6532,
      "trapped": 6533,
      "Weasleys": 6534,
      "Dontos": 6535,
      "kneeling": 6536,
      "Martell": 6537,
      "winged": 6538,
      "exploded": 6539,
      "rescue": 6540,
      "Vysogot": 6541,
      "accompanied": 6542,
      "Angelina": 6543,
      "Vysogota": 6544,
      "Eil": 6545,
      "Fear": 6546,
      "Glover": 6547,
      "Pere": 6548,
      "Qarth": 6549,
      "Twins": 6550,
      "cats": 6551,
      "daw": 6552,
      "ladder": 6553,
      "obed": 6554,
      "sink": 6555,
      "revenge": 6556,
      "itions": 6557,
      "lime": 6558,
      "solar": 6559,
      "modest": 6560,
      "goal": 6561,
      "tim": 6562,
      "thrandir": 6563,
      "scorn": 6564,
      "diam": 6565,
      "treas": 6566,
      "rowed": 6567,
      "pies": 6568,
      "clapped": 6569,
      "understanding": 6570,
      "Quite": 6571,
      "northmen": 6572,
      "wishes": 6573,
      "linen": 6574,
      "paying": 6575,
      "crowns": 6576,
      "Myrtle": 6577,
      "priestess": 6578,
      "survived": 6579,
      "recently": 6580,
      "violently": 6581,
      "wrigg": 6582,
      "forbidden": 6583,
      "Mithrandir": 6584,
      "Ax": 6585,
      "Bast": 6586,
      "Tran": 6587,
      "mam": 6588,
      "mourn": 6589,
      "oy": 6590,
      "andy": 6591,
      "tori": 6592,
      "hither": 6593,
      "notes": 6594,
      "unseen": 6595,
      "demon": 6596,
      "shes": 6597,
      "ppy": 6598,
      "explan": 6599,
      "ounce": 6600,
      "letting": 6601,
      "helmet": 6602,
      "intment": 6603,
      "visions": 6604,
      "griff": 6605,
      "centuries": 6606,
      "vault": 6607,
      "pretended": 6608,
      "solved": 6609,
      "classroom": 6610,
      "pyram": 6611,
      "suspicious": 6612,
      "comfortably": 6613,
      "tracks": 6614,
      "champions": 6615,
      "Follow": 6616,
      "galleys": 6617,
      "Cleos": 6618,
      "monstrous": 6619,
      "stronghold": 6620,
      "execut": 6621,
      "Isle": 6622,
      "Lake": 6623,
      "Mu": 6624,
      "Nearly": 6625,
      "goose": 6626,
      "panting": 6627,
      "withered": 6628,
      "chan": 6629,
      "bler": 6630,
      "locks": 6631,
      "shoot": 6632,
      "fox": 6633,
      "woken": 6634,
      "eyel": 6635,
      "spared": 6636,
      "pering": 6637,
      "pipe": 6638,
      "Blud": 6639,
      "minds": 6640,
      "barrels": 6641,
      "captives": 6642,
      "regular": 6643,
      "grandmother": 6644,
      "relieved": 6645,
      "balance": 6646,
      "AND": 6647,
      "fortunate": 6648,
      "reported": 6649,
      "Av": 6650,
      "Bless": 6651,
      "Nick": 6652,
      "Pass": 6653,
      "Viz": 6654,
      "mumbled": 6655,
      "pages": 6656,
      "anna": 6657,
      "choo": 6658,
      "shiny": 6659,
      "raz": 6660,
      "...'": 6661,
      "sume": 6662,
      "plates": 6663,
      "grows": 6664,
      "perished": 6665,
      "permitted": 6666,
      "sliding": 6667,
      "ferry": 6668,
      "whistled": 6669,
      "homework": 6670,
      "colors": 6671,
      "Already": 6672,
      "ranged": 6673,
      "brig": 6674,
      "study": 6675,
      "uneasy": 6676,
      "weariness": 6677,
      "malice": 6678,
      "rotten": 6679,
      "Mirkwood": 6680,
      "amidst": 6681,
      "kicking": 6682,
      "flickering": 6683,
      "Vizim": 6684,
      "EL": 6685,
      "Hal": 6686,
      "bidden": 6687,
      "bacon": 6688,
      "plot": 6689,
      "rout": 6690,
      "tum": 6691,
      "redd": 6692,
      "domin": 6693,
      "devo": 6694,
      "tigrew": 6695,
      "indi": 6696,
      "icing": 6697,
      "spill": 6698,
      "mild": 6699,
      "nails": 6700,
      "strings": 6701,
      "chess": 6702,
      "witches": 6703,
      "runs": 6704,
      "effe": 6705,
      "battlements": 6706,
      "umping": 6707,
      "tical": 6708,
      "touching": 6709,
      "rangers": 6710,
      "Darkness": 6711,
      "tightened": 6712,
      "frost": 6713,
      "Pettigrew": 6714,
      "palm": 6715,
      "Chamber": 6716,
      "healing": 6717,
      "messenger": 6718,
      "amaze": 6719,
      "engers": 6720,
      "Maiden": 6721,
      "Kaer": 6722,
      "wretched": 6723,
      "opportunity": 6724,
      "Fla": 6725,
      "vander": 6726,
      "thee": 6727,
      "reared": 6728,
      "atin": 6729,
      "beha": 6730,
      "sailing": 6731,
      "action": 6732,
      "forgiven": 6733,
      "neat": 6734,
      "los": 6735,
      "brass": 6736,
      "previous": 6737,
      "contact": 6738,
      "movements": 6739,
      "towering": 6740,
      "valiant": 6741,
      "Didn": 6742,
      "brilli": 6743,
      "streams": 6744,
      "reeds": 6745,
      "Balin": 6746,
      "dusty": 6747,
      "Silver": 6748,
      "bathroom": 6749,
      "grasped": 6750,
      "southern": 6751,
      "Hurin": 6752,
      "cottage": 6753,
      "accepted": 6754,
      "advantage": 6755,
      "Ell": 6756,
      "Fi": 6757,
      "Mud": 6758,
      "Olli": 6759,
      "Power": 6760,
      "Pret": 6761,
      "Ska": 6762,
      "awoke": 6763,
      "hest": 6764,
      "beloved": 6765,
      "begging": 6766,
      "veins": 6767,
      "hired": 6768,
      "noises": 6769,
      "unknown": 6770,
      "werewolf": 6771,
      "...”": 6772,
      "posts": 6773,
      "exception": 6774,
      "flashing": 6775,
      "parting": 6776,
      "belief": 6777,
      "stirrup": 6778,
      "Drogon": 6779,
      "threatened": 6780,
      "circled": 6781,
      "septon": 6782,
      "Precious": 6783,
      "cautiously": 6784,
      "treacherous": 6785,
      "concentr": 6786,
      "Bowen": 6787,
      "Skahaz": 6788,
      "Day": 6789,
      "Send": 6790,
      "Tu": 6791,
      "aep": 6792,
      "og": 6793,
      "push": 6794,
      "toe": 6795,
      "aries": 6796,
      "season": 6797,
      "seize": 6798,
      "forged": 6799,
      "deer": 6800,
      "absolutely": 6801,
      "shuff": 6802,
      "ifferen": 6803,
      "diary": 6804,
      "ables": 6805,
      "uses": 6806,
      "Roy": 6807,
      "intended": 6808,
      "super": 6809,
      "realised": 6810,
      "heartbeat": 6811,
      "Marshal": 6812,
      "flapping": 6813,
      "purse": 6814,
      "Certain": 6815,
      "southward": 6816,
      "numbers": 6817,
      "personal": 6818,
      "messages": 6819,
      "widow": 6820,
      "Sirion": 6821,
      "loyalty": 6822,
      "Appar": 6823,
      "predic": 6824,
      "occupied": 6825,
      "definitely": 6826,
      "beggar": 6827,
      "Na": 6828,
      "Okay": 6829,
      "Ugl": 6830,
      "jon": 6831,
      "onions": 6832,
      "arose": 6833,
      "arrange": 6834,
      "haunted": 6835,
      "beaming": 6836,
      "wight": 6837,
      "irn": 6838,
      "mored": 6839,
      "mocking": 6840,
      "blunt": 6841,
      "lod": 6842,
      "ppo": 6843,
      "planted": 6844,
      "undered": 6845,
      "dign": 6846,
      "provo": 6847,
      "Hoster": 6848,
      "snif": 6849,
      "Silmar": 6850,
      "stool": 6851,
      "agreement": 6852,
      "Turgon": 6853,
      "disappointed": 6854,
      "Temeria": 6855,
      "Book": 6856,
      "Fer": 6857,
      "Hmm": 6858,
      "Mall": 6859,
      "Sword": 6860,
      "Stre": 6861,
      "ben": 6862,
      "bber": 6863,
      "boom": 6864,
      "cord": 6865,
      "gthen": 6866,
      "jagged": 6867,
      "ray": 6868,
      "request": 6869,
      "tha": 6870,
      "togra": 6871,
      "enix": 6872,
      "lest": 6873,
      "hacked": 6874,
      "upwards": 6875,
      "abroad": 6876,
      "locket": 6877,
      "polit": 6878,
      "whipped": 6879,
      "thrond": 6880,
      "bless": 6881,
      "darkened": 6882,
      "desired": 6883,
      "intend": 6884,
      "compre": 6885,
      "smallfolk": 6886,
      "bitch": 6887,
      "bury": 6888,
      "carpet": 6889,
      "snakes": 6890,
      "Max": 6891,
      "uriosity": 6892,
      "liness": 6893,
      "Madame": 6894,
      "scales": 6895,
      "spreading": 6896,
      "examined": 6897,
      "Thoros": 6898,
      "Steward": 6899,
      "pillow": 6900,
      "broomstick": 6901,
      "Guard": 6902,
      "Wyman": 6903,
      "shimmering": 6904,
      "Numen": 6905,
      "Bastard": 6906,
      "Ollivander": 6907,
      "Gild": 6908,
      "Kati": 6909,
      "Payne": 6910,
      "aes": 6911,
      "squires": 6912,
      "vow": 6913,
      "receive": 6914,
      "stab": 6915,
      "lemon": 6916,
      "iti": 6917,
      "rolls": 6918,
      "pect": 6919,
      "peaks": 6920,
      "ulls": 6921,
      "muddy": 6922,
      "appla": 6923,
      "openly": 6924,
      "furs": 6925,
      "striped": 6926,
      "forming": 6927,
      "Shield": 6928,
      "sticking": 6929,
      "trotted": 6930,
      "student": 6931,
      "porridge": 6932,
      "thorough": 6933,
      "instantly": 6934,
      "basket": 6935,
      "bannermen": 6936,
      "draught": 6937,
      "swaying": 6938,
      "nesses": 6939,
      "Hobbiton": 6940,
      "Charlie": 6941,
      "Katie": 6942,
      "\"-": 6943,
      "Gis": 6944,
      "La": 6945,
      "Yur": 6946,
      "craven": 6947,
      "jam": 6948,
      "ngest": 6949,
      "rus": 6950,
      "thumb": 6951,
      "stam": 6952,
      "ribb": 6953,
      "tips": 6954,
      "venom": 6955,
      "elher": 6956,
      "ousy": 6957,
      "mixed": 6958,
      "strum": 6959,
      "rags": 6960,
      "Sodden": 6961,
      "curved": 6962,
      "streaming": 6963,
      "Blue": 6964,
      "contents": 6965,
      "barrel": 6966,
      "pursuit": 6967,
      "guardsmen": 6968,
      "zzle": 6969,
      "Firebolt": 6970,
      "title": 6971,
      "Patron": 6972,
      "clasped": 6973,
      "sausa": 6974,
      "nonsense": 6975,
      "serpent": 6976,
      "Kelpie": 6977,
      "Royce": 6978,
      "sniffing": 6979,
      "Giselher": 6980,
      "Dare": 6981,
      "Ered": 6982,
      "Jory": 6983,
      "Sco": 6984,
      "Vel": 6985,
      "bush": 6986,
      "clinging": 6987,
      "dwind": 6988,
      "lain": 6989,
      "Éowyn": 6990,
      "ani": 6991,
      "rever": 6992,
      "release": 6993,
      "hai": 6994,
      "veld": 6995,
      "youngest": 6996,
      "liqu": 6997,
      "liking": 6998,
      "aye": 6999,
      "forms": 7000,
      "mob": 7001,
      "gothrond": 7002,
      "cakes": 7003,
      "earned": 7004,
      "scars": 7005,
      "apers": 7006,
      "dived": 7007,
      "brothe": 7008,
      "ridic": 7009,
      "firm": 7010,
      "waits": 7011,
      "restless": 7012,
      "embarr": 7013,
      "cursing": 7014,
      "highborn": 7015,
      "shoes": 7016,
      "Majesty": 7017,
      "Morhen": 7018,
      "Boy": 7019,
      "smoking": 7020,
      "arrival": 7021,
      "Halfhand": 7022,
      "symp": 7023,
      "kitchens": 7024,
      "rotting": 7025,
      "league": 7026,
      "Prime": 7027,
      "Nargothrond": 7028,
      "mysterious": 7029,
      "details": 7030,
      "tugged": 7031,
      "platform": 7032,
      "decorated": 7033,
      "Dreadfort": 7034,
      "rina": 7035,
      "amazement": 7036,
      "Ask": 7037,
      "ED": 7038,
      "Jack": 7039,
      "Kay": 7040,
      "Ph": 7041,
      "Xaro": 7042,
      "pouch": 7043,
      "inx": 7044,
      "erion": 7045,
      "role": 7046,
      "ooped": 7047,
      "amount": 7048,
      "load": 7049,
      "quet": 7050,
      "willow": 7051,
      "grab": 7052,
      "crouched": 7053,
      "checked": 7054,
      "smir": 7055,
      "singers": 7056,
      "Codring": 7057,
      "forwards": 7058,
      "southwards": 7059,
      "confusion": 7060,
      "hunted": 7061,
      "dryad": 7062,
      "hooded": 7063,
      "princes": 7064,
      "Myrish": 7065,
      "melted": 7066,
      "preferred": 7067,
      "invited": 7068,
      "experience": 7069,
      "Manwe": 7070,
      "kerchief": 7071,
      "khalas": 7072,
      "Bard": 7073,
      "Sab": 7074,
      "xen": 7075,
      "result": 7076,
      "arti": 7077,
      "orig": 7078,
      "llor": 7079,
      "stumbling": 7080,
      "haul": 7081,
      "secur": 7082,
      "forts": 7083,
      "holy": 7084,
      "plant": 7085,
      "gran": 7086,
      "sphere": 7087,
      "comb": 7088,
      "dimly": 7089,
      "howl": 7090,
      "lasted": 7091,
      "standard": 7092,
      "sleeves": 7093,
      "highly": 7094,
      "Really": 7095,
      "enchanted": 7096,
      "buildings": 7097,
      "Silence": 7098,
      "glittered": 7099,
      "Helm": 7100,
      "Drowned": 7101,
      "Haldon": 7102,
      "thrice": 7103,
      "divided": 7104,
      "rattling": 7105,
      "ignoring": 7106,
      "Department": 7107,
      "Aed": 7108,
      "Dusk": 7109,
      "Rider": 7110,
      "bill": 7111,
      "cities": 7112,
      "ilies": 7113,
      "ouet": 7114,
      "edges": 7115,
      "soared": 7116,
      "area": 7117,
      "bol": 7118,
      "suck": 7119,
      "sults": 7120,
      "affer": 7121,
      "afford": 7122,
      "thoughtfully": 7123,
      "glare": 7124,
      "feelings": 7125,
      "reshold": 7126,
      "barred": 7127,
      "defence": 7128,
      "region": 7129,
      "rers": 7130,
      "Angband": 7131,
      "galloping": 7132,
      "coward": 7133,
      "Drink": 7134,
      "ceeded": 7135,
      "Eilhart": 7136,
      "Codringher": 7137,
      "\"'": 7138,
      "Ju": 7139,
      "Ni": 7140,
      "Osha": 7141,
      "Ru": 7142,
      "Try": 7143,
      "curiosity": 7144,
      "pate": 7145,
      "pinned": 7146,
      "tank": 7147,
      "arrog": 7148,
      "roth": 7149,
      "holt": 7150,
      "terrace": 7151,
      "amused": 7152,
      "ilities": 7153,
      "oldest": 7154,
      "combat": 7155,
      "image": 7156,
      "helms": 7157,
      "intently": 7158,
      "awful": 7159,
      "eldest": 7160,
      "fewer": 7161,
      "biting": 7162,
      "whistling": 7163,
      "risen": 7164,
      "dense": 7165,
      "drops": 7166,
      "Elvish": 7167,
      "ironmen": 7168,
      "mett": 7169,
      "chestnut": 7170,
      "corners": 7171,
      "tively": 7172,
      "naturally": 7173,
      "Upon": 7174,
      "bbles": 7175,
      "Trans": 7176,
      "embarrass": 7177,
      "Sabrina": 7178,
      "Best": 7179,
      "Flo": 7180,
      "Sla": 7181,
      "Tru": 7182,
      "Tissa": 7183,
      "border": 7184,
      "pall": 7185,
      "hewn": 7186,
      "invent": 7187,
      "replaced": 7188,
      "threshold": 7189,
      "andei": 7190,
      "owe": 7191,
      "accom": 7192,
      "ution": 7193,
      "chased": 7194,
      "sobbed": 7195,
      "shelf": 7196,
      "conj": 7197,
      "prospect": 7198,
      "evidently": 7199,
      "compet": 7200,
      "hugged": 7201,
      "barrier": 7202,
      "pleasantly": 7203,
      "badour": 7204,
      "stripped": 7205,
      "troubadour": 7206,
      "families": 7207,
      "athered": 7208,
      "slaughter": 7209,
      "gestured": 7210,
      "harmed": 7211,
      "numb": 7212,
      "charac": 7213,
      "twilight": 7214,
      "eleven": 7215,
      "rustling": 7216,
      "Missandei": 7217,
      "defeated": 7218,
      "cheerful": 7219,
      "trumpets": 7220,
      "Faith": 7221,
      "Nazg": 7222,
      "Dainty": 7223,
      "intellig": 7224,
      "Maxime": 7225,
      "Scoia": 7226,
      "Tissaia": 7227,
      "AL": 7228,
      "Bore": 7229,
      "Bones": 7230,
      "Frances": 7231,
      "aving": 7232,
      "bony": 7233,
      "curiously": 7234,
      "gge": 7235,
      "mond": 7236,
      "edged": 7237,
      "aging": 7238,
      "sore": 7239,
      "sobbing": 7240,
      "female": 7241,
      "indifferen": 7242,
      "pots": 7243,
      "contempt": 7244,
      "affe": 7245,
      "daylight": 7246,
      "clatter": 7247,
      "elder": 7248,
      "appearing": 7249,
      "centaur": 7250,
      "badge": 7251,
      "garrison": 7252,
      "vail": 7253,
      "stretching": 7254,
      "bastards": 7255,
      "damned": 7256,
      "Longbottom": 7257,
      "breastplate": 7258,
      "stiffly": 7259,
      "issue": 7260,
      "correct": 7261,
      "drums": 7262,
      "Besides": 7263,
      "Peregrin": 7264,
      "Francesca": 7265,
      "Darry": 7266,
      "Gil": 7267,
      "Isn": 7268,
      "Tal": 7269,
      "elix": 7270,
      "purn": 7271,
      "praise": 7272,
      "ral": 7273,
      "rons": 7274,
      "tap": 7275,
      "inct": 7276,
      "retreated": 7277,
      "leigh": 7278,
      "bears": 7279,
      "veil": 7280,
      "nodding": 7281,
      "forgetting": 7282,
      "tire": 7283,
      "lob": 7284,
      "indign": 7285,
      "teaching": 7286,
      "tram": 7287,
      "tspurn": 7288,
      "spied": 7289,
      "gilded": 7290,
      "progress": 7291,
      "stopping": 7292,
      "discover": 7293,
      "quiver": 7294,
      "courte": 7295,
      "Hotspurn": 7296,
      "embro": 7297,
      "swing": 7298,
      "object": 7299,
      "burg": 7300,
      "shadowy": 7301,
      "gardens": 7302,
      "Crach": 7303,
      "defen": 7304,
      "pict": 7305,
      "version": 7306,
      "damage": 7307,
      "quarrel": 7308,
      "Pentos": 7309,
      "disturbed": 7310,
      "thighs": 7311,
      "supported": 7312,
      "bundle": 7313,
      "shorter": 7314,
      "remote": 7315,
      "Cra": 7316,
      "Cress": 7317,
      "TY": 7318,
      "bane": 7319,
      "cack": 7320,
      "iv": 7321,
      "itors": 7322,
      "yanked": 7323,
      "informed": 7324,
      "bee": 7325,
      "altogether": 7326,
      "lice": 7327,
      "rick": 7328,
      "soci": 7329,
      "dee": 7330,
      "umps": 7331,
      "woven": 7332,
      "tles": 7333,
      "Noye": 7334,
      "exile": 7335,
      "darkly": 7336,
      "Tyro": 7337,
      "tael": 7338,
      "wrists": 7339,
      "speaks": 7340,
      "doubts": 7341,
      "slipping": 7342,
      "directions": 7343,
      "portal": 7344,
      "frog": 7345,
      "squeaked": 7346,
      "Sept": 7347,
      "shrill": 7348,
      "thusias": 7349,
      "Baelish": 7350,
      "vigil": 7351,
      "indicated": 7352,
      "Chett": 7353,
      "instructions": 7354,
      "roused": 7355,
      "yawned": 7356,
      "sacrifice": 7357,
      "Kayleigh": 7358,
      "fus": 7359,
      "fran": 7360,
      "igrin": 7361,
      "kar": 7362,
      "mummer": 7363,
      "arl": 7364,
      "stamped": 7365,
      "owing": 7366,
      "ghast": 7367,
      "accus": 7368,
      "urgent": 7369,
      "moth": 7370,
      "features": 7371,
      "lots": 7372,
      "grind": 7373,
      "esters": 7374,
      "disappear": 7375,
      "appar": 7376,
      "wander": 7377,
      "shove": 7378,
      "senses": 7379,
      "Arys": 7380,
      "Blackfish": 7381,
      "kindred": 7382,
      "jected": 7383,
      "hosts": 7384,
      "scarred": 7385,
      "erer": 7386,
      "hirrim": 7387,
      "frighten": 7388,
      "figur": 7389,
      "shriek": 7390,
      "twist": 7391,
      "Ernie": 7392,
      "healthy": 7393,
      "amazed": 7394,
      "lorous": 7395,
      "satisfied": 7396,
      "occurred": 7397,
      "delicate": 7398,
      "ruffians": 7399,
      "Boreas": 7400,
      "Barrow": 7401,
      "Rain": 7402,
      "Vard": 7403,
      "olf": 7404,
      "padd": 7405,
      "vat": 7406,
      "vor": 7407,
      "renow": 7408,
      "arched": 7409,
      "envelo": 7410,
      "stunned": 7411,
      "saint": 7412,
      "adjust": 7413,
      "ripe": 7414,
      "neys": 7415,
      "homes": 7416,
      "uncertain": 7417,
      "sheathed": 7418,
      "illumin": 7419,
      "offering": 7420,
      "scouts": 7421,
      "shafts": 7422,
      "assist": 7423,
      "digging": 7424,
      "lighter": 7425,
      "Rohirrim": 7426,
      "flaming": 7427,
      "Dolorous": 7428,
      "sentence": 7429,
      "strewn": 7430,
      "colder": 7431,
      "helpless": 7432,
      "ankle": 7433,
      "Lee": 7434,
      "growth": 7435,
      "Merryweather": 7436,
      "frequ": 7437,
      "Baron": 7438,
      "splash": 7439,
      "Gondo": 7440,
      "Greyback": 7441,
      "concerning": 7442,
      "sym": 7443,
      "dressing": 7444,
      "Conning": 7445,
      "feeble": 7446,
      "fleeing": 7447,
      "planned": 7448,
      "objects": 7449,
      "Merigold": 7450,
      "Rowan": 7451,
      "rebellion": 7452,
      "khalasar": 7453,
      "security": 7454,
      "Count": 7455,
      "Der": 7456,
      "Gi": 7457,
      "Lam": 7458,
      "Pate": 7459,
      "date": 7460,
      "ior": 7461,
      "lamps": 7462,
      "tended": 7463,
      "tton": 7464,
      "armored": 7465,
      "enthusias": 7466,
      "sting": 7467,
      "ites": 7468,
      "hips": 7469,
      "aying": 7470,
      "forcing": 7471,
      "ilisk": 7472,
      "doll": 7473,
      "shell": 7474,
      "sucked": 7475,
      "consent": 7476,
      "handkerchief": 7477,
      "gaunt": 7478,
      "gaping": 7479,
      "sire": 7480,
      "tained": 7481,
      "hairy": 7482,
      "yell": 7483,
      "sentin": 7484,
      "slung": 7485,
      "marve": 7486,
      "remn": 7487,
      "hurts": 7488,
      "rounded": 7489,
      "expelled": 7490,
      "Greatjon": 7491,
      "Justin": 7492,
      "Bywater": 7493,
      "hunters": 7494,
      "fishing": 7495,
      "Kingsley": 7496,
      "rett": 7497,
      "wager": 7498,
      "avoided": 7499,
      "belongs": 7500,
      "magnific": 7501,
      "jerkin": 7502,
      "inclined": 7503,
      "Dornishmen": 7504,
      "traitors": 7505,
      "labour": 7506,
      "possessed": 7507,
      "Fingolf": 7508,
      "excitedly": 7509,
      "planning": 7510,
      "answering": 7511,
      "Third": 7512,
      "challenge": 7513,
      "beckoned": 7514,
      "Fingolfin": 7515,
      "Cond": 7516,
      "Nice": 7517,
      "Taw": 7518,
      "Xen": 7519,
      "bared": 7520,
      "camps": 7521,
      "equal": 7522,
      "mouse": 7523,
      "sno": 7524,
      "invest": 7525,
      "ert": 7526,
      "assure": 7527,
      "sewn": 7528,
      "acious": 7529,
      "urg": 7530,
      "ravine": 7531,
      "Harrys": 7532,
      "cavern": 7533,
      "tley": 7534,
      "canvas": 7535,
      "cris": 7536,
      "permit": 7537,
      "Got": 7538,
      "pike": 7539,
      "painfully": 7540,
      "flapped": 7541,
      "signific": 7542,
      "emerald": 7543,
      "Shagrat": 7544,
      "glowed": 7545,
      "crawl": 7546,
      "Prote": 7547,
      "sprout": 7548,
      "highest": 7549,
      "specially": 7550,
      "politely": 7551,
      "experien": 7552,
      "injured": 7553,
      "Wizarding": 7554,
      "sufficient": 7555,
      "benches": 7556,
      "tograph": 7557,
      "Aen": 7558,
      "Aly": 7559,
      "Essi": 7560,
      "Ti": 7561,
      "Vat": 7562,
      "Wen": 7563,
      "bility": 7564,
      "fab": 7565,
      "mast": 7566,
      "ners": 7567,
      "rr": 7568,
      "sits": 7569,
      "swer": 7570,
      "ville": 7571,
      "erous": 7572,
      "stif": 7573,
      "tedly": 7574,
      "brink": 7575,
      "sip": 7576,
      "strand": 7577,
      "raged": 7578,
      "ranks": 7579,
      "torted": 7580,
      "chained": 7581,
      "sens": 7582,
      "sensed": 7583,
      "swam": 7584,
      "cupboard": 7585,
      "mistress": 7586,
      "Also": 7587,
      "sixty": 7588,
      "hitting": 7589,
      "trolls": 7590,
      "prayers": 7591,
      "squealed": 7592,
      "stretch": 7593,
      "stirring": 7594,
      "drunken": 7595,
      "smoothly": 7596,
      "general": 7597,
      "knuck": 7598,
      "thicket": 7599,
      "seventeen": 7600,
      "Certainly": 7601,
      "origin": 7602,
      "Connington": 7603,
      "Vattier": 7604,
      "Ford": 7605,
      "Fool": 7606,
      "IR": 7607,
      "Rem": 7608,
      "Room": 7609,
      "Smi": 7610,
      "bon": 7611,
      "cum": 7612,
      "eaves": 7613,
      "gna": 7614,
      "vit": 7615,
      "“—": 7616,
      "reput": 7617,
      "arled": 7618,
      "hire": 7619,
      "rip": 7620,
      "unaware": 7621,
      "mot": 7622,
      "logs": 7623,
      "shelves": 7624,
      "cavalry": 7625,
      "boast": 7626,
      "ulously": 7627,
      "overwhel": 7628,
      "mentor": 7629,
      "perched": 7630,
      "gili": 7631,
      "ishly": 7632,
      "creaking": 7633,
      "Gerris": 7634,
      "inns": 7635,
      "torture": 7636,
      "Quiet": 7637,
      "Else": 7638,
      "leads": 7639,
      "sixth": 7640,
      "mingled": 7641,
      "priests": 7642,
      "attempted": 7643,
      "duties": 7644,
      "officer": 7645,
      "blazing": 7646,
      "frame": 7647,
      "Haldir": 7648,
      "precisely": 7649,
      "glared": 7650,
      "Gamge": 7651,
      "Gondolin": 7652,
      "Across": 7653,
      "Cities": 7654,
      "Dear": 7655,
      "Fif": 7656,
      "Houses": 7657,
      "Ice": 7658,
      "Lion": 7659,
      "Lara": 7660,
      "Sleep": 7661,
      "Tous": 7662,
      "Warden": 7663,
      "gers": 7664,
      "gden": 7665,
      "iety": 7666,
      "looming": 7667,
      "mmed": 7668,
      "ola": 7669,
      "pans": 7670,
      "”.": 7671,
      "lik": 7672,
      "blinking": 7673,
      "foam": 7674,
      "qua": 7675,
      "wholly": 7676,
      "downstairs": 7677,
      "scraw": 7678,
      "crum": 7679,
      "creep": 7680,
      "quivering": 7681,
      "bowing": 7682,
      "Dementors": 7683,
      "gripped": 7684,
      "Dale": 7685,
      "learning": 7686,
      "Melian": 7687,
      "gargo": 7688,
      "misty": 7689,
      "promises": 7690,
      "gnarled": 7691,
      "Looking": 7692,
      "blinding": 7693,
      "gravely": 7694,
      "source": 7695,
      "Yunkish": 7696,
      "enjoyed": 7697,
      "issued": 7698,
      "confessed": 7699,
      "glimmering": 7700,
      "vengeance": 7701,
      "peasant": 7702,
      "peasants": 7703,
      "rapidly": 7704,
      "twitched": 7705,
      "glistening": 7706,
      "troops": 7707,
      "Gyles": 7708,
      "Pretty": 7709,
      "thoroughly": 7710,
      "Toussaint": 7711,
      "Much": 7712,
      "Off": 7713,
      "Show": 7714,
      "aq": 7715,
      "ko": 7716,
      "ranger": 7717,
      "inher": 7718,
      "represent": 7719,
      "stage": 7720,
      "secure": 7721,
      "wasted": 7722,
      "unlike": 7723,
      "loads": 7724,
      "sheet": 7725,
      "aky": 7726,
      "ustr": 7727,
      "pox": 7728,
      "trance": 7729,
      "tract": 7730,
      "ophili": 7731,
      "wailing": 7732,
      "creaked": 7733,
      "fireplace": 7734,
      "carts": 7735,
      "alongside": 7736,
      "drift": 7737,
      "kindness": 7738,
      "painting": 7739,
      "crime": 7740,
      "freely": 7741,
      "Boholt": 7742,
      "ironborn": 7743,
      "lawn": 7744,
      "splashed": 7745,
      "recognize": 7746,
      "sailors": 7747,
      "punishment": 7748,
      "delivered": 7749,
      "braz": 7750,
      "briefly": 7751,
      "caution": 7752,
      "Beside": 7753,
      "voyage": 7754,
      "dangling": 7755,
      "boughs": 7756,
      "idiot": 7757,
      "Drive": 7758,
      "mushrooms": 7759,
      "Axell": 7760,
      "Cressen": 7761,
      "Tawny": 7762,
      "Xenophili": 7763,
      "Xenophilius": 7764,
      "Dy": 7765,
      "Frank": 7766,
      "Galle": 7767,
      "Hi": 7768,
      "Iola": 7769,
      "Rad": 7770,
      "bade": 7771,
      "fying": 7772,
      "papers": 7773,
      "uber": 7774,
      "vom": 7775,
      "edwen": 7776,
      "organ": 7777,
      "behold": 7778,
      "lding": 7779,
      "coast": 7780,
      "mantle": 7781,
      "trud": 7782,
      "consum": 7783,
      "blessed": 7784,
      "worm": 7785,
      "comr": 7786,
      "crust": 7787,
      "gigan": 7788,
      "History": 7789,
      "Today": 7790,
      "heaved": 7791,
      "tries": 7792,
      "amping": 7793,
      "wishing": 7794,
      "valu": 7795,
      "hostage": 7796,
      "changes": 7797,
      "mounts": 7798,
      "seventh": 7799,
      "prints": 7800,
      "gasp": 7801,
      "raced": 7802,
      "example": 7803,
      "polite": 7804,
      "skulls": 7805,
      "Horcruxes": 7806,
      "capture": 7807,
      "puzzled": 7808,
      "treachery": 7809,
      "Kaedwen": 7810,
      "occasionally": 7811,
      "Flint": 7812,
      "scowled": 7813,
      "brigand": 7814,
      "Aedirn": 7815,
      "gigantic": 7816,
      "\"...": 7817,
      "Sw": 7818,
      "Sma": 7819,
      "Ul": 7820,
      "cong": 7821,
      "dart": 7822,
      "ducked": 7823,
      "lately": 7824,
      "mund": 7825,
      "oth": 7826,
      "insol": 7827,
      "insult": 7828,
      "erup": 7829,
      "thud": 7830,
      "wiram": 7831,
      "agers": 7832,
      "absence": 7833,
      "timid": 7834,
      "raken": 7835,
      "gear": 7836,
      "foc": 7837,
      "theirs": 7838,
      "plucked": 7839,
      "mix": 7840,
      "ommy": 7841,
      "donned": 7842,
      "tens": 7843,
      "imper": 7844,
      "choking": 7845,
      "floors": 7846,
      "smiles": 7847,
      "crimin": 7848,
      "plains": 7849,
      "necklace": 7850,
      "hanged": 7851,
      "companies": 7852,
      "subst": 7853,
      "deserve": 7854,
      "vination": 7855,
      "fellows": 7856,
      "Among": 7857,
      "sneered": 7858,
      "descend": 7859,
      "pursued": 7860,
      "ominous": 7861,
      "slightest": 7862,
      "answers": 7863,
      "persuade": 7864,
      "wilderness": 7865,
      "individ": 7866,
      "stammered": 7867,
      "liquid": 7868,
      "Condwiram": 7869,
      "Gamgee": 7870,
      "Smaug": 7871,
      "Condwiramurs": 7872,
      "Hyle": 7873,
      "Zigrin": 7874,
      "bagg": 7875,
      "din": 7876,
      "lass": 7877,
      "mate": 7878,
      "ome": 7879,
      "slim": 7880,
      "tub": 7881,
      "arts": 7882,
      "lle": 7883,
      "aya": 7884,
      "chances": 7885,
      "agony": 7886,
      "noted": 7887,
      "shan": 7888,
      "wheels": 7889,
      "umns": 7890,
      "oused": 7891,
      "overgrown": 7892,
      "headmaster": 7893,
      "exchange": 7894,
      "affle": 7895,
      "warmed": 7896,
      "chewed": 7897,
      "blackness": 7898,
      "rude": 7899,
      "Samwell": 7900,
      "Fork": 7901,
      "tort": 7902,
      "counts": 7903,
      "holdfast": 7904,
      "bucket": 7905,
      "whispers": 7906,
      "imperial": 7907,
      "trip": 7908,
      "largest": 7909,
      "rumbling": 7910,
      "gallery": 7911,
      "Mordane": 7912,
      "Charms": 7913,
      "Magnar": 7914,
      "pines": 7915,
      "bottles": 7916,
      "Deepwood": 7917,
      "adventures": 7918,
      "Syrio": 7919,
      "coughing": 7920,
      "constantly": 7921,
      "tradition": 7922,
      "rubbish": 7923,
      "Celeborn": 7924,
      "holidays": 7925,
      "Patronus": 7926,
      "Hoo": 7927,
      "bathed": 7928,
      "gained": 7929,
      "lac": 7930,
      "resent": 7931,
      "sequ": 7932,
      "beats": 7933,
      "allac": 7934,
      "lius": 7935,
      "withdrew": 7936,
      "amusing": 7937,
      "upset": 7938,
      "ilin": 7939,
      "tee": 7940,
      "myn": 7941,
      "quil": 7942,
      "poked": 7943,
      "plunder": 7944,
      "conven": 7945,
      "smoo": 7946,
      "fluttered": 7947,
      "tah": 7948,
      "quered": 7949,
      "maesters": 7950,
      "Hotah": 7951,
      "Godric": 7952,
      "piles": 7953,
      "ugs": 7954,
      "kindled": 7955,
      "tomb": 7956,
      "signal": 7957,
      "watchful": 7958,
      "midair": 7959,
      "Septe": 7960,
      "accused": 7961,
      "circum": 7962,
      "cliffs": 7963,
      "Dursley": 7964,
      "satisfac": 7965,
      "vigor": 7966,
      "Squir": 7967,
      "reluctantly": 7968,
      "aboard": 7969,
      "Sprout": 7970,
      "argument": 7971,
      "Yurga": 7972,
      "Bi": 7973,
      "Burn": 7974,
      "Hang": 7975,
      "IT": 7976,
      "Pon": 7977,
      "Warri": 7978,
      "daring": 7979,
      "soo": 7980,
      "vice": 7981,
      "revol": 7982,
      "ouching": 7983,
      "thither": 7984,
      "escor": 7985,
      "accusto": 7986,
      "ented": 7987,
      "coal": 7988,
      "cope": 7989,
      "mos": 7990,
      "ability": 7991,
      "whee": 7992,
      "cake": 7993,
      "pling": 7994,
      "sport": 7995,
      "overcome": 7996,
      "nightfall": 7997,
      "rightful": 7998,
      "crashing": 7999,
      "armory": 8000,
      "mustache": 8001,
      "intention": 8002,
      "sently": 8003,
      "followers": 8004,
      "Pod": 8005,
      "cloaked": 8006,
      "impressed": 8007,
      "necks": 8008,
      "Mean": 8009,
      "Always": 8010,
      "hunched": 8011,
      "racing": 8012,
      "advise": 8013,
      "oddly": 8014,
      "Osney": 8015,
      "profit": 8016,
      "shroud": 8017,
      "Needle": 8018,
      "Bludger": 8019,
      "September": 8020,
      "accustomed": 8021,
      "-'": 8022,
      "Bul": 8023,
      "Rho": 8024,
      "Ted": 8025,
      "Twi": 8026,
      "Yen": 8027,
      "hllor": 8028,
      "scan": 8029,
      "wider": 8030,
      "isle": 8031,
      "itary": 8032,
      "lyse": 8033,
      "esse": 8034,
      "acting": 8035,
      "terns": 8036,
      "comed": 8037,
      "abl": 8038,
      "shows": 8039,
      "gems": 8040,
      "foreign": 8041,
      "brut": 8042,
      "exclaimed": 8043,
      "bleak": 8044,
      "lowering": 8045,
      "berveld": 8046,
      "armchair": 8047,
      "disgu": 8048,
      "tapped": 8049,
      "happiness": 8050,
      "surd": 8051,
      "apples": 8052,
      "Potion": 8053,
      "Selyse": 8054,
      "kneel": 8055,
      "Moat": 8056,
      "addition": 8057,
      "columns": 8058,
      "freck": 8059,
      "snows": 8060,
      "warming": 8061,
      "splashing": 8062,
      "harvest": 8063,
      "mounting": 8064,
      "Willow": 8065,
      "patience": 8066,
      "zzling": 8067,
      "shutters": 8068,
      "examining": 8069,
      "passages": 8070,
      "Steel": 8071,
      "struction": 8072,
      "messengers": 8073,
      "clambered": 8074,
      "virt": 8075,
      "lurking": 8076,
      "spurred": 8077,
      "spikes": 8078,
      "stubbornly": 8079,
      "shooting": 8080,
      "briskly": 8081,
      "circumst": 8082,
      "Biberveld": 8083,
      "Age": 8084,
      "Dust": 8085,
      "Gring": 8086,
      "Jho": 8087,
      "TO": 8088,
      "await": 8089,
      "edh": 8090,
      "hak": 8091,
      "estor": 8092,
      "entering": 8093,
      "butt": 8094,
      "acken": 8095,
      "ppery": 8096,
      "boiling": 8097,
      "plum": 8098,
      "ornate": 8099,
      "bles": 8100,
      "permission": 8101,
      "ansy": 8102,
      "insist": 8103,
      "runes": 8104,
      "feels": 8105,
      "barren": 8106,
      "strongly": 8107,
      "nipp": 8108,
      "splinter": 8109,
      "patched": 8110,
      "snapping": 8111,
      "rusted": 8112,
      "Privet": 8113,
      "tangle": 8114,
      "Benjen": 8115,
      "blaze": 8116,
      "otts": 8117,
      "Dareon": 8118,
      "Aber": 8119,
      "Randy": 8120,
      "VE": 8121,
      "hin": 8122,
      "link": 8123,
      "pil": 8124,
      "rors": 8125,
      "sly": 8126,
      "thm": 8127,
      "arranged": 8128,
      "stub": 8129,
      "ribut": 8130,
      "herbs": 8131,
      "chat": 8132,
      "chasing": 8133,
      "unusual": 8134,
      "blushed": 8135,
      "havepate": 8136,
      "tipped": 8137,
      "owner": 8138,
      "rail": 8139,
      "sund": 8140,
      "shaken": 8141,
      "rightly": 8142,
      "perish": 8143,
      "establ": 8144,
      "guilt": 8145,
      "Stan": 8146,
      "Star": 8147,
      "fluttering": 8148,
      "Hoat": 8149,
      "laying": 8150,
      "casting": 8151,
      "matched": 8152,
      "Dema": 8153,
      "sleepy": 8154,
      "towns": 8155,
      "temples": 8156,
      "dryads": 8157,
      "Saan": 8158,
      "Lytta": 8159,
      "erie": 8160,
      "Shagga": 8161,
      "daresay": 8162,
      "eleph": 8163,
      "studded": 8164,
      "avosi": 8165,
      "dunno": 8166,
      "Braavosi": 8167,
      "ohn": 8168,
      "errant": 8169,
      "swirled": 8170,
      "rippling": 8171,
      "clumsy": 8172,
      "beams": 8173,
      "exhausted": 8174,
      "Triwizard": 8175,
      "Lothl": 8176,
      "shudder": 8177,
      "pavilion": 8178,
      "Gringotts": 8179,
      "Jhogo": 8180,
      "Randyll": 8181,
      "BE": 8182,
      "Bu": 8183,
      "Call": 8184,
      "Gates": 8185,
      "Lommy": 8186,
      "Nestor": 8187,
      "Pa": 8188,
      "SE": 8189,
      "aud": 8190,
      "awaits": 8191,
      "fence": 8192,
      "fring": 8193,
      "hushed": 8194,
      "hasty": 8195,
      "itor": 8196,
      "lting": 8197,
      "massa": 8198,
      "maker": 8199,
      "haze": 8200,
      "metho": 8201,
      "beheld": 8202,
      "roses": 8203,
      "safer": 8204,
      "liver": 8205,
      "forge": 8206,
      "omlik": 8207,
      "scur": 8208,
      "checking": 8209,
      "ineas": 8210,
      "berries": 8211,
      "ridd": 8212,
      "skinned": 8213,
      "skilled": 8214,
      "tapest": 8215,
      "slash": 8216,
      "killer": 8217,
      "sunk": 8218,
      "risoned": 8219,
      "limb": 8220,
      "drained": 8221,
      "Arbor": 8222,
      "Quaffle": 8223,
      "stricken": 8224,
      "squinted": 8225,
      "Afterward": 8226,
      "nonetheless": 8227,
      "welcomed": 8228,
      "hunter": 8229,
      "dryly": 8230,
      "journeyed": 8231,
      "gallant": 8232,
      "tunnels": 8233,
      "Trees": 8234,
      "suspicion": 8235,
      "Headless": 8236,
      "lurched": 8237,
      "yielded": 8238,
      "Skomlik": 8239,
      "Valyria": 8240,
      "Brugge": 8241,
      "dignity": 8242,
      "Phineas": 8243,
      "character": 8244,
      "vatar": 8245,
      "Warrior": 8246,
      "Biberveldt": 8247,
      "tapestry": 8248,
      "Amon": 8249,
      "Cold": 8250,
      "Dim": 8251,
      "Field": 8252,
      "Pig": 8253,
      "Save": 8254,
      "bene": 8255,
      "jars": 8256,
      "lakes": 8257,
      "nas": 8258,
      "nay": 8259,
      "pond": 8260,
      "tat": 8261,
      "tough": 8262,
      "wrest": 8263,
      "inspe": 8264,
      "inhabit": 8265,
      "repro": 8266,
      "onde": 8267,
      "ators": 8268,
      "ingale": 8269,
      "sess": 8270,
      "cells": 8271,
      "gossi": 8272,
      "fix": 8273,
      "arty": 8274,
      "sche": 8275,
      "wald": 8276,
      "Frog": 8277,
      "bloodriders": 8278,
      "Dog": 8279,
      "chicken": 8280,
      "vibr": 8281,
      "tavern": 8282,
      "bowmen": 8283,
      "guarding": 8284,
      "sigil": 8285,
      "Maz": 8286,
      "centre": 8287,
      "Molly": 8288,
      "murde": 8289,
      "vanish": 8290,
      "ellan": 8291,
      "Masters": 8292,
      "bursting": 8293,
      "military": 8294,
      "photograph": 8295,
      "darted": 8296,
      "Assire": 8297,
      "rhythm": 8298,
      "swimming": 8299,
      "appreci": 8300,
      "authority": 8301,
      "grievous": 8302,
      "explanation": 8303,
      "figuration": 8304,
      "Meanwhile": 8305,
      "Away": 8306,
      "Duck": 8307,
      "Fist": 8308,
      "Glor": 8309,
      "Hen": 8310,
      "Ilu": 8311,
      "Name": 8312,
      "Pel": 8313,
      "Port": 8314,
      "Qo": 8315,
      "Rattle": 8316,
      "Sto": 8317,
      "Shavepate": 8318,
      "Twenty": 8319,
      "Wal": 8320,
      "avan": 8321,
      "pts": 8322,
      "sung": 8323,
      "tune": 8324,
      "ya": 8325,
      "retreat": 8326,
      "toast": 8327,
      "asm": 8328,
      "sealed": 8329,
      "demons": 8330,
      "absurd": 8331,
      "idered": 8332,
      "endale": 8333,
      "grou": 8334,
      "angle": 8335,
      "gulf": 8336,
      "ski": 8337,
      "shiver": 8338,
      "Thousand": 8339,
      "---": 8340,
      "Together": 8341,
      "ighth": 8342,
      "beards": 8343,
      "energy": 8344,
      "aggering": 8345,
      "basilisk": 8346,
      "roughly": 8347,
      "kissing": 8348,
      "septa": 8349,
      "wyck": 8350,
      "enjoying": 8351,
      "Plum": 8352,
      "abyss": 8353,
      "blazed": 8354,
      "rattled": 8355,
      "Addam": 8356,
      "Brandybuck": 8357,
      "Bombad": 8358,
      "ridiculous": 8359,
      "Duskendale": 8360,
      "Iluvatar": 8361,
      "Rattleshirt": 8362,
      "Edor": 8363,
      "Satin": 8364,
      "Town": 8365,
      "dice": 8366,
      "ilet": 8367,
      "mour": 8368,
      "nim": 8369,
      "sar": 8370,
      "tucked": 8371,
      "instrum": 8372,
      "toad": 8373,
      "tokar": 8374,
      "beet": 8375,
      "escap": 8376,
      "adhor": 8377,
      "mole": 8378,
      "ambit": 8379,
      "demonstr": 8380,
      "poles": 8381,
      "handing": 8382,
      "clearer": 8383,
      "shift": 8384,
      "shifting": 8385,
      "ruby": 8386,
      "crest": 8387,
      "surve": 8388,
      "buzz": 8389,
      "meanwhile": 8390,
      "whiskers": 8391,
      "tricks": 8392,
      "thirsty": 8393,
      "colate": 8394,
      "questioned": 8395,
      "suspect": 8396,
      "desert": 8397,
      "detention": 8398,
      "circles": 8399,
      "washing": 8400,
      "heights": 8401,
      "innoc": 8402,
      "Wizards": 8403,
      "judged": 8404,
      "debt": 8405,
      "jumping": 8406,
      "fucking": 8407,
      "trumpet": 8408,
      "rabbit": 8409,
      "Whether": 8410,
      "Salladhor": 8411,
      "magnificent": 8412,
      "investig": 8413,
      "Edoras": 8414,
      "Ag": 8415,
      "Cas": 8416,
      "Dan": 8417,
      "Emyn": 8418,
      "Gent": 8419,
      "IL": 8420,
      "Whis": 8421,
      "barrow": 8422,
      "bidding": 8423,
      "doomed": 8424,
      "iance": 8425,
      "mally": 8426,
      "nic": 8427,
      "zes": 8428,
      "influ": 8429,
      "assembled": 8430,
      "vement": 8431,
      "herd": 8432,
      "nelius": 8433,
      "dem": 8434,
      "logy": 8435,
      "quo": 8436,
      "plague": 8437,
      "opy": 8438,
      "dizz": 8439,
      "clust": 8440,
      "vio": 8441,
      "happier": 8442,
      "compared": 8443,
      "pipes": 8444,
      "chal": 8445,
      "Cotton": 8446,
      "findel": 8447,
      "barn": 8448,
      "chests": 8449,
      "patient": 8450,
      "Gryffindors": 8451,
      "Vargo": 8452,
      "instinc": 8453,
      "Thorne": 8454,
      "spiral": 8455,
      "claims": 8456,
      "thieves": 8457,
      "sneak": 8458,
      "Cornelius": 8459,
      "officers": 8460,
      "Buckland": 8461,
      "blurred": 8462,
      "miserably": 8463,
      "mounds": 8464,
      "Quickly": 8465,
      "fisher": 8466,
      "unexpectedly": 8467,
      "advanced": 8468,
      "Misty": 8469,
      "Glorfindel": 8470,
      "Eor": 8471,
      "Few": 8472,
      "Ker": 8473,
      "Kenna": 8474,
      "Luck": 8475,
      "Sou": 8476,
      "Sand": 8477,
      "Thi": 8478,
      "Vo": 8479,
      "Vese": 8480,
      "glove": 8481,
      "jou": 8482,
      "tte": 8483,
      "rela": 8484,
      "recent": 8485,
      "selling": 8486,
      "vere": 8487,
      "liken": 8488,
      "fortress": 8489,
      "agund": 8490,
      "upright": 8491,
      "rape": 8492,
      "ify": 8493,
      "ifully": 8494,
      "akh": 8495,
      "forearm": 8496,
      "ulus": 8497,
      "sieve": 8498,
      "perform": 8499,
      "underground": 8500,
      "glaring": 8501,
      "wailed": 8502,
      "Beorn": 8503,
      "Mya": 8504,
      "surcoat": 8505,
      "Somehow": 8506,
      "burns": 8507,
      "fearful": 8508,
      "slowed": 8509,
      "aimed": 8510,
      "riverlands": 8511,
      "slimy": 8512,
      "throats": 8513,
      "vale": 8514,
      "approval": 8515,
      "Keeper": 8516,
      "spitting": 8517,
      "shrug": 8518,
      "reflection": 8519,
      "melting": 8520,
      "violent": 8521,
      "weird": 8522,
      "scratching": 8523,
      "achieved": 8524,
      "vaguely": 8525,
      "hounds": 8526,
      "choosing": 8527,
      "behavi": 8528,
      "shuffled": 8529,
      "Transfiguration": 8530,
      "circumstances": 8531,
      "Vesemir": 8532,
      "During": 8533,
      "Lórien": 8534,
      "cam": 8535,
      "cissa": 8536,
      "etern": 8537,
      "fare": 8538,
      "arn": 8539,
      "stan": 8540,
      "stinking": 8541,
      "lee": 8542,
      "bewild": 8543,
      "vels": 8544,
      "urge": 8545,
      "blink": 8546,
      "granted": 8547,
      "exagger": 8548,
      "scare": 8549,
      "gaped": 8550,
      "warmer": 8551,
      "chewing": 8552,
      "ftly": 8553,
      "spec": 8554,
      "glin": 8555,
      "Stones": 8556,
      "Dolo": 8557,
      "efforts": 8558,
      "Somewhere": 8559,
      "battered": 8560,
      "dripped": 8561,
      "hopeless": 8562,
      "Seek": 8563,
      "striga": 8564,
      "summons": 8565,
      "patches": 8566,
      "troubles": 8567,
      "charred": 8568,
      "Hallows": 8569,
      "emerging": 8570,
      "peaceful": 8571,
      "Divination": 8572,
      "Tarth": 8573,
      "Nightingale": 8574,
      "Cailin": 8575,
      "hesitation": 8576,
      "maps": 8577,
      "statues": 8578,
      "oooooooo": 8579,
      "contrary": 8580,
      "spiked": 8581,
      "druids": 8582,
      "involved": 8583,
      "scratch": 8584,
      "Avallac": 8585,
      "Mallister": 8586,
      "embroidered": 8587,
      "Alys": 8588,
      "sensation": 8589,
      "Aberforth": 8590,
      "Bath": 8591,
      "Bane": 8592,
      "Ere": 8593,
      "Fel": 8594,
      "HE": 8595,
      "ME": 8596,
      "Pal": 8597,
      "bai": 8598,
      "equ": 8599,
      "gorge": 8600,
      "lof": 8601,
      "lugg": 8602,
      "nu": 8603,
      "pite": 8604,
      "phy": 8605,
      "tren": 8606,
      "uced": 8607,
      "argue": 8608,
      "llus": 8609,
      "hippo": 8610,
      "adorn": 8611,
      "chunk": 8612,
      "uras": 8613,
      "sole": 8614,
      "socks": 8615,
      "illusion": 8616,
      "gruff": 8617,
      "angers": 8618,
      "thanked": 8619,
      "stealing": 8620,
      "treating": 8621,
      "cture": 8622,
      "flour": 8623,
      "descent": 8624,
      "Alley": 8625,
      "cares": 8626,
      "crimes": 8627,
      "snowy": 8628,
      "honored": 8629,
      "wiser": 8630,
      "arent": 8631,
      "venture": 8632,
      "presents": 8633,
      "aggen": 8634,
      "ilien": 8635,
      "wearily": 8636,
      "ballad": 8637,
      "roofs": 8638,
      "Braenn": 8639,
      "generous": 8640,
      "Jaq": 8641,
      "annoy": 8642,
      "Narcissa": 8643,
      "collect": 8644,
      "corrected": 8645,
      "provided": 8646,
      "arguing": 8647,
      "Ithilien": 8648,
      "mercen": 8649,
      "sprawled": 8650,
      "valuable": 8651,
      "Damp": 8652,
      "Graw": 8653,
      "Mister": 8654,
      "Oft": 8655,
      "Tow": 8656,
      "bun": 8657,
      "hing": 8658,
      "uous": 8659,
      "reined": 8660,
      "eral": 8661,
      "ato": 8662,
      "isport": 8663,
      "aco": 8664,
      "accursed": 8665,
      "activ": 8666,
      "herds": 8667,
      "cere": 8668,
      "hopped": 8669,
      "unte": 8670,
      "unhappy": 8671,
      "hats": 8672,
      "quer": 8673,
      "willingly": 8674,
      "gren": 8675,
      "turni": 8676,
      "sim": 8677,
      "warily": 8678,
      "perils": 8679,
      "pron": 8680,
      "mustn": 8681,
      "Tyre": 8682,
      "compartment": 8683,
      "countless": 8684,
      "marches": 8685,
      "curls": 8686,
      "sweep": 8687,
      "mischief": 8688,
      "carriage": 8689,
      "ankles": 8690,
      "trailing": 8691,
      "flared": 8692,
      "Within": 8693,
      "Lannisport": 8694,
      "returns": 8695,
      "repair": 8696,
      "jects": 8697,
      "thirst": 8698,
      "thickly": 8699,
      "breathless": 8700,
      "rumble": 8701,
      "arrive": 8702,
      "snap": 8703,
      "attacking": 8704,
      "Excellent": 8705,
      "twinkling": 8706,
      "threaten": 8707,
      "dirk": 8708,
      "punish": 8709,
      "Loraq": 8710,
      "prepare": 8711,
      "Pensieve": 8712,
      "deliber": 8713,
      "stooping": 8714,
      "heavier": 8715,
      "record": 8716,
      "Chief": 8717,
      "snarling": 8718,
      "Mirri": 8719,
      "squeeze": 8720,
      "ignore": 8721,
      "banging": 8722,
      "extraordinary": 8723,
      "existence": 8724,
      "awkwardly": 8725,
      "boulder": 8726,
      "boulders": 8727,
      "brilliant": 8728,
      "brazier": 8729,
      "Bombadil": 8730,
      "Aggo": 8731,
      "Jaqen": 8732,
      "-?\"": 8733,
      "DA": 8734,
      "Days": 8735,
      "Gaffer": 8736,
      "Mount": 8737,
      "Near": 8738,
      "Ra": 8739,
      "Sty": 8740,
      "avail": 8741,
      "cers": 8742,
      "equi": 8743,
      "lund": 8744,
      "mb": 8745,
      "padded": 8746,
      "vince": 8747,
      "yne": 8748,
      "regar": 8749,
      "attrac": 8750,
      "aran": 8751,
      "arakh": 8752,
      "veget": 8753,
      "weigh": 8754,
      "webs": 8755,
      "ador": 8756,
      "admi": 8757,
      "rik": 8758,
      "soil": 8759,
      "cob": 8760,
      "uncertainly": 8761,
      "feeding": 8762,
      "dealt": 8763,
      "pom": 8764,
      "poking": 8765,
      "endured": 8766,
      "oper": 8767,
      "club": 8768,
      "steaming": 8769,
      "meria": 8770,
      "flin": 8771,
      "founded": 8772,
      "surrend": 8773,
      "satin": 8774,
      "sunken": 8775,
      "Deger": 8776,
      "visor": 8777,
      "Maedh": 8778,
      "elsewhere": 8779,
      "certainty": 8780,
      "obsc": 8781,
      "strip": 8782,
      "fairly": 8783,
      "brighter": 8784,
      "sharpened": 8785,
      "ilda": 8786,
      "secretly": 8787,
      "Harwin": 8788,
      "patted": 8789,
      "Dorregar": 8790,
      "groped": 8791,
      "groping": 8792,
      "grotes": 8793,
      "ibald": 8794,
      "concerns": 8795,
      "avoiding": 8796,
      "appointed": 8797,
      "Private": 8798,
      "Place": 8799,
      "Rickard": 8800,
      "frail": 8801,
      "Apparently": 8802,
      "gloomi": 8803,
      "Disappar": 8804,
      "pearl": 8805,
      "giggled": 8806,
      "farmer": 8807,
      "anticip": 8808,
      "Children": 8809,
      "oubtedly": 8810,
      "apologi": 8811,
      "Vizimir": 8812,
      "Firen": 8813,
      "Florent": 8814,
      "Smith": 8815,
      "Plumm": 8816,
      "Degerlund": 8817,
      "Maedhros": 8818,
      "Dorregaray": 8819,
      "Aman": 8820,
      "Cru": 8821,
      "Dond": 8822,
      "Eith": 8823,
      "Natur": 8824,
      "Swall": 8825,
      "Temp": 8826,
      "awaited": 8827,
      "dully": 8828,
      "fits": 8829,
      "pus": 8830,
      "vices": 8831,
      "“…": 8832,
      "topp": 8833,
      "arrion": 8834,
      "enes": 8835,
      "stakes": 8836,
      "itches": 8837,
      "sets": 8838,
      "lyd": 8839,
      "accent": 8840,
      "weighed": 8841,
      "lici": 8842,
      "tery": 8843,
      "deceived": 8844,
      "uming": 8845,
      "quin": 8846,
      "thron": 8847,
      "figu": 8848,
      "earnest": 8849,
      "gaol": 8850,
      "dipped": 8851,
      "mule": 8852,
      "smash": 8853,
      "breed": 8854,
      "needles": 8855,
      "tax": 8856,
      "joining": 8857,
      "compli": 8858,
      "Merrett": 8859,
      "trimmed": 8860,
      "kinds": 8861,
      "deaths": 8862,
      "throbbing": 8863,
      "garb": 8864,
      "value": 8865,
      "protested": 8866,
      "Borgin": 8867,
      "Ludo": 8868,
      "deserved": 8869,
      "penetr": 8870,
      "devour": 8871,
      "horribly": 8872,
      "suffering": 8873,
      "Amroth": 8874,
      "draped": 8875,
      "filth": 8876,
      "Presently": 8877,
      "Smallwood": 8878,
      "debts": 8879,
      "Between": 8880,
      "conceal": 8881,
      "Osgili": 8882,
      "brains": 8883,
      "obeyed": 8884,
      "Brothers": 8885,
      "solemnly": 8886,
      "templ": 8887,
      "bristling": 8888,
      "popular": 8889,
      "applause": 8890,
      "Truly": 8891,
      "experienced": 8892,
      "Bathilda": 8893,
      "ceremon": 8894,
      "Dondarrion": 8895,
      "figured": 8896,
      "Osgiliath": 8897,
      "\".": 8898,
      "AS": 8899,
      "Aha": 8900,
      "Clyd": 8901,
      "Dag": 8902,
      "Lyn": 8903,
      "Met": 8904,
      "Usur": 8905,
      "Wed": 8906,
      "Wake": 8907,
      "kraken": 8908,
      "né": 8909,
      "wreck": 8910,
      "hells": 8911,
      "stake": 8912,
      "melt": 8913,
      "sey": 8914,
      "bere": 8915,
      "saving": 8916,
      "weeds": 8917,
      "alarmed": 8918,
      "ada": 8919,
      "verse": 8920,
      "verns": 8921,
      "urgently": 8922,
      "outstretched": 8923,
      "coiled": 8924,
      "uncomfortably": 8925,
      "moves": 8926,
      "illion": 8927,
      "manhood": 8928,
      "bothered": 8929,
      "bolted": 8930,
      "Western": 8931,
      "grunt": 8932,
      "longships": 8933,
      "medic": 8934,
      "bleed": 8935,
      "apt": 8936,
      "cheon": 8937,
      "bering": 8938,
      "Roach": 8939,
      "chilly": 8940,
      "desol": 8941,
      "cival": 8942,
      "castellan": 8943,
      "parti": 8944,
      "Ard": 8945,
      "prize": 8946,
      "Ungo": 8947,
      "umpkin": 8948,
      "Percival": 8949,
      "boring": 8950,
      "grove": 8951,
      "numerous": 8952,
      "Exactly": 8953,
      "weakness": 8954,
      "packs": 8955,
      "flicked": 8956,
      "Nonetheless": 8957,
      "Captains": 8958,
      "cheerfully": 8959,
      "shrieking": 8960,
      "glimmered": 8961,
      "connected": 8962,
      "argued": 8963,
      "heavens": 8964,
      "Mudblood": 8965,
      "accompl": 8966,
      "hakam": 8967,
      "Firenze": 8968,
      "Eithné": 8969,
      "Clydas": 8970,
      "Bla": 8971,
      "Dawn": 8972,
      "Ob": 8973,
      "Ogden": 8974,
      "Pin": 8975,
      "Rorge": 8976,
      "Sur": 8977,
      "Valley": 8978,
      "Wel": 8979,
      "cull": 8980,
      "fy": 8981,
      "ponder": 8982,
      "eness": 8983,
      "sacred": 8984,
      "licking": 8985,
      "dol": 8986,
      "dock": 8987,
      "raped": 8988,
      "potions": 8989,
      "pockets": 8990,
      "whoever": 8991,
      "kingdoms": 8992,
      "Shelob": 8993,
      "overheard": 8994,
      "clans": 8995,
      "leton": 8996,
      "marshes": 8997,
      "curling": 8998,
      "facts": 8999,
      "cari": 9000,
      "imprisoned": 9001,
      "slower": 9002,
      "hopeful": 9003,
      "Mahakam": 9004,
      "denied": 9005,
      "Marillion": 9006,
      "mothers": 9007,
      "doubtless": 9008,
      "jewel": 9009,
      "striking": 9010,
      "scarf": 9011,
      "defense": 9012,
      "susp": 9013,
      "races": 9014,
      "lances": 9015,
      "horrified": 9016,
      "traveling": 9017,
      "preparing": 9018,
      "entertain": 9019,
      "archway": 9020,
      "fascin": 9021,
      "official": 9022,
      "blurted": 9023,
      "tugging": 9024,
      "ietta": 9025,
      "hoarsely": 9026,
      "Ryman": 9027,
      "Telbrus": 9028,
      "lungs": 9029,
      "Ghiscari": 9030,
      "affairs": 9031,
      "Neck": 9032,
      "limey": 9033,
      "eyelids": 9034,
      "brothel": 9035,
      "baggage": 9036,
      "bewildered": 9037,
      "Felagund": 9038,
      "Usurper": 9039,
      "Eag": 9040,
      "Fab": 9041,
      "Hun": 9042,
      "Juras": 9043,
      "Lond": 9044,
      "Nah": 9045,
      "Sting": 9046,
      "Satur": 9047,
      "Whit": 9048,
      "fry": 9049,
      "lat": 9050,
      "lump": 9051,
      "pis": 9052,
      "tournament": 9053,
      "anking": 9054,
      "arr": 9055,
      "islands": 9056,
      "stank": 9057,
      "access": 9058,
      "chant": 9059,
      "kest": 9060,
      "nets": 9061,
      "core": 9062,
      "amyr": 9063,
      "aint": 9064,
      "Hello": 9065,
      "blaz": 9066,
      "cape": 9067,
      "orns": 9068,
      "comely": 9069,
      "worms": 9070,
      "cram": 9071,
      "mules": 9072,
      "guy": 9073,
      "disbelief": 9074,
      "Thenns": 9075,
      "enese": 9076,
      "watery": 9077,
      "legends": 9078,
      "Colin": 9079,
      "sunrise": 9080,
      "drowning": 9081,
      "hopefully": 9082,
      "Real": 9083,
      "starving": 9084,
      "Marge": 9085,
      "doubted": 9086,
      "murd": 9087,
      "slavers": 9088,
      "smote": 9089,
      "possibility": 9090,
      "praying": 9091,
      "dealing": 9092,
      "bounded": 9093,
      "blindly": 9094,
      "boomed": 9095,
      "Speech": 9096,
      "invitation": 9097,
      "Coral": 9098,
      "Mirror": 9099,
      "guts": 9100,
      "provide": 9101,
      "Taena": 9102,
      "separated": 9103,
      "increased": 9104,
      "Burrow": 9105,
      "Creatures": 9106,
      "knuckles": 9107,
      "Galleons": 9108,
      "Swallow": 9109,
      "London": 9110,
      "Ale": 9111,
      "Elia": 9112,
      "Hon": 9113,
      "IS": 9114,
      "Salt": 9115,
      "cation": 9116,
      "drenched": 9117,
      "jade": 9118,
      "mage": 9119,
      "ption": 9120,
      "uing": 9121,
      "winning": 9122,
      "’.": 9123,
      "indel": 9124,
      "resem": 9125,
      "idle": 9126,
      "alas": 9127,
      "ira": 9128,
      "alliance": 9129,
      "develo": 9130,
      "shrew": 9131,
      "rahil": 9132,
      "causing": 9133,
      "suited": 9134,
      "condem": 9135,
      "convince": 9136,
      "stored": 9137,
      "bedside": 9138,
      "stem": 9139,
      "glint": 9140,
      "glinting": 9141,
      "Into": 9142,
      "needle": 9143,
      "ruff": 9144,
      "Beleg": 9145,
      "vies": 9146,
      "hardened": 9147,
      "counc": 9148,
      "fingered": 9149,
      "streamed": 9150,
      "material": 9151,
      "hurting": 9152,
      "century": 9153,
      "slippery": 9154,
      "splin": 9155,
      "bricks": 9156,
      "Yeh": 9157,
      "McL": 9158,
      "pairs": 9159,
      "ratul": 9160,
      "importance": 9161,
      "hurriedly": 9162,
      "attempting": 9163,
      "Amory": 9164,
      "Sunspear": 9165,
      "cooked": 9166,
      "pinch": 9167,
      "stalked": 9168,
      "dwelling": 9169,
      "boxes": 9170,
      "Sorce": 9171,
      "Sorting": 9172,
      "sparkling": 9173,
      "Duchess": 9174,
      "pearls": 9175,
      "glistened": 9176,
      "nurse": 9177,
      "Lovegood": 9178,
      "muscles": 9179,
      "cushions": 9180,
      "treasures": 9181,
      "execution": 9182,
      "Blessed": 9183,
      "stirrups": 9184,
      "wights": 9185,
      "courteous": 9186,
      "Damphair": 9187,
      "Corn": 9188,
      "Faw": 9189,
      "GH": 9190,
      "Ham": 9191,
      "Muri": 9192,
      "Open": 9193,
      "Riss": 9194,
      "Si": 9195,
      "Umber": 9196,
      "dain": 9197,
      "fake": 9198,
      "fanci": 9199,
      "mul": 9200,
      "atively": 9201,
      "sele": 9202,
      "lick": 9203,
      "unconscious": 9204,
      "mocked": 9205,
      "deceive": 9206,
      "Weather": 9207,
      "Weese": 9208,
      "laz": 9209,
      "canopy": 9210,
      "ults": 9211,
      "comet": 9212,
      "crit": 9213,
      "cheap": 9214,
      "presume": 9215,
      "linger": 9216,
      "silks": 9217,
      "udging": 9218,
      "hairs": 9219,
      "viel": 9220,
      "causeway": 9221,
      "slumped": 9222,
      "bowls": 9223,
      "carp": 9224,
      "Grindel": 9225,
      "condition": 9226,
      "flows": 9227,
      "hostages": 9228,
      "Aretu": 9229,
      "Pylos": 9230,
      "fume": 9231,
      "Lands": 9232,
      "Peter": 9233,
      "Verden": 9234,
      "tremble": 9235,
      "Varamyr": 9236,
      "sternly": 9237,
      "crackling": 9238,
      "weakly": 9239,
      "Emmon": 9240,
      "aza": 9241,
      "Skelli": 9242,
      "barking": 9243,
      "impressive": 9244,
      "Imrahil": 9245,
      "customs": 9246,
      "gratitude": 9247,
      "coolly": 9248,
      "adiance": 9249,
      "Maegor": 9250,
      "cripple": 9251,
      "Aldrion": 9252,
      "diamond": 9253,
      "pyramid": 9254,
      "Muil": 9255,
      "forgiveness": 9256,
      "Slaver": 9257,
      "intelligence": 9258,
      "adorned": 9259,
      "pommel": 9260,
      "Saturday": 9261,
      "McLaggen": 9262,
      "Aretuza": 9263,
      "Skellige": 9264,
      "Around": 9265,
      "Brave": 9266,
      "Fy": 9267,
      "Fine": 9268,
      "Figg": 9269,
      "bounced": 9270,
      "cured": 9271,
      "dung": 9272,
      "emotion": 9273,
      "kh": 9274,
      "latter": 9275,
      "wadd": 9276,
      "intense": 9277,
      "toms": 9278,
      "asily": 9279,
      "noses": 9280,
      "iring": 9281,
      "ril": 9282,
      "moths": 9283,
      "abed": 9284,
      "acking": 9285,
      "tex": 9286,
      "gelding": 9287,
      "boards": 9288,
      "poses": 9289,
      "longing": 9290,
      "menace": 9291,
      "file": 9292,
      "exp": 9293,
      "failing": 9294,
      "newsp": 9295,
      "performed": 9296,
      "stowed": 9297,
      "glinted": 9298,
      "Things": 9299,
      "flakes": 9300,
      "shadowed": 9301,
      "Orc": 9302,
      "Meribald": 9303,
      "resumed": 9304,
      "wines": 9305,
      "Arda": 9306,
      "paint": 9307,
      "emptied": 9308,
      "emperor": 9309,
      "valour": 9310,
      "thicker": 9311,
      "sends": 9312,
      "dwarfs": 9313,
      "latest": 9314,
      "sticky": 9315,
      "villagers": 9316,
      "cases": 9317,
      "dammit": 9318,
      "Brazen": 9319,
      "mainly": 9320,
      "Magister": 9321,
      "worrying": 9322,
      "problems": 9323,
      "heroes": 9324,
      "Duur": 9325,
      "yawning": 9326,
      "noisy": 9327,
      "ninety": 9328,
      "chimney": 9329,
      "neighbour": 9330,
      "spilling": 9331,
      "rushes": 9332,
      "ribbon": 9333,
      "satisfaction": 9334,
      "Squirrels": 9335,
      "Grawp": 9336,
      "gloomily": 9337,
      "Rissberg": 9338,
      "Fysh": 9339,
      "Dú": 9340,
      "EE": 9341,
      "Eh": 9342,
      "Evil": 9343,
      "Fili": 9344,
      "Gla": 9345,
      "Oro": 9346,
      "Rings": 9347,
      "Yar": 9348,
      "camped": 9349,
      "jug": 9350,
      "mong": 9351,
      "wart": 9352,
      "recovered": 9353,
      "recru": 9354,
      "restrain": 9355,
      "tolan": 9356,
      "hagg": 9357,
      "veiled": 9358,
      "essay": 9359,
      "esses": 9360,
      "acted": 9361,
      "alla": 9362,
      "goats": 9363,
      "gollum": 9364,
      "abilities": 9365,
      "roman": 9366,
      "ckle": 9367,
      "tile": 9368,
      "ills": 9369,
      "akened": 9370,
      "poster": 9371,
      "trous": 9372,
      "forebo": 9373,
      "menacing": 9374,
      "fired": 9375,
      "mental": 9376,
      "watchers": 9377,
      "cheered": 9378,
      "ishn": 9379,
      "ffic": 9380,
      "igns": 9381,
      "maze": 9382,
      "bowels": 9383,
      "trailed": 9384,
      "Grishn": 9385,
      "fighters": 9386,
      "Donal": 9387,
      "March": 9388,
      "Islands": 9389,
      "mutton": 9390,
      "bridges": 9391,
      "biggest": 9392,
      "slaught": 9393,
      "Barad": 9394,
      "seemingly": 9395,
      "protest": 9396,
      "portcull": 9397,
      "presented": 9398,
      "sorceresses": 9399,
      "midday": 9400,
      "subjects": 9401,
      "attacks": 9402,
      "shrilly": 9403,
      "valleys": 9404,
      "examine": 9405,
      "pitched": 9406,
      "rustle": 9407,
      "revealing": 9408,
      "punched": 9409,
      "vines": 9410,
      "circular": 9411,
      "volunte": 9412,
      "Maggot": 9413,
      "portraits": 9414,
      "fashioned": 9415,
      "eeee": 9416,
      "Fingon": 9417,
      "assume": 9418,
      "communic": 9419,
      "Despite": 9420,
      "achieve": 9421,
      "hastened": 9422,
      "measured": 9423,
      "Nymeria": 9424,
      "amusement": 9425,
      "hauled": 9426,
      "ouette": 9427,
      "pictures": 9428,
      "Ulmo": 9429,
      "erupted": 9430,
      "sarcas": 9431,
      "likeness": 9432,
      "Welcome": 9433,
      "Giant": 9434,
      "Grubb": 9435,
      "Hat": 9436,
      "RY": 9437,
      "Venger": 9438,
      "Wat": 9439,
      "eleg": 9440,
      "fade": 9441,
      "lashed": 9442,
      "mused": 9443,
      "mstrang": 9444,
      "rumbled": 9445,
      "ïk": 9446,
      "orphan": 9447,
      "stale": 9448,
      "meals": 9449,
      "becomes": 9450,
      "soap": 9451,
      "unlikely": 9452,
      "moat": 9453,
      "sheets": 9454,
      "ourneys": 9455,
      "poppy": 9456,
      "trading": 9457,
      "convic": 9458,
      "consequ": 9459,
      "undo": 9460,
      "scroll": 9461,
      "crumbling": 9462,
      "prud": 9463,
      "protr": 9464,
      "stepping": 9465,
      "distracted": 9466,
      "farthing": 9467,
      "talent": 9468,
      "complic": 9469,
      "smallest": 9470,
      "horseman": 9471,
      "Ortolan": 9472,
      "paraly": 9473,
      "fearsome": 9474,
      "wildfire": 9475,
      "droop": 9476,
      "fairy": 9477,
      "squinting": 9478,
      "placing": 9479,
      "calcul": 9480,
      "Rivers": 9481,
      "auld": 9482,
      "terribly": 9483,
      "rumours": 9484,
      "brim": 9485,
      "defended": 9486,
      "duel": 9487,
      "deserves": 9488,
      "cracking": 9489,
      "funeral": 9490,
      "Durmstrang": 9491,
      "trickling": 9492,
      "puffed": 9493,
      "Plank": 9494,
[...]
